#include "magic_wand_model_data.h"

// We need to keep the data array aligned on some architectures.
#ifdef __has_attribute
#define HAVE_ATTRIBUTE(x) __has_attribute(x)
#else
#define HAVE_ATTRIBUTE(x) 0
#endif
#if HAVE_ATTRIBUTE(aligned) || (defined(__GNUC__) && !defined(__clang__))
#define DATA_ALIGN_ATTRIBUTE __attribute__((aligned(4)))
#else
#define DATA_ALIGN_ATTRIBUTE
#endif

// Paste the data of the char array in `src/model.cc` here
const unsigned char g_magic_wand_model_data[] DATA_ALIGN_ATTRIBUTE = {
    0x1c, 0x00, 0x00, 0x00, 0x54, 0x46, 0x4c, 0x33, 0x14, 0x00, 0x20, 0x00,
  0x04, 0x00, 0x08, 0x00, 0x0c, 0x00, 0x10, 0x00, 0x14, 0x00, 0x00, 0x00,
  0x18, 0x00, 0x1c, 0x00, 0x14, 0x00, 0x00, 0x00, 0x03, 0x00, 0x00, 0x00,
  0x18, 0x00, 0x00, 0x00, 0x2c, 0x00, 0x00, 0x00, 0xd8, 0x00, 0x00, 0x00,
  0x2c, 0x00, 0x00, 0x00, 0x80, 0x00, 0x00, 0x00, 0x78, 0x00, 0x00, 0x00,
  0x05, 0x00, 0x00, 0x00, 0x28, 0x07, 0x00, 0x00, 0x44, 0x06, 0x00, 0x00,
  0xbc, 0x03, 0x00, 0x00, 0xf8, 0x02, 0x00, 0x00, 0xac, 0x01, 0x00, 0x00,
  0x01, 0x00, 0x00, 0x00, 0xd0, 0x00, 0x00, 0x00, 0x14, 0x00, 0x00, 0x00,
  0x98, 0x32, 0x00, 0x00, 0x94, 0x32, 0x00, 0x00, 0x8c, 0x31, 0x00, 0x00,
  0xd8, 0x30, 0x00, 0x00, 0x30, 0x30, 0x00, 0x00, 0xbc, 0x2f, 0x00, 0x00,
  0x50, 0x2f, 0x00, 0x00, 0x00, 0x13, 0x00, 0x00, 0xec, 0x11, 0x00, 0x00,
  0x10, 0x10, 0x00, 0x00, 0xb4, 0x07, 0x00, 0x00, 0x6c, 0x32, 0x00, 0x00,
  0x68, 0x32, 0x00, 0x00, 0x64, 0x32, 0x00, 0x00, 0x60, 0x32, 0x00, 0x00,
  0x5c, 0x32, 0x00, 0x00, 0x58, 0x32, 0x00, 0x00, 0x54, 0x32, 0x00, 0x00,
  0x50, 0x32, 0x00, 0x00, 0x3c, 0x00, 0x00, 0x00, 0x00, 0x00, 0x00, 0x00,
  0x01, 0x00, 0x00, 0x00, 0x0c, 0x00, 0x00, 0x00, 0x08, 0x00, 0x0c, 0x00,
  0x04, 0x00, 0x08, 0x00, 0x08, 0x00, 0x00, 0x00, 0x08, 0x00, 0x00, 0x00,
  0x13, 0x00, 0x00, 0x00, 0x13, 0x00, 0x00, 0x00, 0x6d, 0x69, 0x6e, 0x5f,
  0x72, 0x75, 0x6e, 0x74, 0x69, 0x6d, 0x65, 0x5f, 0x76, 0x65, 0x72, 0x73,
  0x69, 0x6f, 0x6e, 0x00, 0xfa, 0xce, 0xff, 0xff, 0x04, 0x00, 0x00, 0x00,
  0x10, 0x00, 0x00, 0x00, 0x31, 0x2e, 0x35, 0x2e, 0x30, 0x00, 0x00, 0x00,
  0x00, 0x00, 0x00, 0x00, 0x00, 0x00, 0x00, 0x00, 0x0f, 0x00, 0x00, 0x00,
  0x4d, 0x4c, 0x49, 0x52, 0x20, 0x43, 0x6f, 0x6e, 0x76, 0x65, 0x72, 0x74,
  0x65, 0x64, 0x2e, 0x00, 0x00, 0x00, 0x0e, 0x00, 0x18, 0x00, 0x04, 0x00,
  0x08, 0x00, 0x0c, 0x00, 0x10, 0x00, 0x14, 0x00, 0x0e, 0x00, 0x00, 0x00,
  0x14, 0x00, 0x00, 0x00, 0x5c, 0x00, 0x00, 0x00, 0x60, 0x00, 0x00, 0x00,
  0x64, 0x00, 0x00, 0x00, 0x84, 0x00, 0x00, 0x00, 0x12, 0x00, 0x00, 0x00,
  0x58, 0x31, 0x00, 0x00, 0xe8, 0x30, 0x00, 0x00, 0x44, 0x30, 0x00, 0x00,
  0x9c, 0x2f, 0x00, 0x00, 0xf4, 0x2e, 0x00, 0x00, 0x94, 0x2e, 0x00, 0x00,
  0x2c, 0x2e, 0x00, 0x00, 0xd8, 0x11, 0x00, 0x00, 0xbc, 0x10, 0x00, 0x00,
  0xe0, 0x0e, 0x00, 0x00, 0x0c, 0x06, 0x00, 0x00, 0x28, 0x05, 0x00, 0x00,
  0xe8, 0x03, 0x00, 0x00, 0x3c, 0x03, 0x00, 0x00, 0x98, 0x02, 0x00, 0x00,
  0xd4, 0x01, 0x00, 0x00, 0x10, 0x01, 0x00, 0x00, 0x84, 0x00, 0x00, 0x00,
  0x01, 0x00, 0x00, 0x00, 0x00, 0x00, 0x00, 0x00, 0x01, 0x00, 0x00, 0x00,
  0x11, 0x00, 0x00, 0x00, 0x08, 0x00, 0x00, 0x00, 0x74, 0x05, 0x00, 0x00,
  0x94, 0x04, 0x00, 0x00, 0x78, 0x03, 0x00, 0x00, 0xbc, 0x02, 0x00, 0x00,
  0x30, 0x02, 0x00, 0x00, 0x50, 0x01, 0x00, 0x00, 0xa8, 0x00, 0x00, 0x00,
  0x10, 0x00, 0x00, 0x00, 0x04, 0x00, 0x00, 0x00, 0x6d, 0x61, 0x69, 0x6e,
  0x00, 0x00, 0x00, 0x00, 0x7a, 0xff, 0xff, 0xff, 0x00, 0x00, 0x00, 0x09,
  0x04, 0x00, 0x00, 0x00, 0x1c, 0x00, 0x00, 0x00, 0x10, 0x00, 0x00, 0x00,
  0x04, 0x00, 0x00, 0x00, 0xf6, 0xcf, 0xff, 0xff, 0x00, 0x00, 0x80, 0x3f,
  0x01, 0x00, 0x00, 0x00, 0x11, 0x00, 0x00, 0x00, 0x01, 0x00, 0x00, 0x00,
  0x10, 0x00, 0x00, 0x00, 0xa0, 0xfa, 0xff, 0xff, 0x19, 0x00, 0x00, 0x00,
  0x00, 0x00, 0x00, 0x19, 0x01, 0x00, 0x00, 0x00, 0x84, 0xcf, 0xff, 0xff,
  0x14, 0x00, 0x00, 0x00, 0x12, 0x00, 0x00, 0x00, 0x18, 0x00, 0x00, 0x00,
  0x30, 0x00, 0x00, 0x00, 0x20, 0x00, 0x00, 0x00, 0x02, 0x00, 0x00, 0x00,
  0x01, 0x00, 0x00, 0x00, 0x03, 0x00, 0x00, 0x00, 0x08, 0x00, 0x00, 0x00,
  0x49, 0x64, 0x65, 0x6e, 0x74, 0x69, 0x74, 0x79, 0x00, 0x00, 0x00, 0x00,
  0x02, 0x00, 0x00, 0x00, 0xff, 0xff, 0xff, 0xff, 0x03, 0x00, 0x00, 0x00,
  0x68, 0xd0, 0xff, 0xff, 0x00, 0x00, 0x0e, 0x00, 0x18, 0x00, 0x08, 0x00,
  0x0c, 0x00, 0x10, 0x00, 0x07, 0x00, 0x14, 0x00, 0x0e, 0x00, 0x00, 0x00,
  0x00, 0x00, 0x00, 0x08, 0x03, 0x00, 0x00, 0x00, 0x18, 0x00, 0x00, 0x00,
  0x0c, 0x00, 0x00, 0x00, 0x04, 0x00, 0x00, 0x00, 0x84, 0xcf, 0xff, 0xff,
  0x01, 0x00, 0x00, 0x00, 0x10, 0x00, 0x00, 0x00, 0x03, 0x00, 0x00, 0x00,
  0x0f, 0x00, 0x00, 0x00, 0x07, 0x00, 0x00, 0x00, 0x04, 0x00, 0x00, 0x00,
  0x0c, 0xd0, 0xff, 0xff, 0x14, 0x00, 0x00, 0x00, 0x11, 0x00, 0x00, 0x00,
  0x18, 0x00, 0x00, 0x00, 0x5c, 0x00, 0x00, 0x00, 0x4c, 0x00, 0x00, 0x00,
  0x02, 0x00, 0x00, 0x00, 0x01, 0x00, 0x00, 0x00, 0x03, 0x00, 0x00, 0x00,
  0x34, 0x00, 0x00, 0x00, 0x73, 0x65, 0x71, 0x75, 0x65, 0x6e, 0x74, 0x69,
  0x61, 0x6c, 0x2f, 0x64, 0x65, 0x6e, 0x73, 0x65, 0x5f, 0x31, 0x2f, 0x4d,
  0x61, 0x74, 0x4d, 0x75, 0x6c, 0x3b, 0x73, 0x65, 0x71, 0x75, 0x65, 0x6e,
  0x74, 0x69, 0x61, 0x6c, 0x2f, 0x64, 0x65, 0x6e, 0x73, 0x65, 0x5f, 0x31,
  0x2f, 0x42, 0x69, 0x61, 0x73, 0x41, 0x64, 0x64, 0x00, 0x00, 0x00, 0x00,
  0x02, 0x00, 0x00, 0x00, 0xff, 0xff, 0xff, 0xff, 0x03, 0x00, 0x00, 0x00,
  0x0c, 0xd0, 0xff, 0xff, 0xda, 0xfc, 0xff, 0xff, 0x00, 0x00, 0x00, 0x08,
  0x03, 0x00, 0x00, 0x00, 0x24, 0x00, 0x00, 0x00, 0x18, 0x00, 0x00, 0x00,
  0x0c, 0x00, 0x00, 0x00, 0x00, 0x00, 0x06, 0x00, 0x08, 0x00, 0x07, 0x00,
  0x06, 0x00, 0x00, 0x00, 0x00, 0x00, 0x00, 0x01, 0x01, 0x00, 0x00, 0x00,
  0x0f, 0x00, 0x00, 0x00, 0x03, 0x00, 0x00, 0x00, 0x0e, 0x00, 0x00, 0x00,
  0x06, 0x00, 0x00, 0x00, 0x03, 0x00, 0x00, 0x00, 0xe8, 0xfb, 0xff, 0xff,
  0x09, 0x00, 0x00, 0x00, 0x00, 0x00, 0x00, 0x09, 0x01, 0x00, 0x00, 0x00,
  0xcc, 0xd0, 0xff, 0xff, 0x14, 0x00, 0x00, 0x00, 0x10, 0x00, 0x00, 0x00,
  0x18, 0x00, 0x00, 0x00, 0x6c, 0x00, 0x00, 0x00, 0x5c, 0x00, 0x00, 0x00,
  0x02, 0x00, 0x00, 0x00, 0x01, 0x00, 0x00, 0x00, 0x10, 0x00, 0x00, 0x00,
  0x46, 0x00, 0x00, 0x00, 0x73, 0x65, 0x71, 0x75, 0x65, 0x6e, 0x74, 0x69,
  0x61, 0x6c, 0x2f, 0x64, 0x65, 0x6e, 0x73, 0x65, 0x2f, 0x4d, 0x61, 0x74,
  0x4d, 0x75, 0x6c, 0x3b, 0x73, 0x65, 0x71, 0x75, 0x65, 0x6e, 0x74, 0x69,
  0x61, 0x6c, 0x2f, 0x64, 0x65, 0x6e, 0x73, 0x65, 0x2f, 0x52, 0x65, 0x6c,
  0x75, 0x3b, 0x73, 0x65, 0x71, 0x75, 0x65, 0x6e, 0x74, 0x69, 0x61, 0x6c,
  0x2f, 0x64, 0x65, 0x6e, 0x73, 0x65, 0x2f, 0x42, 0x69, 0x61, 0x73, 0x41,
  0x64, 0x64, 0x00, 0x00, 0x02, 0x00, 0x00, 0x00, 0xff, 0xff, 0xff, 0xff,
  0x10, 0x00, 0x00, 0x00, 0xec, 0xd1, 0xff, 0xff, 0x00, 0x00, 0x0a, 0x00,
  0x10, 0x00, 0x04, 0x00, 0x08, 0x00, 0x0c, 0x00, 0x0a, 0x00, 0x00, 0x00,
  0x02, 0x00, 0x00, 0x00, 0x10, 0x00, 0x00, 0x00, 0x04, 0x00, 0x00, 0x00,
  0x01, 0x00, 0x00, 0x00, 0x0e, 0x00, 0x00, 0x00, 0x02, 0x00, 0x00, 0x00,
  0x0d, 0x00, 0x00, 0x00, 0x05, 0x00, 0x00, 0x00, 0xa8, 0xfc, 0xff, 0xff,
  0x16, 0x00, 0x00, 0x00, 0x00, 0x00, 0x00, 0x16, 0x01, 0x00, 0x00, 0x00,
  0x8c, 0xd1, 0xff, 0xff, 0x14, 0x00, 0x00, 0x00, 0x0f, 0x00, 0x00, 0x00,
  0x18, 0x00, 0x00, 0x00, 0x40, 0x00, 0x00, 0x00, 0x30, 0x00, 0x00, 0x00,
  0x02, 0x00, 0x00, 0x00, 0x01, 0x00, 0x00, 0x00, 0x70, 0x00, 0x00, 0x00,
  0x1a, 0x00, 0x00, 0x00, 0x73, 0x65, 0x71, 0x75, 0x65, 0x6e, 0x74, 0x69,
  0x61, 0x6c, 0x2f, 0x66, 0x6c, 0x61, 0x74, 0x74, 0x65, 0x6e, 0x2f, 0x52,
  0x65, 0x73, 0x68, 0x61, 0x70, 0x65, 0x00, 0x00, 0x02, 0x00, 0x00, 0x00,
  0xff, 0xff, 0xff, 0xff, 0x70, 0x00, 0x00, 0x00, 0x70, 0xd1, 0xff, 0xff,
  0x3e, 0xfe, 0xff, 0xff, 0x00, 0x00, 0x00, 0x05, 0x01, 0x00, 0x00, 0x00,
  0x38, 0x00, 0x00, 0x00, 0x2c, 0x00, 0x00, 0x00, 0x14, 0x00, 0x00, 0x00,
  0x00, 0x00, 0x0e, 0x00, 0x14, 0x00, 0x00, 0x00, 0x10, 0x00, 0x0c, 0x00,
  0x08, 0x00, 0x04, 0x00, 0x0e, 0x00, 0x00, 0x00, 0x03, 0x00, 0x00, 0x00,
  0x01, 0x00, 0x00, 0x00, 0x03, 0x00, 0x00, 0x00, 0x01, 0x00, 0x00, 0x00,
  0x01, 0x00, 0x00, 0x00, 0x0d, 0x00, 0x00, 0x00, 0x01, 0x00, 0x00, 0x00,
  0x0c, 0x00, 0x00, 0x00, 0x2c, 0xd2, 0xff, 0xff, 0x14, 0x00, 0x00, 0x00,
  0x0e, 0x00, 0x00, 0x00, 0x20, 0x00, 0x00, 0x00, 0x58, 0x00, 0x00, 0x00,
  0x40, 0x00, 0x00, 0x00, 0x04, 0x00, 0x00, 0x00, 0x01, 0x00, 0x00, 0x00,
  0x07, 0x00, 0x00, 0x00, 0x01, 0x00, 0x00, 0x00, 0x10, 0x00, 0x00, 0x00,
  0x22, 0x00, 0x00, 0x00, 0x73, 0x65, 0x71, 0x75, 0x65, 0x6e, 0x74, 0x69,
  0x61, 0x6c, 0x2f, 0x6d, 0x61, 0x78, 0x5f, 0x70, 0x6f, 0x6f, 0x6c, 0x69,
  0x6e, 0x67, 0x32, 0x64, 0x5f, 0x31, 0x2f, 0x4d, 0x61, 0x78, 0x50, 0x6f,
  0x6f, 0x6c, 0x00, 0x00, 0x04, 0x00, 0x00, 0x00, 0xff, 0xff, 0xff, 0xff,
  0x07, 0x00, 0x00, 0x00, 0x01, 0x00, 0x00, 0x00, 0x10, 0x00, 0x00, 0x00,
  0x28, 0xd2, 0xff, 0xff, 0x1a, 0xfe, 0xff, 0xff, 0x00, 0x00, 0x00, 0x01,
  0x24, 0x00, 0x00, 0x00, 0x18, 0x00, 0x00, 0x00, 0x04, 0x00, 0x00, 0x00,
  0x0c, 0xfe, 0xff, 0xff, 0x01, 0x00, 0x00, 0x00, 0x01, 0x00, 0x00, 0x00,
  0x00, 0x00, 0x00, 0x01, 0x01, 0x00, 0x00, 0x00, 0x0c, 0x00, 0x00, 0x00,
  0x03, 0x00, 0x00, 0x00, 0x0b, 0x00, 0x00, 0x00, 0x09, 0x00, 0x00, 0x00,
  0x02, 0x00, 0x00, 0x00, 0xd4, 0xd2, 0xff, 0xff, 0x14, 0x00, 0x00, 0x00,
  0x0d, 0x00, 0x00, 0x00, 0x20, 0x00, 0x00, 0x00, 0xb8, 0x00, 0x00, 0x00,
  0xa0, 0x00, 0x00, 0x00, 0x04, 0x00, 0x00, 0x00, 0x01, 0x00, 0x00, 0x00,
  0x15, 0x00, 0x00, 0x00, 0x01, 0x00, 0x00, 0x00, 0x10, 0x00, 0x00, 0x00,
  0x83, 0x00, 0x00, 0x00, 0x73, 0x65, 0x71, 0x75, 0x65, 0x6e, 0x74, 0x69,
  0x61, 0x6c, 0x2f, 0x63, 0x6f, 0x6e, 0x76, 0x32, 0x64, 0x5f, 0x31, 0x2f,
  0x52, 0x65, 0x6c, 0x75, 0x3b, 0x73, 0x65, 0x71, 0x75, 0x65, 0x6e, 0x74,
  0x69, 0x61, 0x6c, 0x2f, 0x63, 0x6f, 0x6e, 0x76, 0x32, 0x64, 0x5f, 0x31,
  0x2f, 0x42, 0x69, 0x61, 0x73, 0x41, 0x64, 0x64, 0x3b, 0x73, 0x65, 0x71,
  0x75, 0x65, 0x6e, 0x74, 0x69, 0x61, 0x6c, 0x2f, 0x63, 0x6f, 0x6e, 0x76,
  0x32, 0x64, 0x5f, 0x31, 0x2f, 0x43, 0x6f, 0x6e, 0x76, 0x32, 0x44, 0x3b,
  0x73, 0x65, 0x71, 0x75, 0x65, 0x6e, 0x74, 0x69, 0x61, 0x6c, 0x2f, 0x63,
  0x6f, 0x6e, 0x76, 0x32, 0x64, 0x5f, 0x31, 0x2f, 0x42, 0x69, 0x61, 0x73,
  0x41, 0x64, 0x64, 0x2f, 0x52, 0x65, 0x61, 0x64, 0x56, 0x61, 0x72, 0x69,
  0x61, 0x62, 0x6c, 0x65, 0x4f, 0x70, 0x2f, 0x72, 0x65, 0x73, 0x6f, 0x75,
  0x72, 0x63, 0x65, 0x00, 0x04, 0x00, 0x00, 0x00, 0xff, 0xff, 0xff, 0xff,
  0x15, 0x00, 0x00, 0x00, 0x01, 0x00, 0x00, 0x00, 0x10, 0x00, 0x00, 0x00,
  0x40, 0xd4, 0xff, 0xff, 0x00, 0x00, 0x0e, 0x00, 0x1a, 0x00, 0x08, 0x00,
  0x0c, 0x00, 0x10, 0x00, 0x07, 0x00, 0x14, 0x00, 0x0e, 0x00, 0x00, 0x00,
  0x00, 0x00, 0x00, 0x05, 0x01, 0x00, 0x00, 0x00, 0x3c, 0x00, 0x00, 0x00,
  0x30, 0x00, 0x00, 0x00, 0x14, 0x00, 0x00, 0x00, 0x00, 0x00, 0x0e, 0x00,
  0x18, 0x00, 0x17, 0x00, 0x10, 0x00, 0x0c, 0x00, 0x08, 0x00, 0x04, 0x00,
  0x0e, 0x00, 0x00, 0x00, 0x03, 0x00, 0x00, 0x00, 0x03, 0x00, 0x00, 0x00,
  0x03, 0x00, 0x00, 0x00, 0x03, 0x00, 0x00, 0x00, 0x00, 0x00, 0x00, 0x01,
  0x01, 0x00, 0x00, 0x00, 0x0b, 0x00, 0x00, 0x00, 0x01, 0x00, 0x00, 0x00,
  0x0a, 0x00, 0x00, 0x00, 0x2c, 0xff, 0xff, 0xff, 0x11, 0x00, 0x00, 0x00,
  0x00, 0x00, 0x00, 0x11, 0x01, 0x00, 0x00, 0x00, 0x10, 0xd4, 0xff, 0xff,
  0x14, 0x00, 0x00, 0x00, 0x0c, 0x00, 0x00, 0x00, 0x20, 0x00, 0x00, 0x00,
  0x58, 0x00, 0x00, 0x00, 0x40, 0x00, 0x00, 0x00, 0x04, 0x00, 0x00, 0x00,
  0x01, 0x00, 0x00, 0x00, 0x15, 0x00, 0x00, 0x00, 0x01, 0x00, 0x00, 0x00,
  0x08, 0x00, 0x00, 0x00, 0x20, 0x00, 0x00, 0x00, 0x73, 0x65, 0x71, 0x75,
  0x65, 0x6e, 0x74, 0x69, 0x61, 0x6c, 0x2f, 0x6d, 0x61, 0x78, 0x5f, 0x70,
  0x6f, 0x6f, 0x6c, 0x69, 0x6e, 0x67, 0x32, 0x64, 0x2f, 0x4d, 0x61, 0x78,
  0x50, 0x6f, 0x6f, 0x6c, 0x00, 0x00, 0x00, 0x00, 0x04, 0x00, 0x00, 0x00,
  0xff, 0xff, 0xff, 0xff, 0x15, 0x00, 0x00, 0x00, 0x01, 0x00, 0x00, 0x00,
  0x08, 0x00, 0x00, 0x00, 0x1c, 0xd5, 0xff, 0xff, 0x00, 0x00, 0x0e, 0x00,
  0x14, 0x00, 0x00, 0x00, 0x08, 0x00, 0x0c, 0x00, 0x07, 0x00, 0x10, 0x00,
  0x0e, 0x00, 0x00, 0x00, 0x00, 0x00, 0x00, 0x01, 0x30, 0x00, 0x00, 0x00,
  0x24, 0x00, 0x00, 0x00, 0x10, 0x00, 0x00, 0x00, 0x0c, 0x00, 0x10, 0x00,
  0x00, 0x00, 0x04, 0x00, 0x08, 0x00, 0x0f, 0x00, 0x0c, 0x00, 0x00, 0x00,
  0x01, 0x00, 0x00, 0x00, 0x01, 0x00, 0x00, 0x00, 0x00, 0x00, 0x00, 0x01,
  0x01, 0x00, 0x00, 0x00, 0x0a, 0x00, 0x00, 0x00, 0x03, 0x00, 0x00, 0x00,
  0x00, 0x00, 0x00, 0x00, 0x08, 0x00, 0x00, 0x00, 0x01, 0x00, 0x00, 0x00,
  0x0c, 0x00, 0x10, 0x00, 0x0b, 0x00, 0x00, 0x00, 0x0c, 0x00, 0x04, 0x00,
  0x0c, 0x00, 0x00, 0x00, 0x03, 0x00, 0x00, 0x00, 0x00, 0x00, 0x00, 0x03,
  0x01, 0x00, 0x00, 0x00, 0xf0, 0xd4, 0xff, 0xff, 0x14, 0x00, 0x00, 0x00,
  0x0b, 0x00, 0x00, 0x00, 0x20, 0x00, 0x00, 0x00, 0xb0, 0x00, 0x00, 0x00,
  0x98, 0x00, 0x00, 0x00, 0x04, 0x00, 0x00, 0x00, 0x01, 0x00, 0x00, 0x00,
  0x40, 0x00, 0x00, 0x00, 0x03, 0x00, 0x00, 0x00, 0x08, 0x00, 0x00, 0x00,
  0x7b, 0x00, 0x00, 0x00, 0x73, 0x65, 0x71, 0x75, 0x65, 0x6e, 0x74, 0x69,
  0x61, 0x6c, 0x2f, 0x63, 0x6f, 0x6e, 0x76, 0x32, 0x64, 0x2f, 0x52, 0x65,
  0x6c, 0x75, 0x3b, 0x73, 0x65, 0x71, 0x75, 0x65, 0x6e, 0x74, 0x69, 0x61,
  0x6c, 0x2f, 0x63, 0x6f, 0x6e, 0x76, 0x32, 0x64, 0x2f, 0x42, 0x69, 0x61,
  0x73, 0x41, 0x64, 0x64, 0x3b, 0x73, 0x65, 0x71, 0x75, 0x65, 0x6e, 0x74,
  0x69, 0x61, 0x6c, 0x2f, 0x63, 0x6f, 0x6e, 0x76, 0x32, 0x64, 0x2f, 0x43,
  0x6f, 0x6e, 0x76, 0x32, 0x44, 0x3b, 0x73, 0x65, 0x71, 0x75, 0x65, 0x6e,
  0x74, 0x69, 0x61, 0x6c, 0x2f, 0x63, 0x6f, 0x6e, 0x76, 0x32, 0x64, 0x2f,
  0x42, 0x69, 0x61, 0x73, 0x41, 0x64, 0x64, 0x2f, 0x52, 0x65, 0x61, 0x64,
  0x56, 0x61, 0x72, 0x69, 0x61, 0x62, 0x6c, 0x65, 0x4f, 0x70, 0x2f, 0x72,
  0x65, 0x73, 0x6f, 0x75, 0x72, 0x63, 0x65, 0x00, 0x04, 0x00, 0x00, 0x00,
  0xff, 0xff, 0xff, 0xff, 0x40, 0x00, 0x00, 0x00, 0x03, 0x00, 0x00, 0x00,
  0x08, 0x00, 0x00, 0x00, 0x44, 0xd5, 0xff, 0xff, 0x4e, 0xd6, 0xff, 0xff,
  0x04, 0x00, 0x00, 0x00, 0x00, 0x08, 0x00, 0x00, 0x99, 0xbf, 0x1a, 0xbc,
  0x92, 0x57, 0x4d, 0x3d, 0xbb, 0x7d, 0x58, 0x3c, 0xb9, 0x6d, 0xb7, 0xbd,
  0x9c, 0xaf, 0xf2, 0x3d, 0x13, 0x24, 0xd9, 0xbe, 0x27, 0xb5, 0x29, 0xbd,
  0xa5, 0xab, 0xc0, 0x3d, 0x3a, 0x76, 0xc6, 0xbe, 0x1a, 0xcd, 0x4c, 0xbd,
  0xe4, 0x77, 0xcc, 0xbe, 0x03, 0x54, 0x65, 0xbe, 0x1a, 0x6a, 0x03, 0xbe,
  0x92, 0xf4, 0x1e, 0x3f, 0x58, 0xd5, 0x70, 0xbe, 0x96, 0x32, 0x4b, 0xbd,
  0xe3, 0xc9, 0x6f, 0x3e, 0x30, 0x93, 0xb4, 0xbd, 0x50, 0x1c, 0x2d, 0xbe,
  0x74, 0xc1, 0xd2, 0xbd, 0xd4, 0x57, 0x05, 0xbe, 0x47, 0x83, 0x97, 0x3e,
  0xd0, 0x0c, 0x3d, 0x3d, 0x24, 0x48, 0x10, 0x3e, 0xd8, 0xa7, 0x53, 0xbd,
  0xee, 0xeb, 0x11, 0xbe, 0xae, 0x9d, 0xb0, 0xba, 0x8e, 0x5d, 0x86, 0xbd,
  0xbd, 0xff, 0xc6, 0xbd, 0x9c, 0xde, 0x49, 0x3c, 0xc5, 0x26, 0x52, 0x3e,
  0xba, 0xc9, 0x9a, 0x3e, 0x76, 0x23, 0x18, 0x3e, 0x69, 0x5b, 0x87, 0x3e,
  0xcf, 0xd2, 0x4f, 0x3e, 0xc9, 0x82, 0x90, 0x3d, 0x20, 0x98, 0x99, 0x3e,
  0x45, 0x45, 0x87, 0xbd, 0x55, 0xc3, 0x11, 0xbb, 0xe0, 0x0f, 0x32, 0x3e,
  0xdb, 0xa8, 0x15, 0x3d, 0xc5, 0x8d, 0x7d, 0x3d, 0x78, 0x0c, 0xa9, 0x3d,
  0x6b, 0x4b, 0x2c, 0x3c, 0xcc, 0x29, 0xa6, 0x3d, 0x6d, 0x19, 0x7a, 0x3d,
  0x0e, 0x27, 0xa5, 0xbb, 0x14, 0x9d, 0xce, 0x3d, 0xfd, 0x36, 0x99, 0xbc,
  0xea, 0x5a, 0x5b, 0x3d, 0xf9, 0x0b, 0x81, 0xbe, 0x8e, 0xb7, 0xfe, 0xbd,
  0xa9, 0x67, 0x31, 0xbe, 0x83, 0xab, 0xc7, 0xbd, 0xd4, 0x05, 0x06, 0x3e,
  0x6d, 0x80, 0xa2, 0xbd, 0x3a, 0x01, 0xe7, 0xbd, 0x6f, 0xed, 0x1c, 0xbe,
  0xae, 0x70, 0x1c, 0xbe, 0x68, 0x89, 0x49, 0xbe, 0x96, 0x97, 0xe9, 0xbe,
  0x10, 0x15, 0xb4, 0xbd, 0xd9, 0x06, 0x4f, 0xbe, 0x9f, 0x75, 0x5c, 0xbe,
  0x4a, 0x09, 0x9b, 0xbd, 0x21, 0x4c, 0xad, 0xbe, 0x93, 0x00, 0x93, 0xbe,
  0x87, 0xc2, 0x0f, 0x3a, 0x83, 0x7d, 0xa8, 0x3a, 0x5d, 0xd4, 0x85, 0xbe,
  0x8f, 0x41, 0x24, 0xbe, 0x24, 0xc4, 0x96, 0xbd, 0x37, 0xb5, 0xea, 0x3d,
  0xa7, 0xd9, 0x89, 0xbd, 0x21, 0xfa, 0x9a, 0x3d, 0xd8, 0xfd, 0x93, 0xbe,
  0x7a, 0x26, 0x04, 0xbc, 0xeb, 0xda, 0x15, 0xbe, 0xfd, 0xb7, 0x19, 0x3d,
  0xf6, 0xe5, 0x15, 0xbe, 0x28, 0x41, 0xd8, 0xbc, 0x57, 0xcd, 0x50, 0xbd,
  0xcb, 0x4b, 0x1b, 0x3e, 0xd6, 0xc5, 0xa8, 0xbe, 0x71, 0x18, 0x58, 0xbd,
  0x09, 0x1c, 0x25, 0xbe, 0xa3, 0x29, 0x3d, 0x3d, 0x24, 0x58, 0x88, 0xbd,
  0x46, 0xd1, 0x5f, 0xbe, 0x32, 0x68, 0x08, 0x3e, 0x82, 0xb4, 0xd6, 0x3d,
  0x53, 0x9e, 0xd7, 0xbd, 0xa9, 0xb4, 0x22, 0xbe, 0x7e, 0x4c, 0x9d, 0xbe,
  0x4b, 0x82, 0x98, 0x3d, 0x42, 0x35, 0x02, 0xbe, 0x2e, 0x10, 0x41, 0x3d,
  0x7a, 0x6b, 0xbb, 0x3c, 0x10, 0x84, 0x58, 0x3c, 0xc3, 0x9e, 0x57, 0xbe,
  0x3b, 0xd6, 0x98, 0x39, 0x29, 0x2e, 0x68, 0xbe, 0xfb, 0xf4, 0xf7, 0xbd,
  0xfb, 0x6e, 0x96, 0x3d, 0x15, 0x83, 0x89, 0xbe, 0xbd, 0xde, 0x2f, 0xbe,
  0xda, 0x4c, 0x02, 0xbe, 0x05, 0xec, 0x97, 0xbe, 0xb7, 0xc7, 0xa0, 0xbb,
  0x5b, 0x4a, 0x07, 0xbe, 0x99, 0x8f, 0xc4, 0xbd, 0xa1, 0xc0, 0x5d, 0xbd,
  0xd0, 0xf0, 0x00, 0xbd, 0x1b, 0x9f, 0x5d, 0xbe, 0x5e, 0xf3, 0x1e, 0x3e,
  0x8f, 0xe9, 0x03, 0xbe, 0x2b, 0x39, 0x94, 0x3d, 0x0b, 0x84, 0x1b, 0xbe,
  0x45, 0x9b, 0x37, 0xbe, 0xe3, 0x9d, 0x79, 0xbc, 0xc0, 0x52, 0x60, 0xbe,
  0xe4, 0x2f, 0x93, 0xbe, 0xc7, 0xf0, 0x80, 0xbe, 0xa9, 0x31, 0x7c, 0x3d,
  0xcb, 0x08, 0xa9, 0xbd, 0x81, 0xb6, 0xd3, 0xbd, 0x18, 0x3c, 0x6d, 0xbe,
  0x3a, 0x16, 0x54, 0xbe, 0x01, 0xc5, 0x7f, 0x3d, 0x6b, 0xa2, 0x02, 0x3e,
  0xbc, 0x5a, 0xbc, 0x3d, 0x3b, 0xac, 0x2d, 0xbd, 0x2b, 0x83, 0x94, 0x3e,
  0x38, 0x99, 0xee, 0x3d, 0xc0, 0xad, 0x4b, 0x3e, 0x42, 0xcd, 0x7f, 0x3e,
  0x53, 0x24, 0x69, 0xbd, 0xfc, 0xde, 0xb6, 0xbc, 0xa9, 0x1d, 0x9a, 0x39,
  0xb6, 0x32, 0x88, 0xbd, 0x15, 0x18, 0x5c, 0x3d, 0xa7, 0x5e, 0x11, 0x3d,
  0x37, 0x70, 0xf9, 0x3c, 0x62, 0xc3, 0x3e, 0x3e, 0xb5, 0xed, 0x01, 0xbe,
  0xcf, 0x72, 0x66, 0xbd, 0x67, 0x43, 0xb7, 0xbd, 0xd0, 0x84, 0x09, 0xbe,
  0x71, 0xbf, 0x8a, 0xbe, 0xf9, 0x19, 0xd7, 0xbc, 0xef, 0x69, 0x7f, 0x3d,
  0x66, 0xca, 0xdc, 0xbc, 0xad, 0x13, 0xaf, 0x39, 0x80, 0xff, 0x9b, 0xbd,
  0x6c, 0x36, 0xef, 0xbd, 0x1a, 0x9e, 0x17, 0xbe, 0x86, 0x9c, 0xb3, 0xbe,
  0x26, 0xe4, 0x46, 0xbd, 0xd6, 0x1b, 0x21, 0x3d, 0x0f, 0x3a, 0x1c, 0xbe,
  0x61, 0xe6, 0x14, 0xbb, 0xf0, 0x40, 0x9c, 0xbc, 0x4f, 0x98, 0x38, 0xbe,
  0x45, 0x4d, 0x8e, 0x3e, 0x99, 0xf7, 0xc4, 0x3e, 0x3e, 0x70, 0xc9, 0x3d,
  0xea, 0xa0, 0xa0, 0x3e, 0xa1, 0x52, 0x10, 0x3e, 0x4e, 0x7b, 0xa3, 0xbd,
  0x9c, 0x5f, 0x3c, 0xbe, 0xaa, 0xda, 0x4f, 0xbe, 0xe5, 0x30, 0x80, 0xbd,
  0xe7, 0x8a, 0x33, 0xbe, 0x7c, 0x07, 0x16, 0xbd, 0xce, 0x8d, 0xa7, 0xbd,
  0xcc, 0x49, 0x98, 0xbd, 0xd4, 0xb4, 0xff, 0xbd, 0x5e, 0x0d, 0x23, 0xbd,
  0x09, 0x2a, 0x7c, 0xbe, 0xd2, 0x9e, 0x44, 0xbb, 0xe5, 0x90, 0xe2, 0xbc,
  0x25, 0x81, 0xd2, 0x3d, 0xfa, 0xc9, 0x22, 0x3e, 0xe3, 0xd0, 0x97, 0xbe,
  0x8f, 0x48, 0xef, 0xbd, 0x90, 0x10, 0xbc, 0xbd, 0x82, 0x0f, 0x00, 0x3d,
  0x3b, 0x13, 0x2f, 0xbd, 0x6c, 0x5a, 0xb1, 0xbe, 0x92, 0x89, 0xf9, 0x3c,
  0xc3, 0xf2, 0xfc, 0xbd, 0x60, 0x00, 0x72, 0xbe, 0x80, 0x91, 0xe4, 0xbe,
  0x80, 0x7f, 0x15, 0x3d, 0xa7, 0xd5, 0xda, 0xbe, 0xda, 0x0b, 0xa6, 0xbe,
  0x1a, 0xd2, 0x48, 0xbd, 0x9b, 0xef, 0x8c, 0xbe, 0xca, 0x8c, 0xc9, 0xbd,
  0x50, 0x6f, 0x66, 0xbe, 0x8d, 0x98, 0xda, 0xbe, 0xf0, 0x2b, 0xce, 0xbd,
  0xf2, 0xf1, 0x21, 0xbf, 0x3d, 0x0a, 0xbd, 0xbe, 0x2a, 0xe5, 0x8e, 0xbe,
  0x67, 0xc8, 0x72, 0x3e, 0x37, 0xf7, 0x12, 0xbf, 0x32, 0x36, 0x2b, 0xbf,
  0xf5, 0x24, 0x39, 0x3e, 0xe5, 0xfc, 0x4a, 0x3d, 0x28, 0x6d, 0x91, 0x3d,
  0x0d, 0xcc, 0x07, 0xbe, 0xe9, 0x5c, 0xcb, 0x3c, 0x7b, 0x22, 0x16, 0x3d,
  0xf4, 0x9a, 0xb9, 0x3d, 0x2a, 0x38, 0xf8, 0x3d, 0x68, 0x64, 0xa5, 0x3e,
  0xb1, 0x85, 0x4c, 0x3e, 0x55, 0xcf, 0xa4, 0xbc, 0x24, 0xcd, 0x96, 0x3c,
  0x0e, 0x45, 0xc3, 0x3c, 0x89, 0xe8, 0x37, 0xbb, 0x79, 0x50, 0xe5, 0x3d,
  0xe7, 0x10, 0xb3, 0x3d, 0x7f, 0x7e, 0x90, 0xbc, 0xe3, 0x1e, 0xc3, 0xbd,
  0x82, 0x2e, 0x86, 0x3a, 0x5a, 0x57, 0x4a, 0xbe, 0xd4, 0xf7, 0xcb, 0xbd,
  0xf8, 0xbc, 0x8c, 0xbe, 0xcc, 0xad, 0xd8, 0xbd, 0xe8, 0xa0, 0x7d, 0xbd,
  0x88, 0x44, 0x61, 0x3c, 0x2e, 0x93, 0x0b, 0x3f, 0xe7, 0xa2, 0xee, 0xbd,
  0x5d, 0xa5, 0xd5, 0x3b, 0xc3, 0xd4, 0xe3, 0xbd, 0x17, 0x56, 0x24, 0x3e,
  0x32, 0xa8, 0x0f, 0xbe, 0x8e, 0xda, 0x9d, 0xbd, 0x7a, 0x77, 0x27, 0xbe,
  0x7f, 0x87, 0x73, 0xbe, 0x43, 0x82, 0x91, 0xbb, 0x23, 0xb8, 0x87, 0xbd,
  0xdb, 0x88, 0xfd, 0x3b, 0x4c, 0xed, 0x86, 0x3c, 0xf7, 0x74, 0xc2, 0xbb,
  0xfd, 0x64, 0x2b, 0xbe, 0xc6, 0x99, 0x96, 0xbe, 0xb3, 0x6e, 0x96, 0xba,
  0x78, 0x88, 0x9e, 0x3e, 0x9b, 0x36, 0xf2, 0xbd, 0x23, 0x34, 0x19, 0xbe,
  0x20, 0xb5, 0x68, 0xbd, 0xa4, 0xa8, 0xed, 0x3b, 0x26, 0x4c, 0xda, 0x3c,
  0x4e, 0x28, 0xb0, 0xbd, 0x99, 0x5e, 0x9d, 0x3e, 0x91, 0xff, 0x1d, 0x3e,
  0x4d, 0x92, 0x5d, 0xbd, 0x13, 0x48, 0x08, 0xbc, 0xf0, 0xee, 0x37, 0xbf,
  0x96, 0xb5, 0x38, 0xbe, 0x87, 0xe2, 0x55, 0xbe, 0x64, 0xd5, 0x87, 0xbe,
  0xf4, 0x0e, 0x2e, 0x3f, 0x80, 0x84, 0x88, 0xbe, 0x81, 0x65, 0xf6, 0xbd,
  0xa4, 0xa4, 0xb2, 0xbd, 0x8b, 0xca, 0x42, 0x3e, 0x22, 0x8e, 0x9a, 0xbe,
  0x1b, 0x0a, 0xd7, 0xbe, 0x1c, 0xba, 0xd0, 0xbd, 0x45, 0xd9, 0xad, 0xbe,
  0x9a, 0x5e, 0x3f, 0xbe, 0xf5, 0x11, 0x27, 0xbe, 0x1e, 0x93, 0x11, 0xbe,
  0x48, 0xa0, 0x13, 0xbe, 0x41, 0x19, 0x94, 0xbd, 0xc9, 0x19, 0x05, 0xbd,
  0x19, 0xb5, 0x7c, 0x3e, 0x66, 0x01, 0x10, 0x3e, 0x53, 0x55, 0x2f, 0x3e,
  0xa8, 0x7b, 0x9e, 0xbd, 0xeb, 0x80, 0x42, 0xbd, 0x54, 0xc0, 0x21, 0x3e,
  0x52, 0x03, 0xd1, 0x3c, 0xd3, 0xcd, 0x10, 0x3e, 0x65, 0x7c, 0xe5, 0x3d,
  0xe7, 0xac, 0x7f, 0x3e, 0x3b, 0x5c, 0x1f, 0x3d, 0x8a, 0xce, 0x8d, 0xbe,
  0x38, 0xa3, 0x08, 0xbc, 0xe7, 0xde, 0x40, 0xbf, 0x6f, 0x91, 0x3e, 0xbe,
  0x15, 0xd3, 0x01, 0x3e, 0xd3, 0xb5, 0x23, 0xbf, 0x0d, 0xf3, 0xc3, 0x3e,
  0xd1, 0x34, 0x0e, 0xbf, 0x21, 0x47, 0x72, 0xbe, 0x0c, 0x4f, 0x8f, 0xbe,
  0x0d, 0xb3, 0x55, 0x3e, 0x25, 0x64, 0x25, 0xbf, 0xdd, 0xb9, 0x42, 0xbf,
  0x4d, 0xed, 0xbe, 0x3d, 0x71, 0x80, 0x33, 0x3c, 0x6c, 0x92, 0xb1, 0xbb,
  0xab, 0x99, 0x9d, 0xbd, 0x9d, 0x44, 0xf7, 0xbd, 0x9a, 0xd3, 0x9d, 0x3e,
  0xa1, 0xed, 0x16, 0x3d, 0xb6, 0x18, 0xc4, 0x3d, 0x9b, 0x1f, 0xdb, 0xbb,
  0x24, 0x6a, 0x04, 0x3d, 0xda, 0xa8, 0x47, 0x3e, 0xeb, 0x40, 0x71, 0x3b,
  0xb9, 0x1a, 0x85, 0x3d, 0x99, 0xdf, 0x4b, 0xbd, 0x77, 0x3d, 0x2e, 0xbc,
  0x50, 0x61, 0x02, 0x3e, 0xb6, 0x46, 0x97, 0xbe, 0x4f, 0x69, 0x3c, 0xbe,
  0x75, 0x63, 0xaa, 0xbe, 0xd9, 0xf9, 0x91, 0x3c, 0xd5, 0xad, 0x9d, 0xbd,
  0x4f, 0x5c, 0x43, 0x3e, 0x0b, 0x5f, 0x32, 0x3e, 0x9e, 0xf4, 0x0a, 0x3c,
  0x1a, 0x3c, 0x3e, 0xbe, 0xd9, 0xc7, 0x71, 0xbe, 0xc5, 0x21, 0xba, 0xbe,
  0x13, 0x8c, 0xc1, 0x3e, 0x4b, 0x01, 0x47, 0xbd, 0xec, 0x9d, 0x07, 0x3e,
  0xda, 0x63, 0x36, 0x3e, 0x80, 0xbc, 0x3d, 0xbe, 0x10, 0x99, 0x2f, 0xbe,
  0x91, 0xcf, 0x01, 0xbe, 0xd9, 0x11, 0xa4, 0xbe, 0x2c, 0x19, 0x02, 0xbd,
  0xdf, 0x80, 0x15, 0xbe, 0xb9, 0x4f, 0x4a, 0x3d, 0x7c, 0x95, 0xc2, 0xbc,
  0x1f, 0xe3, 0x88, 0x3e, 0xcc, 0x79, 0xf3, 0xbd, 0x08, 0xc4, 0x11, 0xbe,
  0x7c, 0x2a, 0xdf, 0xbe, 0x01, 0x48, 0x85, 0xbd, 0x3f, 0x9a, 0x66, 0x3d,
  0x3e, 0x58, 0xbb, 0x3d, 0x67, 0xe0, 0xb5, 0x3e, 0x73, 0x91, 0x63, 0x3e,
  0x68, 0x89, 0xa9, 0x3d, 0x94, 0xee, 0x9b, 0xbd, 0xc3, 0xd5, 0x0f, 0xbd,
  0x21, 0x14, 0x3a, 0xbe, 0x28, 0x63, 0x3e, 0xbe, 0xd8, 0xa4, 0xef, 0xba,
  0x8a, 0x28, 0x86, 0xbe, 0x42, 0x0d, 0x4e, 0xbd, 0x7e, 0xd0, 0x5c, 0xbe,
  0x8b, 0x7e, 0xf9, 0x3e, 0xe7, 0x6b, 0xc8, 0xbd, 0x75, 0x8d, 0x17, 0xbe,
  0x5b, 0xb2, 0xae, 0xbe, 0x6e, 0x18, 0x5e, 0x3e, 0xbb, 0x5e, 0xb2, 0xbe,
  0xc4, 0x9b, 0x94, 0xbe, 0x04, 0x4b, 0xec, 0xbd, 0x08, 0x85, 0xf6, 0xbc,
  0xb4, 0xc7, 0x44, 0x3e, 0x1e, 0x4e, 0x83, 0xbd, 0xe3, 0x42, 0x63, 0xbc,
  0x71, 0x09, 0xde, 0x3d, 0xef, 0xfb, 0xf5, 0xbd, 0x49, 0x3d, 0xca, 0xbc,
  0x21, 0x6d, 0xe9, 0x3e, 0xab, 0x4b, 0x75, 0xbc, 0x7f, 0x9e, 0x1a, 0x3e,
  0x18, 0x45, 0x2e, 0x3d, 0x10, 0x11, 0x31, 0xbd, 0x4f, 0x9e, 0x0c, 0xbe,
  0xa5, 0xd4, 0x6a, 0x3d, 0x56, 0x8e, 0xf5, 0xba, 0x6a, 0x79, 0x3e, 0xbd,
  0x2f, 0xc2, 0xe9, 0xbd, 0x76, 0x34, 0x72, 0xbc, 0xba, 0xe3, 0x70, 0x3e,
  0xc6, 0xa6, 0x4f, 0x3d, 0xeb, 0xe3, 0x35, 0xbe, 0xae, 0x57, 0x4f, 0x3d,
  0x75, 0xc8, 0xaf, 0xbd, 0xa4, 0x6d, 0x14, 0xbe, 0x96, 0xc8, 0x99, 0xbd,
  0xae, 0x45, 0x1d, 0xbd, 0xf5, 0xaf, 0xa0, 0x3d, 0x1e, 0x95, 0x62, 0xbd,
  0x1c, 0x29, 0x89, 0xbe, 0xe6, 0xf2, 0x85, 0xbd, 0x4b, 0x6e, 0x78, 0xbe,
  0x74, 0x57, 0x42, 0xbe, 0x4b, 0xd7, 0x1c, 0x3f, 0xa5, 0x28, 0xe1, 0xbd,
  0xeb, 0x36, 0xfa, 0xbc, 0x83, 0xae, 0x65, 0xbd, 0xcc, 0xae, 0x20, 0x3e,
  0xcf, 0x53, 0x23, 0xbe, 0x1e, 0x1e, 0x7b, 0xbe, 0x40, 0x01, 0x2c, 0xbe,
  0xe9, 0x06, 0x65, 0x3e, 0x95, 0xd3, 0xd8, 0xbc, 0x02, 0x7a, 0x85, 0x3b,
  0x32, 0x39, 0x8d, 0xbc, 0x42, 0x47, 0x5c, 0x3e, 0x55, 0x3f, 0x9a, 0xbd,
  0x80, 0x24, 0x55, 0xbd, 0x96, 0xfa, 0x92, 0x3e, 0x8e, 0xbe, 0x1b, 0x3e,
  0x6d, 0x59, 0x96, 0x3d, 0x2e, 0xf3, 0x86, 0xbc, 0x32, 0x0f, 0x03, 0x3e,
  0xf9, 0xd6, 0xca, 0xbd, 0xb9, 0x26, 0x58, 0x3e, 0x81, 0x02, 0x32, 0x3c,
  0x0d, 0x3d, 0x85, 0xbd, 0xb6, 0x0f, 0x4f, 0xbd, 0xcd, 0xa1, 0x44, 0xbd,
  0xcd, 0x05, 0x7f, 0xbd, 0xe9, 0xbb, 0x3c, 0xbe, 0x14, 0x1b, 0x35, 0x3e,
  0xc1, 0xd0, 0xc5, 0xbc, 0x69, 0xbe, 0xb6, 0x3c, 0x59, 0xfa, 0xe9, 0x3d,
  0xe8, 0x9f, 0x0a, 0xbd, 0x76, 0x39, 0x2b, 0xbe, 0xdd, 0x0c, 0xfc, 0xbd,
  0x4a, 0x55, 0xba, 0xbe, 0xf7, 0x6f, 0x6e, 0xbc, 0x7d, 0x74, 0xb7, 0xbd,
  0x6f, 0xd9, 0x84, 0xbd, 0x72, 0xdf, 0xf2, 0xbd, 0x60, 0x42, 0x57, 0xbe,
  0x70, 0x67, 0x5a, 0xbd, 0x62, 0x0f, 0x87, 0xbd, 0xc2, 0x59, 0xb1, 0xbe,
  0x0c, 0x41, 0xa9, 0xbd, 0x11, 0xfc, 0x97, 0xbe, 0x62, 0xe1, 0x9a, 0xbe,
  0x3e, 0xe7, 0x0d, 0xbe, 0xc1, 0xa3, 0xc5, 0xbc, 0xad, 0xba, 0x9d, 0xbd,
  0x3d, 0x32, 0x80, 0x3c, 0xa3, 0xfd, 0xe1, 0x3c, 0x08, 0xfd, 0x06, 0xbd,
  0x53, 0xd0, 0x32, 0x3e, 0x8c, 0x9a, 0x23, 0x3e, 0x7d, 0x21, 0x84, 0xbe,
  0x2a, 0x77, 0xf9, 0xbd, 0xd1, 0xea, 0x5a, 0xbe, 0xb3, 0x48, 0xb0, 0xbe,
  0xac, 0xfe, 0x16, 0xbe, 0x63, 0x65, 0x97, 0xbd, 0x87, 0x8a, 0x35, 0x3e,
  0xef, 0xd8, 0xb2, 0xbe, 0x61, 0x68, 0x73, 0xbe, 0xe0, 0x24, 0xd2, 0xbd,
  0xc0, 0xae, 0xa7, 0x3d, 0xe4, 0xbd, 0x22, 0x3e, 0x94, 0x80, 0x86, 0xbd,
  0x07, 0x3a, 0xf2, 0xbd, 0xc6, 0x05, 0x9f, 0x3d, 0xc9, 0x8a, 0x96, 0xbd,
  0x7b, 0xc4, 0x7d, 0xbb, 0xa0, 0xad, 0x50, 0xbe, 0x69, 0xef, 0xc8, 0xbe,
  0x0b, 0x5c, 0x17, 0xbe, 0x97, 0x0d, 0xa2, 0x3d, 0x03, 0x11, 0x2a, 0xbe,
  0x55, 0xf1, 0x70, 0xbc, 0xc9, 0x7a, 0x16, 0xbd, 0x42, 0xd7, 0x99, 0xbd,
  0x53, 0x52, 0xe6, 0x3d, 0x8e, 0x96, 0xf7, 0xbd, 0xc3, 0x93, 0x71, 0xbe,
  0xb1, 0x99, 0x82, 0x3d, 0xb2, 0x0f, 0x5f, 0xbd, 0x3d, 0xd2, 0x05, 0xbe,
  0xe4, 0x4d, 0x1c, 0x3e, 0xb3, 0x13, 0x8e, 0xbd, 0x7b, 0xcd, 0x1c, 0xbe,
  0x2a, 0x2f, 0xab, 0xbe, 0x7e, 0x10, 0x95, 0xbe, 0x07, 0xcb, 0x1a, 0xbd,
  0x02, 0x62, 0x8a, 0xbd, 0xed, 0xe3, 0x11, 0xbd, 0x90, 0x15, 0x3a, 0x3e,
  0x5e, 0x48, 0x15, 0x3b, 0x1b, 0xa3, 0x39, 0xbe, 0xc6, 0xc4, 0xe2, 0xbe,
  0xca, 0x16, 0x12, 0xbe, 0x07, 0x8c, 0x26, 0xbe, 0xfd, 0xd7, 0xb9, 0x3d,
  0x41, 0x1a, 0x9c, 0x3d, 0x68, 0x0f, 0x62, 0x3e, 0x60, 0xe3, 0x9e, 0xbd,
  0x68, 0x27, 0x45, 0xbe, 0xed, 0xc4, 0x5c, 0xbe, 0xf3, 0x16, 0x6f, 0xbe,
  0x5f, 0xd2, 0xdf, 0xbd, 0xb7, 0x0c, 0x90, 0x3c, 0x05, 0xb3, 0xd1, 0xbd,
  0x1e, 0x9b, 0x5c, 0xbe, 0x26, 0xde, 0xff, 0xff, 0x10, 0x00, 0x00, 0x00,
  0x0a, 0x00, 0x00, 0x00, 0x1c, 0x00, 0x00, 0x00, 0x38, 0x00, 0x00, 0x00,
  0x04, 0x00, 0x00, 0x00, 0x10, 0x00, 0x00, 0x00, 0x04, 0x00, 0x00, 0x00,
  0x01, 0x00, 0x00, 0x00, 0x08, 0x00, 0x00, 0x00, 0x1a, 0x00, 0x00, 0x00,
  0x73, 0x65, 0x71, 0x75, 0x65, 0x6e, 0x74, 0x69, 0x61, 0x6c, 0x2f, 0x63,
  0x6f, 0x6e, 0x76, 0x32, 0x64, 0x5f, 0x31, 0x2f, 0x43, 0x6f, 0x6e, 0x76,
  0x32, 0x44, 0x00, 0x00, 0x9c, 0xdd, 0xff, 0xff, 0xa6, 0xde, 0xff, 0xff,
  0x04, 0x00, 0x00, 0x00, 0x80, 0x01, 0x00, 0x00, 0x0c, 0xb5, 0x01, 0xbc,
  0xe1, 0xa4, 0x6f, 0xbe, 0x68, 0xa0, 0x85, 0xbd, 0xf3, 0x11, 0x73, 0xbd,
  0x76, 0x73, 0xc2, 0xbd, 0x5d, 0x06, 0x88, 0xbe, 0x0e, 0x48, 0xda, 0xbd,
  0x17, 0x99, 0x50, 0x3d, 0x4e, 0x65, 0x92, 0xbd, 0x79, 0x51, 0x22, 0xbe,
  0x40, 0x04, 0x00, 0x3d, 0x7b, 0xa7, 0x8f, 0xbe, 0xdc, 0x1c, 0x3a, 0x3e,
  0xd5, 0x5c, 0xb7, 0xbd, 0xa4, 0x40, 0x49, 0xbe, 0xd5, 0x29, 0xd5, 0xbd,
  0x10, 0xa4, 0x0a, 0xbe, 0x41, 0xeb, 0x07, 0xbf, 0x28, 0x1d, 0x9a, 0xbe,
  0x36, 0xa5, 0x9a, 0x3d, 0xfb, 0x87, 0x56, 0x3e, 0xf4, 0x9a, 0x60, 0x3e,
  0x20, 0x7d, 0x21, 0x3c, 0xa4, 0xda, 0xb0, 0x3e, 0xdd, 0x1c, 0xdb, 0xbb,
  0x6d, 0xf4, 0xf0, 0xbd, 0x2f, 0xa4, 0x72, 0xbe, 0x31, 0x16, 0xc7, 0xbd,
  0xaf, 0x66, 0x77, 0x3c, 0x00, 0x3c, 0x35, 0xbe, 0x47, 0xa3, 0x9d, 0xbd,
  0xbb, 0x51, 0x90, 0xba, 0xd4, 0x32, 0xb1, 0xbd, 0x35, 0x11, 0x8e, 0xbd,
  0x46, 0x63, 0x9b, 0x3b, 0xf7, 0x9a, 0x51, 0xbe, 0xd0, 0x5d, 0x51, 0xbe,
  0xaf, 0xd9, 0x02, 0x3e, 0x42, 0x3f, 0xca, 0xbd, 0xa7, 0xcd, 0x12, 0xbe,
  0x6c, 0x84, 0xa4, 0x3d, 0x5e, 0x0c, 0xe6, 0xbd, 0x37, 0xfd, 0x88, 0xbd,
  0x04, 0x18, 0x15, 0x3e, 0x1b, 0x03, 0x03, 0xbe, 0x44, 0x62, 0x8d, 0xbd,
  0x32, 0xdc, 0x9c, 0xbd, 0xa6, 0x5f, 0x5d, 0x3b, 0x1b, 0x9b, 0x13, 0xbe,
  0xb3, 0xb9, 0x42, 0x3e, 0xc2, 0xf3, 0xe6, 0xbe, 0x6a, 0xb6, 0xdb, 0xbd,
  0x61, 0xee, 0x67, 0xbd, 0xdf, 0xc7, 0xd7, 0xbc, 0x47, 0x0b, 0x6a, 0xbd,
  0xc7, 0xbc, 0xff, 0xbd, 0x1e, 0x34, 0x62, 0x3c, 0x2b, 0x9a, 0xe5, 0x3c,
  0x1b, 0xea, 0x33, 0xbe, 0x29, 0xb2, 0xd5, 0x3d, 0x02, 0xda, 0x3f, 0x3d,
  0x31, 0xbf, 0xe2, 0x3d, 0x09, 0x7c, 0x86, 0xbc, 0xf9, 0x87, 0x3e, 0x3e,
  0x3a, 0x46, 0xb3, 0x3e, 0x02, 0xc2, 0x88, 0x3e, 0xcf, 0x3d, 0x37, 0xbe,
  0x8f, 0x0c, 0x84, 0xbd, 0xd8, 0x8e, 0x4e, 0x3e, 0xb4, 0xda, 0xa1, 0xbd,
  0xf3, 0xa4, 0xa6, 0xbe, 0x20, 0xa6, 0x9c, 0xbe, 0xdf, 0x34, 0x59, 0xbe,
  0x21, 0xe2, 0x11, 0xbe, 0x69, 0xa2, 0x43, 0xbd, 0xd9, 0xb0, 0xce, 0xbb,
  0xfa, 0x94, 0x0f, 0xbe, 0xb2, 0x2b, 0xf7, 0x3d, 0x01, 0x59, 0x8b, 0xbd,
  0x72, 0x7d, 0xf2, 0xbc, 0x0e, 0x0a, 0x06, 0x3e, 0xee, 0x47, 0x0a, 0xbe,
  0x12, 0xa0, 0x2b, 0x3d, 0xf6, 0xd9, 0xaf, 0xbc, 0x34, 0x06, 0x5d, 0xbd,
  0xc4, 0xcd, 0x9c, 0x3d, 0x3d, 0xd9, 0x87, 0xbe, 0x3e, 0x0c, 0x19, 0xbe,
  0xa3, 0x0b, 0x38, 0xbe, 0xeb, 0xe0, 0x83, 0xbd, 0xd9, 0x08, 0xdb, 0x3d,
  0x78, 0x60, 0x0f, 0xbc, 0x0c, 0x64, 0x35, 0xbc, 0x41, 0xd7, 0x46, 0xbd,
  0xd3, 0x78, 0x5a, 0xbe, 0x44, 0xac, 0xee, 0x3d, 0xfe, 0xdf, 0xff, 0xff,
  0x10, 0x00, 0x00, 0x00, 0x09, 0x00, 0x00, 0x00, 0x1c, 0x00, 0x00, 0x00,
  0x38, 0x00, 0x00, 0x00, 0x04, 0x00, 0x00, 0x00, 0x08, 0x00, 0x00, 0x00,
  0x04, 0x00, 0x00, 0x00, 0x03, 0x00, 0x00, 0x00, 0x01, 0x00, 0x00, 0x00,
  0x18, 0x00, 0x00, 0x00, 0x73, 0x65, 0x71, 0x75, 0x65, 0x6e, 0x74, 0x69,
  0x61, 0x6c, 0x2f, 0x63, 0x6f, 0x6e, 0x76, 0x32, 0x64, 0x2f, 0x43, 0x6f,
  0x6e, 0x76, 0x32, 0x44, 0x00, 0x00, 0x00, 0x00, 0x74, 0xdf, 0xff, 0xff,
  0x7e, 0xe0, 0xff, 0xff, 0x04, 0x00, 0x00, 0x00, 0xc0, 0x00, 0x00, 0x00,
  0xdd, 0xb7, 0xfe, 0x3d, 0xe3, 0xf9, 0x89, 0xbd, 0x64, 0xf0, 0x1e, 0xbe,
  0x9a, 0xe7, 0xdc, 0x3d, 0x74, 0xdf, 0xb2, 0x3c, 0xea, 0xdc, 0xfa, 0x3e,
  0xd8, 0x1e, 0xf0, 0x3d, 0x6d, 0x89, 0x83, 0xbe, 0xdf, 0xd7, 0x43, 0x3e,
  0xdf, 0x03, 0xa1, 0x3d, 0xc5, 0xd5, 0x3e, 0x3f, 0xfa, 0xd4, 0x56, 0x3b,
  0x4b, 0x0e, 0x1a, 0xbe, 0xd5, 0x5f, 0x01, 0x3e, 0xb5, 0x3a, 0x8c, 0xbe,
  0xfe, 0xc4, 0x81, 0x3d, 0x65, 0x03, 0xe1, 0x3d, 0xda, 0x82, 0xad, 0x3e,
  0x08, 0x58, 0x18, 0xbe, 0xab, 0xe5, 0x05, 0x3e, 0xf0, 0xd3, 0x7d, 0x3d,
  0xf1, 0xe6, 0xf4, 0x3e, 0x81, 0x98, 0x09, 0x3e, 0xe6, 0x1d, 0x38, 0xbe,
  0x3e, 0xee, 0x71, 0x3e, 0x21, 0x7f, 0x8f, 0x3d, 0x35, 0x00, 0x17, 0xbf,
  0x73, 0xa5, 0x8a, 0x3c, 0xce, 0x70, 0xf0, 0xbd, 0x0c, 0x0b, 0x1a, 0x3e,
  0x7c, 0x0a, 0x7d, 0xbe, 0x85, 0x07, 0x50, 0x3d, 0x36, 0x5c, 0xaa, 0xbe,
  0xb5, 0x56, 0xa0, 0x3e, 0x4e, 0xf5, 0xb3, 0xbe, 0x33, 0xc5, 0x3d, 0x3e,
  0x63, 0x69, 0xe0, 0x3d, 0x6c, 0xfc, 0x3b, 0xbe, 0x38, 0xbf, 0x5f, 0x3e,
  0x3f, 0x18, 0x92, 0xbe, 0x29, 0xbf, 0x3b, 0x3e, 0xef, 0x18, 0x01, 0xbe,
  0xf7, 0x85, 0x02, 0xbf, 0x9d, 0xb2, 0xb3, 0xbd, 0xe8, 0x22, 0x10, 0xbe,
  0x14, 0x73, 0x90, 0xbe, 0x77, 0x13, 0xca, 0xbe, 0xcd, 0xbc, 0x67, 0xbd,
  0x16, 0xe1, 0xff, 0xff, 0x10, 0x00, 0x00, 0x00, 0x08, 0x00, 0x00, 0x00,
  0x14, 0x00, 0x00, 0x00, 0x30, 0x00, 0x00, 0x00, 0x02, 0x00, 0x00, 0x00,
  0x03, 0x00, 0x00, 0x00, 0x10, 0x00, 0x00, 0x00, 0x19, 0x00, 0x00, 0x00,
  0x73, 0x65, 0x71, 0x75, 0x65, 0x6e, 0x74, 0x69, 0x61, 0x6c, 0x2f, 0x64,
  0x65, 0x6e, 0x73, 0x65, 0x5f, 0x31, 0x2f, 0x4d, 0x61, 0x74, 0x4d, 0x75,
  0x6c, 0x00, 0x00, 0x00, 0x84, 0xe0, 0xff, 0xff, 0x8e, 0xe1, 0xff, 0xff,
  0x04, 0x00, 0x00, 0x00, 0x00, 0x1c, 0x00, 0x00, 0x66, 0x2b, 0x7f, 0xbe,
  0xd1, 0xb2, 0x35, 0x3c, 0xed, 0xe0, 0x70, 0x3e, 0x4c, 0xa4, 0x19, 0xbe,
  0x6c, 0x0a, 0xfd, 0x3c, 0xf1, 0x49, 0x28, 0xbe, 0x69, 0x58, 0x81, 0xbe,
  0xeb, 0xc6, 0xc2, 0xbd, 0x99, 0x03, 0x3c, 0xbe, 0xfc, 0x61, 0x66, 0xbe,
  0xb4, 0x23, 0xa7, 0xbe, 0x00, 0xfb, 0x9e, 0xbd, 0x70, 0x19, 0xe8, 0xbe,
  0xab, 0xda, 0x80, 0x3e, 0x86, 0x2d, 0xb6, 0x3d, 0xdb, 0x3c, 0x89, 0x3f,
  0x9c, 0x0b, 0x36, 0xbe, 0x49, 0x0c, 0x07, 0xb9, 0x41, 0x6c, 0x74, 0x3e,
  0x64, 0x94, 0x41, 0xbe, 0x55, 0xda, 0x1c, 0xbd, 0x8e, 0xd3, 0x87, 0xbd,
  0x00, 0x0e, 0x77, 0x3b, 0x90, 0xd5, 0xfd, 0x3f, 0xd3, 0x0e, 0xa0, 0x3d,
  0x71, 0xa5, 0x25, 0xbe, 0x05, 0xec, 0x67, 0xbe, 0xbc, 0xaa, 0xa5, 0x3c,
  0x60, 0xe7, 0x6f, 0xbd, 0x7d, 0x9d, 0x89, 0x3e, 0xa4, 0x4c, 0xae, 0xbd,
  0xa2, 0x49, 0xac, 0x3f, 0xd9, 0xb7, 0xc2, 0xbd, 0xbd, 0x61, 0xde, 0x3c,
  0x40, 0xad, 0xac, 0x3e, 0xe9, 0xb4, 0x65, 0xbd, 0x1b, 0xae, 0x28, 0x3d,
  0x4e, 0xbb, 0xbd, 0xbd, 0xf8, 0xda, 0xf6, 0x3d, 0x26, 0x18, 0xe2, 0x3f,
  0xe1, 0xea, 0x48, 0x3e, 0x15, 0x29, 0xa0, 0x3d, 0xb3, 0xdb, 0xed, 0xbd,
  0x46, 0x68, 0x8b, 0x3e, 0x52, 0x80, 0x2f, 0x3d, 0xc0, 0x59, 0x34, 0x3e,
  0xab, 0x46, 0x8e, 0x3d, 0x80, 0xef, 0x26, 0x3e, 0xfd, 0x45, 0x38, 0xbe,
  0x3a, 0xe0, 0xb0, 0x3d, 0x5f, 0x4c, 0xac, 0x3c, 0xf3, 0xe9, 0xa7, 0x3b,
  0xf5, 0x94, 0x42, 0xbd, 0x97, 0x22, 0x19, 0x3d, 0x58, 0x63, 0x84, 0x3e,
  0x9a, 0xa4, 0xf8, 0x3f, 0x6c, 0x14, 0x7d, 0x3e, 0x14, 0x40, 0x44, 0x3e,
  0x00, 0xf3, 0x5d, 0xbd, 0x06, 0x7b, 0xaf, 0x3e, 0x21, 0xef, 0x26, 0x3d,
  0x95, 0x25, 0x7b, 0x3e, 0x18, 0x39, 0x13, 0x3e, 0x4b, 0x29, 0xd2, 0xbd,
  0x43, 0x1f, 0xb6, 0xbd, 0x5a, 0xac, 0xe2, 0x3d, 0x36, 0x9b, 0x25, 0xbe,
  0x2e, 0x5a, 0x41, 0xbd, 0x6d, 0x9c, 0x25, 0x3e, 0xd2, 0x9a, 0xd1, 0x3d,
  0xef, 0x43, 0x01, 0x3c, 0x6b, 0xce, 0x33, 0x3f, 0xcc, 0xc5, 0x9c, 0xbd,
  0x63, 0xab, 0x86, 0xbd, 0x46, 0x9e, 0xfe, 0xbd, 0xc0, 0x0c, 0x08, 0x3e,
  0x3f, 0x36, 0x18, 0xbe, 0xa8, 0x49, 0x43, 0x3e, 0x3e, 0xde, 0xb1, 0x3b,
  0x43, 0x19, 0x88, 0x3e, 0x9d, 0xf1, 0x57, 0xbe, 0x01, 0xf7, 0x8b, 0x3e,
  0xe9, 0x82, 0xf7, 0xbd, 0x2b, 0xe9, 0xa6, 0xbd, 0xbe, 0x4d, 0xa3, 0xbe,
  0x8e, 0x62, 0x87, 0xbd, 0xfa, 0xc0, 0x4b, 0xbe, 0x58, 0xfb, 0xf4, 0x3e,
  0xd3, 0xd2, 0x3d, 0xbe, 0x8e, 0x0e, 0x2d, 0xbe, 0x98, 0x4c, 0x01, 0xbe,
  0x8f, 0x00, 0x80, 0x3d, 0x06, 0xbb, 0x81, 0xbe, 0x0a, 0xf6, 0xbc, 0x3e,
  0xfb, 0x4f, 0x1a, 0xbe, 0x2f, 0x77, 0x2b, 0x3f, 0xc5, 0xe2, 0x7a, 0xbe,
  0x1a, 0x27, 0x31, 0x3d, 0x5e, 0x82, 0x3b, 0x3e, 0x9f, 0x6d, 0xa5, 0x3d,
  0xdb, 0x9d, 0x31, 0xbd, 0x58, 0x2f, 0xd6, 0x3c, 0xb5, 0xb7, 0xb0, 0x3d,
  0x70, 0x95, 0x7b, 0xbd, 0x1e, 0xb4, 0xff, 0xbd, 0xae, 0x47, 0xfe, 0xbd,
  0x3a, 0xa6, 0x97, 0xbe, 0xb4, 0xe7, 0xf4, 0x3c, 0x41, 0xca, 0x5c, 0xbc,
  0x4c, 0xce, 0xe3, 0xbc, 0x4d, 0x8c, 0x0d, 0x3d, 0xcf, 0xb1, 0x2b, 0x3d,
  0xad, 0x6e, 0x42, 0x3e, 0x61, 0x8a, 0x4f, 0xbb, 0xe7, 0xa3, 0x81, 0xbd,
  0x0f, 0x25, 0xff, 0x3c, 0x31, 0xe4, 0x2a, 0xbc, 0x27, 0xb9, 0xe9, 0xbc,
  0x24, 0x94, 0x1e, 0x3d, 0x57, 0xd0, 0x01, 0x3f, 0x7a, 0xd6, 0xba, 0x3e,
  0xd2, 0x6a, 0xce, 0x3e, 0x17, 0x2f, 0xde, 0x3d, 0xf0, 0xe1, 0xf2, 0x3d,
  0x9f, 0x8b, 0x55, 0xbe, 0x12, 0x63, 0xe6, 0x3d, 0x86, 0xbc, 0xc2, 0xbe,
  0x38, 0x7d, 0x7d, 0x3e, 0xb6, 0x41, 0x67, 0x3c, 0x37, 0x3d, 0x3a, 0xbd,
  0xbf, 0xfd, 0xfe, 0xbc, 0x6e, 0x31, 0x26, 0x3e, 0x51, 0xe0, 0x93, 0xbe,
  0x1f, 0xa5, 0x98, 0xbe, 0xc9, 0x39, 0x36, 0x3e, 0xf4, 0xed, 0x63, 0xbd,
  0x8e, 0x2d, 0x29, 0x3e, 0x0c, 0x3c, 0xfd, 0xbd, 0x41, 0x77, 0x0c, 0x3d,
  0x49, 0x6a, 0x3a, 0x3d, 0x50, 0x6f, 0xdc, 0xbd, 0x6a, 0xb0, 0xb7, 0xbe,
  0xf9, 0x2b, 0x2d, 0x3d, 0x6c, 0x26, 0x18, 0xbe, 0x5d, 0xda, 0x0f, 0x3d,
  0xef, 0x16, 0x5e, 0xbe, 0x4d, 0x6b, 0x23, 0xbe, 0x14, 0xb8, 0xb2, 0x3d,
  0x20, 0x47, 0x35, 0xbe, 0xaf, 0x28, 0x0a, 0xbe, 0xf5, 0x04, 0x1a, 0xbd,
  0x7e, 0xf6, 0x35, 0xbe, 0x1b, 0x78, 0x44, 0x3d, 0x59, 0xc4, 0x13, 0x3e,
  0x16, 0x40, 0x71, 0xbd, 0x34, 0x6b, 0xea, 0xbd, 0xc1, 0x50, 0x2e, 0xbb,
  0x49, 0x1d, 0x87, 0x3d, 0xe0, 0x10, 0x9d, 0x3c, 0x64, 0x6c, 0x66, 0x3c,
  0xc1, 0x4a, 0x8d, 0xbd, 0x71, 0x0e, 0xb5, 0xbd, 0x67, 0xc3, 0x11, 0x3e,
  0x65, 0xe2, 0x34, 0xbd, 0x90, 0x97, 0x34, 0xbe, 0x14, 0x5a, 0x2f, 0xbc,
  0x28, 0x1c, 0x9c, 0xbd, 0x15, 0x3f, 0x8a, 0xbc, 0xeb, 0x19, 0xf9, 0xbd,
  0x4d, 0xb6, 0x5f, 0x3e, 0x09, 0xd1, 0x1e, 0xbd, 0x7f, 0x0b, 0xf3, 0x39,
  0x9a, 0xff, 0x54, 0x3d, 0x33, 0xf7, 0xcf, 0xbd, 0x83, 0x76, 0x8a, 0x3b,
  0xb0, 0xe8, 0x8b, 0x3c, 0x4c, 0xb2, 0x3d, 0x3e, 0x50, 0x95, 0xf2, 0xbd,
  0x92, 0x0c, 0x4d, 0x3e, 0x17, 0xb7, 0x13, 0x3e, 0x66, 0x9a, 0x3a, 0xbe,
  0x69, 0x74, 0x3a, 0x3d, 0x38, 0xbe, 0x6a, 0xbd, 0xb6, 0x45, 0xed, 0xbe,
  0x52, 0xa8, 0xf9, 0x3d, 0x91, 0x46, 0x6c, 0x3d, 0x60, 0x47, 0xd6, 0x3d,
  0x0b, 0xe2, 0xd9, 0xbc, 0xa3, 0x48, 0x65, 0xbc, 0x9b, 0xbc, 0x25, 0x3e,
  0x9c, 0x42, 0xf5, 0xbd, 0x8d, 0xba, 0xc4, 0xbc, 0x25, 0xd3, 0x8a, 0xbd,
  0xe2, 0xc6, 0x60, 0xbe, 0x0e, 0xf8, 0x12, 0x3d, 0x96, 0x36, 0x1c, 0x3d,
  0xa2, 0xf4, 0xc1, 0xbe, 0x42, 0x7a, 0x10, 0xbd, 0x07, 0xf1, 0xb3, 0x3d,
  0xc3, 0x33, 0x0e, 0xbe, 0x2d, 0x1c, 0xaa, 0xbe, 0xa6, 0xeb, 0x19, 0x3d,
  0x2d, 0xef, 0x29, 0x3d, 0xaf, 0x1f, 0x94, 0xbe, 0x17, 0x2e, 0xb2, 0xbd,
  0x97, 0xf8, 0x42, 0xbe, 0x22, 0x28, 0x61, 0x3d, 0x78, 0x5c, 0xc4, 0xbc,
  0xfe, 0x23, 0x00, 0x3e, 0x2c, 0x15, 0xad, 0xbe, 0x32, 0xff, 0x1b, 0xbc,
  0x8d, 0x86, 0x1a, 0x3e, 0xa9, 0xda, 0x18, 0xbe, 0xe6, 0xa6, 0x33, 0xbd,
  0x2c, 0x2f, 0x2b, 0x3d, 0xd1, 0x6f, 0x0e, 0x3e, 0x4a, 0x8e, 0xf1, 0x3d,
  0xa8, 0x8a, 0x36, 0x3e, 0xa4, 0x10, 0x38, 0xbd, 0x4b, 0x80, 0xad, 0x3d,
  0x88, 0x91, 0xf6, 0xbd, 0xa0, 0x93, 0xe4, 0xbd, 0x36, 0x53, 0x13, 0x3e,
  0x51, 0xb7, 0x9f, 0xbd, 0xaa, 0xa8, 0x40, 0x3e, 0xb0, 0xff, 0x5d, 0xbe,
  0x97, 0xdf, 0x53, 0xbe, 0x00, 0x02, 0xfa, 0xbb, 0x9f, 0x43, 0x39, 0xbe,
  0x7d, 0x13, 0x68, 0xbe, 0x90, 0xf2, 0x31, 0x3e, 0xdb, 0x8b, 0xe6, 0x3d,
  0xd8, 0xe1, 0x76, 0x3e, 0xc9, 0x70, 0xb3, 0x3d, 0x83, 0xcc, 0x58, 0xbd,
  0xb2, 0x1d, 0x63, 0x3d, 0xd6, 0x22, 0xbc, 0xbd, 0x99, 0xfd, 0x87, 0xbd,
  0xd7, 0x49, 0xb3, 0x3c, 0x42, 0xd7, 0x63, 0xbd, 0x1f, 0x74, 0x78, 0x3c,
  0xff, 0x44, 0xbc, 0xbd, 0x16, 0x2d, 0xd3, 0x3c, 0x7c, 0x19, 0x0c, 0x3e,
  0xbc, 0xbb, 0x19, 0xbc, 0x0c, 0x22, 0xcf, 0xbd, 0x73, 0x79, 0xed, 0xbc,
  0x15, 0xd0, 0x08, 0xbd, 0x18, 0x9f, 0x43, 0xbc, 0xff, 0xf4, 0x65, 0x3c,
  0xb5, 0x96, 0xd2, 0xbd, 0x09, 0x4f, 0x5a, 0xbe, 0x3b, 0xfb, 0x73, 0x3d,
  0x6c, 0x29, 0xf3, 0xbd, 0xdf, 0x8c, 0xb2, 0x3d, 0x75, 0xf9, 0x1d, 0x3d,
  0x0a, 0xf6, 0xb7, 0xbd, 0x66, 0xa4, 0x11, 0xbe, 0x73, 0xd5, 0x66, 0xba,
  0x36, 0x94, 0x27, 0xbe, 0xeb, 0xea, 0x94, 0x3b, 0x5e, 0x48, 0x58, 0xbe,
  0xa0, 0xeb, 0x01, 0xbe, 0x56, 0x26, 0x04, 0x3e, 0x3e, 0xce, 0x9d, 0xbd,
  0xe9, 0xfc, 0x9d, 0xbd, 0xa6, 0x02, 0x30, 0xbe, 0xf9, 0x33, 0x98, 0xbe,
  0x93, 0xee, 0xc3, 0xbd, 0xde, 0xb7, 0xb2, 0xbd, 0x78, 0xb5, 0x9d, 0xbd,
  0xcb, 0xd9, 0x77, 0x3d, 0x92, 0x9a, 0x04, 0xbe, 0xae, 0x44, 0x5d, 0xbd,
  0xaf, 0xff, 0x8d, 0xbe, 0x6f, 0x04, 0x0c, 0xbe, 0x3d, 0x5e, 0x1c, 0xbe,
  0x8e, 0x18, 0x41, 0xbc, 0x17, 0x22, 0x24, 0xbe, 0x4d, 0xc1, 0xbb, 0x3d,
  0x13, 0xb2, 0xe1, 0x3d, 0x9b, 0x6e, 0xa0, 0xbd, 0xfc, 0x2e, 0x1c, 0xbe,
  0x2c, 0x0c, 0x40, 0xbe, 0x91, 0x07, 0x7b, 0x3e, 0x67, 0xcc, 0xea, 0x3d,
  0x9f, 0x37, 0x72, 0x3d, 0x57, 0x43, 0xf1, 0x3d, 0x68, 0x7d, 0x15, 0x3d,
  0x67, 0x4a, 0xb1, 0xbd, 0xf6, 0xc1, 0x13, 0x3e, 0x2e, 0x51, 0xe4, 0xbb,
  0xf1, 0x8b, 0x0c, 0xbd, 0x0c, 0xe4, 0x34, 0xbe, 0x6e, 0x8a, 0x91, 0x3d,
  0x70, 0x48, 0x40, 0xbe, 0x2f, 0xe8, 0xc7, 0x3c, 0xf5, 0x35, 0xd4, 0xbc,
  0x2c, 0x9f, 0x8a, 0x3c, 0x16, 0x25, 0x9c, 0xbd, 0x1b, 0xdd, 0xc1, 0xbd,
  0xc1, 0x21, 0x4f, 0xbe, 0xaf, 0x06, 0xba, 0xbc, 0xc2, 0x34, 0x81, 0x3c,
  0x6f, 0x03, 0x38, 0xbc, 0xe2, 0xbc, 0xe3, 0x3b, 0x60, 0x87, 0x14, 0x3d,
  0x8f, 0x06, 0x25, 0xbe, 0xc2, 0x22, 0x34, 0xbd, 0x6d, 0x61, 0x79, 0xbe,
  0x09, 0x40, 0xc9, 0x3e, 0x5d, 0xbe, 0x09, 0xbe, 0xf4, 0xa1, 0x3f, 0x3d,
  0x7f, 0x8a, 0xe6, 0x3d, 0xde, 0xe7, 0x0a, 0xbe, 0x90, 0x66, 0xd0, 0x3d,
  0x91, 0xfa, 0x36, 0x3e, 0x38, 0xbd, 0x93, 0xbd, 0x17, 0xc5, 0x05, 0xbd,
  0xe4, 0x53, 0xb8, 0x3d, 0x68, 0xea, 0x99, 0x3c, 0x24, 0x77, 0x35, 0xbd,
  0x04, 0x62, 0x32, 0x3e, 0xa2, 0x42, 0x43, 0x3e, 0x40, 0x25, 0xfc, 0xba,
  0x9e, 0x0b, 0x7f, 0xbd, 0x5b, 0xa7, 0xda, 0x3c, 0x25, 0x3f, 0x72, 0x3d,
  0x4d, 0xf1, 0x83, 0x3e, 0xe7, 0xce, 0xdc, 0x3c, 0xcc, 0x67, 0x84, 0xbe,
  0x3f, 0x62, 0x55, 0x3d, 0x82, 0x2b, 0x12, 0xbe, 0xf0, 0xa0, 0x8e, 0xbd,
  0xf0, 0x87, 0x7d, 0xbc, 0xe9, 0x2a, 0x6f, 0xbe, 0xe1, 0x78, 0xb1, 0xbe,
  0x82, 0x1a, 0x28, 0xbf, 0x2b, 0xaf, 0xd0, 0x3d, 0x27, 0xf5, 0xd1, 0x3d,
  0x09, 0x90, 0x8d, 0xbe, 0xf8, 0x3f, 0x42, 0x3e, 0x2b, 0xb3, 0x59, 0xbe,
  0x65, 0x64, 0x20, 0xbf, 0x46, 0x79, 0x1e, 0xbf, 0xa0, 0xa8, 0x1e, 0xbf,
  0x3a, 0xb8, 0xe0, 0x3c, 0x79, 0x05, 0xdd, 0xbe, 0xbd, 0x2c, 0xf0, 0x3d,
  0xe3, 0x1d, 0x21, 0xbe, 0xb2, 0x4e, 0xb2, 0x3e, 0x90, 0x8c, 0xe6, 0xbe,
  0xb5, 0x75, 0x00, 0x3e, 0xc1, 0xd4, 0xd0, 0xbe, 0xd5, 0x3a, 0xe6, 0xbd,
  0x43, 0x95, 0x07, 0xbd, 0x50, 0x9f, 0xf5, 0xbd, 0x70, 0xd3, 0xf0, 0x3d,
  0x43, 0x88, 0xad, 0x3e, 0xb3, 0xb0, 0x32, 0xbd, 0x22, 0x18, 0x4c, 0x3c,
  0xe6, 0xf4, 0x64, 0x3d, 0x21, 0xb3, 0xd4, 0x3d, 0x3d, 0xd1, 0xcc, 0xbc,
  0xd0, 0xc9, 0x1d, 0x3e, 0xae, 0xea, 0x6f, 0xbd, 0xfd, 0x68, 0xad, 0x3d,
  0x6e, 0xf3, 0x51, 0x3d, 0x07, 0xe9, 0x48, 0x3d, 0x6f, 0x96, 0x07, 0xbe,
  0x9e, 0x59, 0x1e, 0x3e, 0x8a, 0x77, 0x26, 0x3e, 0x8a, 0xe5, 0x1b, 0x3d,
  0x56, 0x60, 0x0a, 0x3d, 0x68, 0xf4, 0xb4, 0x3e, 0x99, 0x93, 0x63, 0x3e,
  0x7c, 0xc9, 0x91, 0x3e, 0xa9, 0x1f, 0x17, 0x3e, 0x7c, 0xda, 0x3d, 0x3d,
  0x20, 0x99, 0x91, 0xbd, 0xfd, 0x6b, 0xb3, 0xbd, 0xd8, 0xcc, 0x07, 0xbc,
  0x26, 0x4e, 0x95, 0x3e, 0x57, 0x99, 0xcb, 0x3d, 0xcb, 0x13, 0x49, 0xbc,
  0xe3, 0x36, 0x42, 0xbe, 0x2c, 0xea, 0x64, 0xbe, 0x72, 0x7e, 0x26, 0xbe,
  0x69, 0x01, 0xb3, 0x3d, 0x63, 0x61, 0xcb, 0x3d, 0x40, 0xe3, 0xaa, 0x3c,
  0x5e, 0x70, 0x7e, 0xbd, 0x8b, 0x85, 0x25, 0x3e, 0xc4, 0xc3, 0x8e, 0x3d,
  0x5f, 0xf2, 0xf4, 0x3d, 0x05, 0xaa, 0x82, 0x3d, 0x32, 0x96, 0x88, 0xbd,
  0x97, 0xc2, 0x04, 0x3e, 0x69, 0x01, 0x6a, 0x3c, 0x52, 0x37, 0xfa, 0x3d,
  0x4c, 0x7f, 0x68, 0x3c, 0x13, 0x8a, 0xc6, 0xbd, 0xcb, 0x42, 0xde, 0x3d,
  0x52, 0x38, 0xa8, 0xbd, 0x34, 0x6b, 0xc6, 0xbb, 0x92, 0xd8, 0x02, 0xbd,
  0x15, 0x4d, 0x87, 0xbc, 0xe4, 0x0a, 0x94, 0x3d, 0x04, 0x26, 0x52, 0xbe,
  0xe6, 0xc3, 0x25, 0x3d, 0x23, 0xef, 0xba, 0x3c, 0xe8, 0x85, 0x85, 0x3d,
  0x0c, 0x5e, 0x96, 0xbc, 0xda, 0x2f, 0xd0, 0x3d, 0x40, 0xfa, 0xef, 0x3d,
  0x0f, 0xff, 0x80, 0x3e, 0xfc, 0x15, 0xa7, 0x3d, 0x33, 0xe0, 0xad, 0xbd,
  0xa4, 0x4f, 0xa8, 0x3d, 0xc4, 0x1f, 0x9c, 0xbc, 0xee, 0x60, 0x70, 0xbd,
  0x5b, 0x95, 0xe4, 0xbd, 0x71, 0x61, 0x65, 0xbd, 0x5b, 0x41, 0x3a, 0x3e,
  0x76, 0x50, 0x1e, 0xbe, 0x9e, 0xd5, 0xdd, 0xbd, 0x8d, 0x89, 0xa3, 0x3d,
  0xf8, 0x21, 0x3b, 0xbe, 0x49, 0xd8, 0x10, 0x3d, 0x96, 0xda, 0x7f, 0x3d,
  0x25, 0x76, 0x24, 0x3d, 0xdb, 0x20, 0x01, 0xbd, 0x1d, 0x79, 0x5c, 0xbb,
  0x61, 0x30, 0xa5, 0xbd, 0x83, 0xbc, 0xe5, 0xbc, 0xb8, 0x8d, 0xd9, 0x3d,
  0x96, 0xde, 0x4e, 0xba, 0xcf, 0x67, 0xdc, 0x3b, 0x1b, 0x7f, 0x5f, 0xbc,
  0x95, 0x2c, 0x3b, 0xbe, 0x3e, 0xfd, 0x37, 0xbe, 0x16, 0x12, 0xc1, 0xbd,
  0xa9, 0x8b, 0x94, 0x3d, 0x28, 0xef, 0x6a, 0xbe, 0xd3, 0xe4, 0x21, 0xbd,
  0x43, 0xf2, 0x9f, 0xbd, 0x51, 0x1b, 0x99, 0x3e, 0x65, 0x2c, 0xc9, 0x3e,
  0x56, 0xbc, 0xd5, 0xbd, 0xf1, 0x8c, 0x9d, 0xbe, 0xa3, 0xf9, 0xc4, 0x3d,
  0xaa, 0xc0, 0x50, 0xbd, 0xd3, 0x36, 0x66, 0xbe, 0xeb, 0xd0, 0xa4, 0xbc,
  0x3d, 0xcd, 0x9f, 0xbe, 0x38, 0xca, 0xa0, 0xbe, 0xc1, 0x25, 0x9c, 0xbd,
  0x2a, 0x5a, 0x27, 0xbe, 0x72, 0x6e, 0x0b, 0x3e, 0xeb, 0x2a, 0xb6, 0xbe,
  0xa8, 0x63, 0x92, 0x3e, 0xd9, 0xbb, 0x41, 0xbe, 0x94, 0xf5, 0x12, 0x3e,
  0xef, 0x24, 0xfe, 0xbe, 0x91, 0x27, 0x9e, 0xbc, 0x7a, 0x33, 0x06, 0xbe,
  0x6a, 0x75, 0xe7, 0x3d, 0x0e, 0x79, 0x61, 0x3d, 0xe3, 0x7b, 0x1d, 0xbe,
  0xd3, 0x3f, 0x0e, 0xbd, 0x29, 0xca, 0x74, 0x3e, 0x9a, 0x3a, 0xa1, 0xbd,
  0xba, 0x2c, 0xe1, 0x3d, 0x2e, 0xb4, 0xdc, 0xbd, 0x58, 0x87, 0x40, 0x3d,
  0xcf, 0xbd, 0xc0, 0x3d, 0x3f, 0x09, 0x9f, 0x3e, 0xed, 0xf9, 0x22, 0xbe,
  0x48, 0x20, 0x4d, 0x3e, 0xdc, 0x17, 0x11, 0x3e, 0x55, 0x5c, 0x0f, 0x3e,
  0x00, 0x32, 0x74, 0xbe, 0xd1, 0x38, 0x61, 0x3d, 0xa1, 0x88, 0x55, 0x3e,
  0x6a, 0xf0, 0xcc, 0x3c, 0x3e, 0xa0, 0xf8, 0x3c, 0xeb, 0xf2, 0x71, 0x3e,
  0xc6, 0xf0, 0xac, 0x3b, 0x04, 0xa9, 0x18, 0xbe, 0x78, 0x91, 0x92, 0xbe,
  0x54, 0x49, 0xa6, 0x3d, 0x50, 0x8b, 0xb4, 0x3d, 0x73, 0x79, 0x8e, 0xbc,
  0x97, 0x50, 0x1d, 0xbe, 0xdb, 0x2f, 0xa1, 0x3e, 0x37, 0xea, 0xcc, 0x3d,
  0x17, 0x45, 0x15, 0x3b, 0x88, 0x39, 0x54, 0x3c, 0x2c, 0x36, 0x45, 0xbe,
  0x4c, 0xbf, 0x9f, 0xbd, 0x4a, 0x1c, 0x6f, 0xbc, 0x54, 0x16, 0x18, 0x3d,
  0x8c, 0x45, 0x75, 0x3e, 0x92, 0x55, 0xf1, 0x3c, 0x47, 0x8d, 0x91, 0x3d,
  0x55, 0x45, 0x41, 0xbe, 0x04, 0x45, 0x96, 0x3d, 0xe7, 0x7b, 0x89, 0xbd,
  0x3c, 0x4a, 0x8c, 0x3d, 0xb4, 0x5f, 0x38, 0xbd, 0x92, 0x6f, 0x78, 0x3e,
  0x90, 0x53, 0xe8, 0x3d, 0x05, 0x01, 0x84, 0xbd, 0xbc, 0x43, 0x15, 0xbe,
  0xf7, 0x14, 0xd3, 0xbd, 0x08, 0x6e, 0x66, 0x3d, 0x6d, 0x8d, 0x44, 0xbd,
  0x89, 0x45, 0x82, 0xbd, 0xa8, 0x1f, 0x64, 0x3e, 0xac, 0xf1, 0x0e, 0x3e,
  0x9d, 0x3f, 0x0d, 0xbe, 0x50, 0x8a, 0x49, 0xbb, 0xbc, 0xe5, 0x49, 0x3d,
  0xed, 0x60, 0xbb, 0x3d, 0xb3, 0xe9, 0xaa, 0x3d, 0x67, 0xc2, 0xeb, 0xbd,
  0x37, 0x34, 0x8c, 0x3e, 0xa8, 0x2f, 0xc4, 0x3e, 0x6e, 0x4c, 0x6c, 0x3d,
  0x0a, 0xb6, 0xc3, 0xbd, 0xaa, 0x19, 0xb5, 0x3d, 0xb0, 0x20, 0x87, 0xbd,
  0x8b, 0xc7, 0x5e, 0xbd, 0x6c, 0xde, 0x7f, 0xbd, 0xbf, 0x36, 0xe5, 0x3d,
  0x32, 0xc2, 0x3d, 0x3e, 0xc1, 0xab, 0x21, 0xbe, 0x6d, 0xb9, 0x83, 0xbd,
  0xaf, 0x76, 0x23, 0x3d, 0x97, 0x9b, 0xf4, 0xba, 0xfe, 0x73, 0xd2, 0x3d,
  0xac, 0x4f, 0x92, 0xbd, 0xa4, 0x43, 0x1f, 0xbd, 0x24, 0x79, 0x94, 0x3d,
  0xc8, 0x22, 0x90, 0x3c, 0x8e, 0xac, 0xc9, 0xbd, 0x99, 0x6d, 0x0c, 0x3c,
  0xcb, 0xb7, 0x3e, 0xbe, 0xdc, 0xda, 0x98, 0xbc, 0x6b, 0x32, 0xc6, 0xbc,
  0xa7, 0xc0, 0x5b, 0x3d, 0x22, 0xb8, 0x8a, 0xbd, 0xb6, 0x7b, 0x26, 0x3c,
  0x00, 0x5a, 0xd9, 0xbd, 0xc7, 0xef, 0x4b, 0x3d, 0x0e, 0xdf, 0x2f, 0xbe,
  0xdc, 0x30, 0x32, 0xbd, 0x2d, 0x49, 0x68, 0xbd, 0xb5, 0x1f, 0x69, 0x3e,
  0x7b, 0x8c, 0x8f, 0x3e, 0xd0, 0x96, 0xcd, 0xbe, 0xf0, 0xad, 0xb3, 0x3d,
  0xa7, 0x04, 0x0e, 0x3e, 0x6d, 0x52, 0x1d, 0xbd, 0xf8, 0xed, 0x28, 0x3d,
  0xb0, 0x10, 0xe7, 0x3c, 0x39, 0xf0, 0xbc, 0xbe, 0xd5, 0xb9, 0x34, 0xbd,
  0xf7, 0xdd, 0xf7, 0xbe, 0xac, 0xc4, 0x0f, 0xbf, 0x2c, 0xe5, 0xe7, 0xbe,
  0x14, 0x57, 0x2e, 0xbe, 0xad, 0xeb, 0x13, 0xbf, 0x8d, 0xa3, 0xa9, 0x3e,
  0x43, 0xe2, 0xff, 0x3d, 0x18, 0xad, 0xce, 0x3f, 0xa2, 0x30, 0x54, 0xbe,
  0xf2, 0x57, 0xd1, 0x3d, 0xc4, 0xb9, 0x88, 0x3e, 0xc1, 0xe7, 0x31, 0x3e,
  0x13, 0x72, 0xf4, 0x3c, 0xbe, 0x68, 0xba, 0x3d, 0x15, 0x8e, 0x05, 0xbe,
  0x9e, 0x59, 0xf8, 0x3f, 0x68, 0xcc, 0x17, 0xbd, 0xc0, 0xd5, 0x15, 0xbd,
  0x82, 0x3d, 0x82, 0xbe, 0xcd, 0xef, 0x5e, 0x3e, 0x09, 0xf9, 0xa0, 0xbe,
  0x8e, 0x72, 0x1b, 0x3e, 0x97, 0x38, 0x49, 0x3e, 0x60, 0x89, 0x52, 0x3f,
  0xb4, 0xc1, 0xed, 0xbc, 0xbc, 0x4f, 0x39, 0x3e, 0x44, 0x80, 0x9f, 0x3b,
  0xab, 0xc2, 0x19, 0xbd, 0x51, 0xc7, 0xf4, 0x3c, 0xd9, 0x98, 0x2a, 0xbe,
  0x2b, 0xfc, 0x0c, 0x3d, 0x36, 0x67, 0x9e, 0x3f, 0xab, 0xd8, 0x86, 0x3e,
  0x35, 0xe2, 0x0d, 0x3e, 0xa3, 0x65, 0x82, 0xbe, 0x61, 0x79, 0x65, 0x3e,
  0x9a, 0x7a, 0x0f, 0xbe, 0x8d, 0xcf, 0x4f, 0x3d, 0x0d, 0x80, 0x6d, 0xbd,
  0xfd, 0x4d, 0x93, 0x3c, 0x09, 0x1f, 0x2f, 0xbe, 0xad, 0x95, 0x84, 0x3e,
  0x40, 0x34, 0x2a, 0xbd, 0x1f, 0x11, 0xd2, 0x3d, 0xe7, 0x3f, 0xc9, 0x3c,
  0xd3, 0x58, 0x45, 0xbc, 0x09, 0x49, 0x13, 0xbc, 0x5b, 0x60, 0xdd, 0x3f,
  0xfd, 0x32, 0xa6, 0x3e, 0x8b, 0x6e, 0x75, 0x3e, 0x60, 0x37, 0x38, 0xbe,
  0x23, 0x4a, 0xa4, 0x3e, 0x25, 0x84, 0x60, 0xbd, 0xde, 0x4f, 0xb8, 0x3e,
  0x73, 0xde, 0x04, 0xbe, 0x63, 0xf5, 0x64, 0x3e, 0xec, 0x8f, 0xc4, 0xbe,
  0x2d, 0x25, 0x70, 0x3e, 0xe9, 0x79, 0x70, 0x3e, 0x52, 0x56, 0x26, 0x3e,
  0x0b, 0xd2, 0x85, 0xbd, 0x40, 0x1f, 0xfd, 0x3d, 0xe2, 0xef, 0x94, 0xbd,
  0x5d, 0xda, 0x05, 0x3f, 0xc6, 0x7e, 0x22, 0xbe, 0x06, 0x7e, 0xbc, 0xbd,
  0x6f, 0x69, 0xf9, 0xbd, 0x53, 0x9e, 0xe1, 0x3d, 0x40, 0x15, 0xa0, 0xbe,
  0x56, 0x31, 0x03, 0x3f, 0x5c, 0x4e, 0x70, 0x3e, 0x50, 0x7f, 0x98, 0x3d,
  0x13, 0xbe, 0x6f, 0xbe, 0x63, 0xf0, 0x54, 0x3e, 0xc8, 0x70, 0xb2, 0xbc,
  0x4e, 0x43, 0x34, 0xbd, 0x97, 0x62, 0x9e, 0x3b, 0x07, 0x38, 0xeb, 0x3d,
  0x5d, 0x79, 0x55, 0xbe, 0x6f, 0xcd, 0x63, 0x3e, 0xbb, 0x1a, 0x86, 0xbe,
  0x8f, 0x1c, 0x96, 0xbe, 0x4f, 0xfc, 0x3d, 0xbe, 0x7d, 0x23, 0x87, 0x3d,
  0x8c, 0x77, 0x75, 0xbe, 0x3f, 0x88, 0x81, 0x3e, 0x63, 0x0d, 0x89, 0xbd,
  0x70, 0x97, 0x11, 0x3f, 0x92, 0x45, 0xab, 0xbe, 0x27, 0x60, 0xe7, 0x3b,
  0xdd, 0x89, 0xde, 0xbd, 0xcc, 0x3f, 0x56, 0x3e, 0xcf, 0x9b, 0x6e, 0x3c,
  0x7c, 0x4d, 0xa2, 0x3d, 0x40, 0x47, 0xc2, 0xbd, 0xca, 0xab, 0x56, 0xbd,
  0xb9, 0x10, 0x7c, 0xbe, 0x76, 0x1f, 0x7d, 0xbe, 0x21, 0x77, 0x27, 0xbe,
  0x4f, 0x84, 0xfd, 0x38, 0x7f, 0x83, 0x82, 0xbe, 0xe6, 0x61, 0x0d, 0x3d,
  0x48, 0xbb, 0x8d, 0x3e, 0xae, 0xb5, 0x9d, 0x3d, 0x5d, 0xde, 0x4f, 0xbe,
  0xc7, 0x21, 0x23, 0xbf, 0xac, 0x18, 0xcd, 0x3d, 0xb3, 0x02, 0x96, 0xbd,
  0x28, 0x47, 0xec, 0xbe, 0x4a, 0x2d, 0x20, 0x3e, 0xac, 0x52, 0xa9, 0xbe,
  0x13, 0x15, 0x15, 0xbf, 0x04, 0x21, 0x03, 0xbf, 0xef, 0xf1, 0x24, 0xbf,
  0x54, 0xa8, 0x1a, 0x3e, 0xb0, 0x2a, 0x47, 0xbe, 0xef, 0x6d, 0xac, 0x3e,
  0x47, 0xa6, 0x04, 0xbf, 0xa4, 0xe7, 0xec, 0x3e, 0x5a, 0x06, 0x47, 0xbf,
  0xa6, 0xea, 0x5c, 0x3e, 0xf7, 0x72, 0xb5, 0xbe, 0x57, 0x86, 0xed, 0x3c,
  0x97, 0x57, 0x19, 0xbe, 0x58, 0x9b, 0x07, 0xbe, 0x6a, 0x92, 0x32, 0x3c,
  0xc1, 0x07, 0x94, 0x3b, 0xb8, 0x2d, 0x09, 0xbe, 0x6a, 0xad, 0xb6, 0x3e,
  0x7a, 0x89, 0x44, 0xbd, 0x23, 0xa9, 0x33, 0x3e, 0xf0, 0x36, 0xea, 0x3d,
  0xa4, 0x27, 0x3a, 0x3d, 0xff, 0x96, 0xea, 0xbd, 0xb5, 0x96, 0x26, 0x3e,
  0x15, 0xb4, 0x4f, 0x3d, 0x4c, 0xe5, 0x75, 0x3d, 0xec, 0xbe, 0x9b, 0xbc,
  0x96, 0x13, 0xee, 0xbd, 0xed, 0x41, 0x35, 0xbe, 0x73, 0x53, 0xad, 0x3d,
  0xe7, 0x01, 0x81, 0x3d, 0x85, 0x3f, 0xad, 0x3c, 0xbb, 0x02, 0x86, 0x3e,
  0x78, 0x7c, 0x50, 0x3e, 0xe4, 0x91, 0x06, 0x3e, 0x72, 0x4f, 0xc7, 0x3d,
  0x4d, 0x1f, 0xa4, 0xbd, 0x81, 0x5c, 0x45, 0xbe, 0xc0, 0x7a, 0x9d, 0x3d,
  0x42, 0xd4, 0xb8, 0x3e, 0x85, 0x0a, 0xb4, 0x3d, 0x93, 0xf9, 0xe2, 0x3c,
  0x36, 0xdc, 0xc6, 0xbc, 0xb2, 0x1d, 0xca, 0xbd, 0x54, 0x15, 0x1e, 0xbd,
  0x52, 0xfa, 0x66, 0x3d, 0x84, 0x18, 0xf3, 0x3d, 0x01, 0x40, 0x0a, 0x3e,
  0x6d, 0xe4, 0x98, 0x3e, 0xe4, 0xcd, 0xc3, 0x3c, 0xeb, 0x13, 0xf4, 0xbc,
  0x5f, 0x86, 0xfa, 0x3d, 0x9c, 0x48, 0x53, 0xbd, 0x50, 0x72, 0xcf, 0xbd,
  0x2c, 0x6c, 0x5a, 0xba, 0xdb, 0x91, 0x7d, 0x3e, 0x34, 0x83, 0x83, 0x3e,
  0x35, 0xeb, 0x09, 0xbd, 0x49, 0x60, 0x07, 0xbe, 0x12, 0x49, 0x27, 0xbd,
  0x4c, 0x55, 0xe9, 0x3d, 0x0e, 0x60, 0x7a, 0x3d, 0x38, 0x00, 0x2c, 0x3d,
  0x67, 0x99, 0x9f, 0xbc, 0x5c, 0x06, 0x67, 0x3e, 0x9b, 0x44, 0xe8, 0x3d,
  0x7f, 0x23, 0x93, 0x3d, 0xb3, 0x0c, 0x05, 0xbd, 0x29, 0x7d, 0xb4, 0xbb,
  0xe9, 0x81, 0x56, 0x3d, 0x1e, 0xc9, 0x9d, 0x3c, 0x9a, 0xc0, 0x59, 0x3c,
  0xb6, 0x74, 0x5c, 0x3e, 0xbb, 0xb6, 0x81, 0x3d, 0x8d, 0xea, 0x22, 0xbe,
  0x08, 0xf1, 0x46, 0xbe, 0x05, 0x80, 0x24, 0xbe, 0x88, 0x20, 0x1a, 0xbc,
  0x3e, 0xc0, 0xaa, 0xbd, 0x99, 0x36, 0xad, 0xbd, 0x6f, 0x94, 0x34, 0x3e,
  0x2b, 0xc2, 0xfc, 0xbd, 0x59, 0x49, 0x80, 0xbd, 0xe8, 0x05, 0x86, 0x3d,
  0x7b, 0xd4, 0xa6, 0xbd, 0x1d, 0xa6, 0x85, 0x3c, 0x11, 0x5e, 0xff, 0x3c,
  0xa9, 0x5f, 0x29, 0x3e, 0x82, 0x66, 0x13, 0x3e, 0x7e, 0xa4, 0x7e, 0xbb,
  0xb0, 0xf1, 0xdc, 0xbd, 0x9e, 0x32, 0x25, 0x3d, 0xfb, 0xb7, 0x5f, 0x3d,
  0x6f, 0x87, 0x86, 0xbd, 0xee, 0x05, 0x00, 0x3d, 0xe7, 0xcf, 0xa8, 0xbc,
  0x40, 0x2b, 0x16, 0xbe, 0xa4, 0x12, 0x1f, 0xbe, 0xff, 0x5b, 0x88, 0xbd,
  0xde, 0x48, 0x2b, 0x3d, 0xae, 0x3c, 0x8e, 0xbe, 0x3b, 0x4b, 0xbe, 0xbd,
  0x61, 0xf9, 0xfa, 0xbd, 0xf8, 0x98, 0x09, 0x3f, 0x02, 0x4f, 0xe3, 0x3e,
  0x2e, 0x35, 0x21, 0xbd, 0x44, 0x9b, 0xd4, 0xbd, 0xb1, 0xb5, 0x89, 0xba,
  0xa2, 0x08, 0x42, 0xbd, 0x0f, 0x95, 0x2a, 0xbe, 0x9b, 0x55, 0xba, 0xbe,
  0xcc, 0x66, 0x84, 0xbd, 0x2e, 0x8e, 0xc2, 0x3d, 0x2f, 0x07, 0x84, 0x3e,
  0x00, 0xc8, 0x20, 0x3e, 0xd4, 0xc3, 0x4b, 0xbe, 0x8b, 0x03, 0xe9, 0xbc,
  0x32, 0xb5, 0x01, 0xbe, 0xb4, 0xf7, 0x17, 0xbe, 0x92, 0x51, 0x98, 0x3d,
  0xbf, 0x51, 0xad, 0x3e, 0xb7, 0xbc, 0x22, 0xbe, 0xf1, 0xa7, 0x38, 0xbe,
  0x0c, 0x56, 0xfe, 0xbc, 0x76, 0x0f, 0x3c, 0xbe, 0x81, 0xf0, 0x3c, 0xbe,
  0x81, 0xad, 0x8a, 0xbe, 0xc6, 0x65, 0x0a, 0x3e, 0xe4, 0x83, 0x76, 0xbe,
  0x3c, 0x7e, 0x30, 0x3e, 0x31, 0x12, 0x66, 0x3e, 0xf1, 0xd6, 0x98, 0xbe,
  0x6a, 0xf3, 0x47, 0xbe, 0x48, 0xf8, 0x66, 0xbd, 0xc4, 0x39, 0x61, 0xbd,
  0x88, 0x23, 0xed, 0x3d, 0x8b, 0x38, 0x68, 0xbe, 0xb5, 0xb8, 0xad, 0xbd,
  0x6f, 0xcf, 0x9f, 0x3d, 0xb9, 0x69, 0xdc, 0x3c, 0x55, 0xed, 0x22, 0xbe,
  0x5b, 0x1c, 0x77, 0xbd, 0xde, 0x1a, 0xe6, 0x38, 0x73, 0xb6, 0x50, 0xbe,
  0x66, 0xad, 0x61, 0xbe, 0xe9, 0x0f, 0x17, 0xbe, 0xc9, 0xe8, 0x0f, 0xbe,
  0x4f, 0x7c, 0x19, 0xbc, 0xd8, 0x9e, 0xf4, 0x3c, 0xe2, 0xab, 0x34, 0xbd,
  0x92, 0xfb, 0x5b, 0xbe, 0x3e, 0x7a, 0xda, 0x3c, 0x96, 0x4c, 0x00, 0xbe,
  0x7f, 0x26, 0x19, 0xbe, 0x7a, 0xaf, 0xbb, 0xbd, 0x96, 0xcd, 0x05, 0xbe,
  0x50, 0xee, 0x83, 0xbd, 0xc9, 0x49, 0xc2, 0xbd, 0x77, 0xcd, 0x1b, 0xbe,
  0x45, 0x48, 0xf2, 0xbd, 0xad, 0xc8, 0x2a, 0xbe, 0xc4, 0x29, 0x2c, 0x3d,
  0x73, 0xc7, 0x96, 0xbd, 0xca, 0xfb, 0xe3, 0xbd, 0x22, 0x72, 0x13, 0x3b,
  0x9e, 0x48, 0xc3, 0xbd, 0x4b, 0xb8, 0x92, 0xbc, 0x8f, 0xdd, 0x66, 0xbd,
  0x2e, 0x3f, 0x5f, 0xbe, 0x34, 0xc2, 0x03, 0xbe, 0xf0, 0x82, 0x39, 0xbe,
  0xd4, 0xfc, 0xd5, 0x3c, 0xff, 0x6a, 0x95, 0x3d, 0xb1, 0x7a, 0xc2, 0xbd,
  0xaf, 0xa2, 0x2a, 0xbe, 0x72, 0x35, 0x64, 0x3e, 0xee, 0x4f, 0x42, 0xbe,
  0x66, 0x26, 0x8c, 0x3e, 0x58, 0xf4, 0x24, 0x3e, 0x4d, 0x37, 0xf7, 0xbd,
  0xad, 0xf5, 0x0c, 0xbd, 0x61, 0x60, 0xa1, 0x3d, 0xfd, 0xe6, 0xdf, 0xbe,
  0xd6, 0x2e, 0x9c, 0x3d, 0x75, 0xdb, 0x24, 0x3d, 0x41, 0xe5, 0x91, 0x3d,
  0x4c, 0x05, 0x06, 0xbd, 0xec, 0x87, 0x68, 0x3d, 0x96, 0xde, 0x7a, 0xbd,
  0x58, 0x25, 0xe2, 0xbd, 0xe8, 0xb6, 0x0e, 0xbe, 0x45, 0x61, 0x30, 0x3e,
  0xec, 0x13, 0xc6, 0x3e, 0xa4, 0x9d, 0x3e, 0x3e, 0xd1, 0x9c, 0x70, 0x3e,
  0x14, 0x3d, 0xc9, 0x3c, 0xdb, 0x59, 0x7f, 0xbd, 0x28, 0x36, 0xc6, 0x3c,
  0x80, 0x87, 0xe1, 0xbe, 0x59, 0xf0, 0x0a, 0x3e, 0xc1, 0x76, 0x36, 0xbd,
  0xd6, 0x58, 0x9c, 0xbd, 0x2f, 0x52, 0x27, 0xbd, 0x68, 0x65, 0xd8, 0x3d,
  0x1b, 0x94, 0x60, 0x3d, 0xee, 0x16, 0x79, 0xbd, 0x7e, 0xc3, 0x25, 0xbd,
  0x62, 0x68, 0x74, 0x3d, 0x15, 0x74, 0x34, 0x3e, 0x44, 0x33, 0x73, 0x3e,
  0xf0, 0xab, 0x7e, 0x3b, 0x2a, 0xdd, 0x4c, 0xbe, 0x89, 0x49, 0x66, 0x3d,
  0x01, 0x26, 0xa5, 0x3e, 0xc5, 0x91, 0xad, 0x3c, 0x49, 0xba, 0x29, 0x3d,
  0x53, 0x9c, 0xb0, 0x3c, 0x4b, 0x56, 0x6f, 0x3e, 0x44, 0xac, 0xdd, 0xbd,
  0xae, 0x61, 0x2a, 0xbd, 0x45, 0x9d, 0x57, 0x3e, 0x16, 0x97, 0xad, 0xbd,
  0x98, 0x5e, 0xc1, 0xbc, 0x5c, 0x0a, 0x1b, 0x3e, 0x01, 0x04, 0x00, 0x3f,
  0x46, 0x63, 0xd8, 0x3e, 0x1b, 0x00, 0x0c, 0x3e, 0x3d, 0x24, 0x06, 0xbd,
  0x2c, 0xdc, 0xf5, 0x3d, 0x11, 0xe6, 0x52, 0xbe, 0x58, 0x42, 0x00, 0xbd,
  0xfd, 0x29, 0xaa, 0x3d, 0xd5, 0x69, 0x05, 0x3e, 0xd2, 0xcb, 0x66, 0x3d,
  0xf6, 0x10, 0xce, 0xbd, 0x23, 0x0e, 0x29, 0x3e, 0xa0, 0x53, 0x5e, 0xbd,
  0x8d, 0xd7, 0x1c, 0xbc, 0x27, 0xc4, 0x73, 0xbe, 0x62, 0x18, 0x97, 0x3e,
  0x88, 0xac, 0x41, 0x3d, 0x45, 0x04, 0x32, 0x3d, 0xcb, 0x06, 0x8c, 0x3e,
  0xd7, 0x5a, 0xd3, 0xbd, 0x27, 0x40, 0xf7, 0xbd, 0x48, 0xaa, 0xe2, 0xbc,
  0x7a, 0x8f, 0xbe, 0xbd, 0xf6, 0xaf, 0xaa, 0x3c, 0xf1, 0x8c, 0xc0, 0x3d,
  0xa6, 0xef, 0x28, 0xbc, 0x0d, 0x64, 0x49, 0x3c, 0x5a, 0x3c, 0x4f, 0x3e,
  0x2a, 0x3f, 0xb7, 0xbd, 0x47, 0x56, 0x81, 0x3d, 0x5d, 0xb1, 0x9a, 0xbe,
  0x33, 0x33, 0x98, 0xbe, 0x7e, 0xdc, 0x0c, 0xbe, 0x39, 0x29, 0x2a, 0x3e,
  0x13, 0x80, 0x5c, 0xbd, 0x87, 0x82, 0x49, 0xbd, 0xbe, 0x65, 0x45, 0xbf,
  0x98, 0xe1, 0x2a, 0x3d, 0x90, 0xdc, 0x33, 0xbd, 0x89, 0xde, 0x8f, 0xbd,
  0x84, 0x1f, 0x3b, 0xbb, 0x5e, 0x8d, 0xb3, 0xbd, 0x6c, 0x79, 0xad, 0xbc,
  0xcc, 0x10, 0x95, 0x3d, 0x10, 0xf2, 0x1f, 0x3d, 0xbb, 0x86, 0xb2, 0x3b,
  0xea, 0x3a, 0x78, 0xbd, 0xa5, 0x9f, 0x66, 0xbc, 0xe6, 0xea, 0x41, 0xbe,
  0x11, 0xd8, 0xca, 0x3d, 0x76, 0x71, 0xb3, 0xbd, 0xff, 0xcb, 0xad, 0xbd,
  0x8f, 0x05, 0xeb, 0xbe, 0x58, 0x07, 0x19, 0xbe, 0xac, 0xfb, 0x39, 0xbe,
  0x1b, 0x1d, 0x3c, 0xbd, 0x5e, 0xd7, 0xde, 0x3b, 0x22, 0xf6, 0x38, 0xbe,
  0xe1, 0xdc, 0xe4, 0xbd, 0xcd, 0xb7, 0xf6, 0xbd, 0x45, 0xb2, 0x0f, 0xbe,
  0xa1, 0x76, 0x16, 0xbd, 0x86, 0x3d, 0xc7, 0xbd, 0xf0, 0x86, 0xea, 0x3d,
  0x48, 0x15, 0x65, 0xbe, 0xf5, 0x6d, 0x36, 0x3e, 0xc9, 0x4d, 0x24, 0x3e,
  0xf0, 0xcd, 0xdc, 0xbd, 0x80, 0xec, 0x87, 0xbe, 0x1f, 0x8d, 0x10, 0xbe,
  0x51, 0xac, 0xc9, 0xbd, 0x4a, 0x90, 0xbc, 0xbd, 0xa4, 0x6a, 0x8f, 0xbd,
  0xda, 0xcf, 0x10, 0xbe, 0x9d, 0xa5, 0x8a, 0xbd, 0x89, 0xef, 0xf4, 0xbd,
  0x91, 0xb8, 0xcf, 0x3d, 0x21, 0x9b, 0xbe, 0x3b, 0x8d, 0x7a, 0xe7, 0xbc,
  0xdb, 0x4d, 0x47, 0x3d, 0x71, 0xc7, 0xeb, 0x3d, 0x7a, 0x27, 0x34, 0xbd,
  0x53, 0x8e, 0xaf, 0x3d, 0xc7, 0x75, 0x9a, 0xbd, 0x59, 0x71, 0x7f, 0xbe,
  0x64, 0xa3, 0x62, 0xbe, 0x8e, 0x85, 0x28, 0xbe, 0x9b, 0xce, 0x66, 0x3e,
  0x55, 0xfa, 0x17, 0x3d, 0x85, 0x71, 0x83, 0x3e, 0x74, 0x8c, 0x15, 0xbd,
  0xc6, 0x10, 0xae, 0x3d, 0xb7, 0xa8, 0xd1, 0xbc, 0xa7, 0x40, 0x3b, 0xbd,
  0x85, 0xb0, 0x49, 0xbd, 0x57, 0xcc, 0x50, 0xbe, 0xb0, 0x7a, 0x67, 0x3c,
  0x19, 0xd4, 0x9d, 0x3e, 0x0d, 0xc4, 0x22, 0x3e, 0x63, 0x0b, 0x0e, 0x3d,
  0xcf, 0x67, 0x01, 0xbe, 0x41, 0x81, 0x93, 0x3d, 0xa4, 0x2a, 0x46, 0xbc,
  0xef, 0x64, 0x58, 0xbd, 0xf6, 0x24, 0x23, 0xbe, 0xe2, 0xa2, 0x90, 0xbe,
  0x4e, 0x73, 0x17, 0x3e, 0x90, 0x02, 0x0b, 0x3e, 0xd7, 0x41, 0x2e, 0xbe,
  0x87, 0x63, 0x27, 0xbb, 0x2c, 0x9e, 0x64, 0x3d, 0x46, 0xea, 0x95, 0xbe,
  0xbf, 0x43, 0x7d, 0xbc, 0xeb, 0x29, 0x94, 0xbe, 0x57, 0x0a, 0x95, 0xbe,
  0xca, 0x5f, 0xbb, 0xbd, 0x2a, 0x4c, 0x07, 0xbe, 0x1f, 0xac, 0xdd, 0xbe,
  0x0b, 0x6c, 0x57, 0x3e, 0xd2, 0xe9, 0x2c, 0x3d, 0x16, 0x33, 0xab, 0x3e,
  0x90, 0x6d, 0x3a, 0xbe, 0xb3, 0x9e, 0xe2, 0x3d, 0xfa, 0x70, 0x8b, 0x3d,
  0xdf, 0xe3, 0xb8, 0xbd, 0x13, 0xcf, 0x8c, 0x3d, 0x1e, 0xa2, 0x24, 0x3e,
  0x9e, 0x7f, 0xe1, 0x39, 0x80, 0xad, 0x2c, 0x3f, 0x3d, 0x41, 0xc2, 0x3d,
  0x6f, 0x39, 0x7d, 0xbd, 0xe5, 0x09, 0x2b, 0xbe, 0x43, 0x82, 0x5d, 0x3e,
  0xed, 0x32, 0xcd, 0xbe, 0x5f, 0xa1, 0xa9, 0x3d, 0x31, 0xf5, 0x9d, 0x3e,
  0x91, 0xde, 0x91, 0x3e, 0xb8, 0xab, 0x84, 0xbd, 0x80, 0x07, 0x1e, 0x3e,
  0xf9, 0x2a, 0x2d, 0x3e, 0x2d, 0x97, 0xf8, 0x3d, 0x96, 0x3f, 0x0e, 0xbe,
  0x49, 0x9a, 0xa1, 0xbd, 0x65, 0x10, 0xbb, 0x3e, 0xed, 0x3f, 0xf5, 0x3e,
  0x3f, 0x1f, 0xf8, 0x3d, 0xb0, 0xdf, 0xad, 0x3d, 0x08, 0xac, 0xe5, 0x3b,
  0xbd, 0x31, 0x12, 0x3f, 0x8a, 0x44, 0x85, 0xbe, 0xdc, 0xce, 0x08, 0x3f,
  0x18, 0x8b, 0x73, 0x3e, 0xee, 0x3b, 0x6b, 0x3e, 0xb1, 0x42, 0x4e, 0x3d,
  0x92, 0x8f, 0x08, 0x3e, 0x7f, 0xde, 0x23, 0x3e, 0x29, 0xe0, 0x44, 0xbd,
  0x66, 0x04, 0x2e, 0xbd, 0x8a, 0xea, 0x3b, 0xbd, 0x3e, 0xfd, 0xab, 0xb9,
  0xdb, 0xad, 0xe5, 0x3e, 0x20, 0xed, 0xb9, 0x3e, 0x45, 0x1b, 0x37, 0x3e,
  0xde, 0xa2, 0xd8, 0xbd, 0x32, 0xcc, 0x04, 0x3f, 0xff, 0xb6, 0xc9, 0xbe,
  0x32, 0xed, 0x9b, 0x3d, 0xab, 0xd3, 0x8f, 0x3e, 0x67, 0xce, 0x88, 0x3e,
  0x51, 0xdc, 0x75, 0xbe, 0x3d, 0xf1, 0xc0, 0x3d, 0xca, 0x08, 0xc3, 0xbd,
  0x64, 0x38, 0x33, 0xbe, 0xe3, 0x3d, 0x24, 0x3d, 0x79, 0xbc, 0x1b, 0x3e,
  0x2c, 0x7a, 0x84, 0xbd, 0x0e, 0xf1, 0xf6, 0x3e, 0x65, 0x54, 0x3a, 0xbd,
  0x6d, 0xea, 0xb7, 0xbd, 0x9b, 0x5e, 0x93, 0x3c, 0x4e, 0xe5, 0xc9, 0xbc,
  0x65, 0xac, 0x84, 0xbe, 0x45, 0x08, 0xfd, 0x3e, 0x01, 0x4a, 0x4a, 0x3c,
  0x1f, 0xf2, 0xe8, 0x3e, 0x4e, 0x90, 0x72, 0xbe, 0xb8, 0x24, 0x89, 0x3d,
  0x79, 0x90, 0xc8, 0xbd, 0xb4, 0xb5, 0xd9, 0x3c, 0x59, 0xe5, 0xaa, 0x3d,
  0xef, 0xbd, 0x3b, 0x3d, 0xb3, 0xf4, 0x61, 0xbe, 0x2a, 0x6b, 0x46, 0xbc,
  0xf8, 0x32, 0x27, 0xbe, 0x97, 0x75, 0x27, 0xbe, 0x5b, 0xf3, 0x3a, 0xbd,
  0xce, 0x4b, 0x21, 0x3c, 0x3a, 0x54, 0xab, 0xbe, 0xd9, 0xf3, 0xe3, 0x3e,
  0x0f, 0x12, 0x11, 0x3e, 0x09, 0xf2, 0xf6, 0xbd, 0xf0, 0x14, 0xdd, 0xbe,
  0x94, 0xe9, 0x90, 0x3c, 0xa1, 0x52, 0xfe, 0xbc, 0xfe, 0x78, 0xc8, 0xbb,
  0x1b, 0x58, 0xb0, 0x3d, 0x4b, 0xdb, 0x04, 0x3e, 0x77, 0x01, 0xb9, 0xbd,
  0x77, 0x0d, 0x9c, 0xbd, 0xa3, 0x27, 0xa9, 0xbe, 0xe6, 0xf9, 0x41, 0xbe,
  0x98, 0x50, 0x91, 0xbd, 0xf6, 0x73, 0xc5, 0x3c, 0x2e, 0xc0, 0x82, 0xbe,
  0x8e, 0x41, 0x91, 0xba, 0x54, 0x64, 0x21, 0x3e, 0xb8, 0x83, 0x15, 0x3d,
  0xa7, 0xdb, 0x60, 0xbe, 0xa3, 0xb3, 0x05, 0x3c, 0xfa, 0x89, 0xb7, 0xbd,
  0x1b, 0x4b, 0xb8, 0xbd, 0x3d, 0xf7, 0x1c, 0xbe, 0x90, 0x02, 0x8a, 0xbe,
  0xc8, 0x43, 0x66, 0xbe, 0xf0, 0xe4, 0x80, 0x3e, 0xf9, 0x61, 0x5a, 0x3c,
  0x7a, 0x4f, 0xba, 0xbd, 0xcf, 0xc4, 0x97, 0xbd, 0x2f, 0xc5, 0x55, 0xbe,
  0xdc, 0x80, 0xad, 0xbe, 0x9b, 0x8e, 0xac, 0xbb, 0x02, 0xb4, 0x16, 0xbb,
  0xf7, 0xe9, 0x78, 0x3f, 0x1f, 0xeb, 0x8c, 0xbe, 0xb1, 0xf9, 0x55, 0x3d,
  0xcc, 0xbb, 0x3f, 0x3d, 0xe2, 0x08, 0xed, 0x3b, 0xe9, 0x59, 0xb2, 0xbd,
  0xf0, 0x16, 0x8c, 0xbe, 0x6d, 0x90, 0x5c, 0x3d, 0x6d, 0x64, 0xaf, 0x3e,
  0x39, 0xf4, 0x08, 0xbe, 0x37, 0x42, 0x39, 0x3e, 0x65, 0x30, 0x8c, 0xbc,
  0x56, 0xa6, 0x26, 0xbe, 0x5d, 0x88, 0x45, 0xbc, 0x69, 0xfc, 0x4b, 0xbe,
  0xd8, 0x27, 0x85, 0x3d, 0x0d, 0xe5, 0x09, 0x3e, 0x64, 0x85, 0xfc, 0xbd,
  0x01, 0x91, 0x4a, 0xbe, 0xb5, 0x1a, 0xd9, 0xbd, 0x5f, 0xb3, 0xb1, 0x3d,
  0xb7, 0x38, 0x0c, 0xbe, 0xe2, 0xf5, 0x1d, 0xbc, 0x2d, 0xb1, 0xf3, 0xbd,
  0xc2, 0xd0, 0x3c, 0x3e, 0x95, 0xe5, 0xb1, 0x3d, 0xbc, 0xef, 0x1b, 0xbe,
  0x15, 0xcc, 0x50, 0xbe, 0x19, 0xb7, 0x59, 0x3d, 0xc0, 0xb6, 0xf4, 0x3d,
  0xd5, 0x5a, 0xf7, 0xbd, 0x25, 0x34, 0xa8, 0xbd, 0x28, 0x6a, 0xa6, 0x3e,
  0x45, 0xdb, 0x94, 0xbe, 0x8e, 0x5c, 0x90, 0x3e, 0x41, 0xb6, 0x4c, 0x3e,
  0x4d, 0xbe, 0xf5, 0x3d, 0x72, 0x88, 0x96, 0xbe, 0x45, 0x4e, 0x07, 0xbe,
  0x7d, 0x71, 0xcb, 0xbc, 0x69, 0xa2, 0xdc, 0x3e, 0x21, 0xba, 0x18, 0x3e,
  0xda, 0x8c, 0xd8, 0x3c, 0xf6, 0x90, 0xe8, 0xbd, 0x44, 0xe6, 0x02, 0xbe,
  0x7f, 0x92, 0x7f, 0xbe, 0x64, 0x50, 0x1a, 0xbe, 0x8c, 0x34, 0x8f, 0xbd,
  0x29, 0x91, 0x06, 0x3e, 0x12, 0x21, 0x89, 0x3d, 0xf5, 0x31, 0x47, 0x3d,
  0x44, 0x75, 0x61, 0x3e, 0xcc, 0xdb, 0x32, 0xbe, 0x04, 0xc3, 0x84, 0x3d,
  0xaa, 0x11, 0x2e, 0xbe, 0xbc, 0x7f, 0x21, 0xbe, 0x02, 0xe7, 0x9a, 0x3e,
  0xf6, 0x8b, 0x8c, 0xbb, 0x08, 0xff, 0x00, 0xbe, 0x7c, 0x52, 0x2f, 0xbe,
  0xe9, 0xf9, 0x69, 0x3d, 0x7b, 0x51, 0x61, 0xbe, 0xbb, 0x9c, 0x26, 0xbe,
  0x88, 0x83, 0x9d, 0x3c, 0x2a, 0x3d, 0xbc, 0x3e, 0xdf, 0x6e, 0xe2, 0xbd,
  0x63, 0xf1, 0x10, 0x3e, 0x09, 0xa1, 0x8a, 0x3c, 0x44, 0x04, 0x57, 0x3d,
  0xfc, 0xb5, 0x65, 0xbe, 0x24, 0x00, 0x2a, 0xbe, 0x53, 0x30, 0x17, 0xbe,
  0xa7, 0x3f, 0xa0, 0x3e, 0xd9, 0xb5, 0x87, 0xbd, 0xda, 0xc0, 0xe8, 0xbb,
  0xa6, 0x8f, 0x85, 0xbe, 0x27, 0x60, 0x3e, 0xbe, 0x8a, 0x2a, 0x78, 0xbe,
  0xc8, 0xea, 0x70, 0xbc, 0xeb, 0x55, 0x95, 0xbd, 0xcc, 0x5f, 0xb7, 0x3d,
  0xf3, 0x41, 0xa2, 0xbd, 0x18, 0x6b, 0x48, 0xbe, 0x71, 0x87, 0x58, 0x3d,
  0x60, 0x07, 0xec, 0x3c, 0x52, 0x0a, 0x93, 0xbe, 0xd7, 0x98, 0x85, 0xbe,
  0xdf, 0x31, 0x32, 0xbe, 0x38, 0x31, 0xd9, 0xbd, 0xa7, 0x18, 0x54, 0xbd,
  0x63, 0x88, 0x41, 0xbc, 0xbf, 0xc1, 0xe4, 0xbd, 0x5f, 0x7d, 0x54, 0xbe,
  0x6b, 0xd5, 0x13, 0xbc, 0x1d, 0x65, 0xaa, 0xbe, 0x72, 0xad, 0x5d, 0xbe,
  0x48, 0x27, 0x32, 0x3e, 0xf8, 0xf6, 0x5a, 0x3e, 0xa1, 0x10, 0xa2, 0xbd,
  0xc6, 0x6d, 0x56, 0xbe, 0xbf, 0x2f, 0x3f, 0x3e, 0x98, 0x03, 0x96, 0xbc,
  0x11, 0xfb, 0xb4, 0xbe, 0x21, 0xbd, 0x68, 0x3e, 0xd7, 0x75, 0x11, 0x3f,
  0xdd, 0x88, 0x8f, 0x3e, 0xf2, 0x9b, 0xa8, 0x3e, 0x37, 0x4c, 0x68, 0xbe,
  0x07, 0xcf, 0x83, 0x3e, 0x63, 0x01, 0x94, 0xbe, 0xa4, 0xcf, 0x24, 0x3d,
  0x8f, 0x81, 0x78, 0x3e, 0xb2, 0x34, 0x4d, 0x3f, 0x1b, 0x65, 0xf5, 0xbd,
  0x78, 0x81, 0x36, 0xbe, 0x18, 0x36, 0xfa, 0xbb, 0x60, 0x1d, 0x4b, 0xbd,
  0xd7, 0xaa, 0xe1, 0xbc, 0xac, 0x17, 0xc2, 0xbe, 0xe0, 0x19, 0x61, 0x3e,
  0x59, 0xc2, 0xac, 0xbc, 0xc4, 0x28, 0x7a, 0xbe, 0x68, 0xca, 0x31, 0x3d,
  0xba, 0xbd, 0x3d, 0xbe, 0x0e, 0x16, 0xff, 0xbd, 0x32, 0xcc, 0xc1, 0xbc,
  0xab, 0xcb, 0xfb, 0xbd, 0x8a, 0x3e, 0x12, 0x3e, 0x9a, 0x39, 0xdc, 0xbd,
  0x32, 0xd6, 0x68, 0x3d, 0x46, 0x30, 0x50, 0xbe, 0xf2, 0x36, 0xad, 0x3d,
  0x99, 0x64, 0x7d, 0xbd, 0x51, 0x53, 0x84, 0x3d, 0xca, 0xef, 0x14, 0xbe,
  0xc8, 0xa2, 0xe2, 0xbd, 0xb3, 0xd5, 0xbd, 0xbe, 0x06, 0x6e, 0xfc, 0xbc,
  0x3f, 0xdd, 0xc9, 0xbd, 0xc0, 0xae, 0xe1, 0xbd, 0xbc, 0xc7, 0xc6, 0xbe,
  0x29, 0xbc, 0xf9, 0xbd, 0x42, 0x44, 0xaf, 0xbe, 0x6d, 0x7f, 0xa7, 0xbb,
  0x21, 0x17, 0xeb, 0x3d, 0x40, 0x4f, 0x39, 0x3c, 0x8b, 0xe3, 0x51, 0xbd,
  0xdc, 0x94, 0xfa, 0x3c, 0xbc, 0xa2, 0x50, 0xbe, 0xf8, 0x9b, 0x76, 0x3c,
  0x9a, 0x4e, 0x22, 0xbd, 0x0c, 0x29, 0x95, 0x3d, 0xae, 0x4a, 0xc6, 0xbd,
  0x47, 0x3e, 0x29, 0x3d, 0x72, 0x42, 0xd0, 0xbd, 0xda, 0x62, 0xfe, 0x3c,
  0x91, 0x00, 0x9e, 0xbe, 0x8a, 0xba, 0x8c, 0xbc, 0x09, 0x21, 0x26, 0xbe,
  0x8e, 0x70, 0x5a, 0x3e, 0xb4, 0xa8, 0x9b, 0x3d, 0xf9, 0x03, 0x9c, 0x3d,
  0xe7, 0x6b, 0x01, 0xbe, 0x4f, 0x8f, 0xd8, 0x3d, 0x7e, 0xfc, 0x00, 0xbe,
  0x55, 0xf5, 0x5f, 0xbc, 0xc1, 0xdf, 0x1a, 0xbe, 0x01, 0x4d, 0xa6, 0x3e,
  0xeb, 0xbd, 0x4a, 0xbe, 0xd3, 0x8d, 0xca, 0x3e, 0xac, 0xbd, 0x04, 0x3e,
  0x18, 0xef, 0x1d, 0x3d, 0xfe, 0x9c, 0x08, 0xbe, 0xa1, 0x5c, 0xe9, 0x3d,
  0x03, 0x8c, 0xb3, 0xbe, 0x10, 0x57, 0x1a, 0xbe, 0xcc, 0xa4, 0x42, 0x3e,
  0x5c, 0x53, 0xbd, 0x3d, 0x19, 0xef, 0x82, 0xbd, 0x57, 0x59, 0x42, 0x3c,
  0x3e, 0x30, 0x35, 0xbe, 0x7a, 0x71, 0xc5, 0xbc, 0x37, 0x0c, 0x60, 0xbe,
  0x54, 0xe2, 0x4c, 0x3e, 0xb1, 0xbe, 0x98, 0x3e, 0xa7, 0x82, 0x79, 0x3e,
  0x7b, 0xce, 0x0c, 0x3e, 0x1a, 0x17, 0x1d, 0xbc, 0x9d, 0x5a, 0x84, 0x3d,
  0xe4, 0x68, 0x11, 0x3e, 0xd4, 0xea, 0xb1, 0xbe, 0x29, 0xfe, 0x48, 0x3e,
  0x7b, 0xad, 0x9d, 0xbe, 0xe1, 0x25, 0xac, 0x3d, 0x62, 0x26, 0xb9, 0xbc,
  0xc4, 0xa4, 0xe5, 0x3d, 0x30, 0x2a, 0xd5, 0x3d, 0x6c, 0x6b, 0x23, 0xbd,
  0x88, 0x2b, 0x8c, 0xbd, 0xcd, 0x9a, 0x9c, 0xbc, 0x96, 0xcf, 0xef, 0x3c,
  0xc4, 0x6b, 0x95, 0xbc, 0x88, 0x49, 0x5b, 0x3d, 0x96, 0x91, 0x2c, 0xbe,
  0x87, 0xfd, 0xbd, 0x3d, 0x86, 0x26, 0x12, 0xbd, 0x8c, 0xc2, 0x95, 0xbc,
  0x5e, 0xca, 0x4c, 0xbe, 0x10, 0x06, 0x6a, 0xbe, 0xea, 0x8d, 0xce, 0x3c,
  0x12, 0x38, 0xe0, 0xbd, 0x3f, 0x91, 0x16, 0x3e, 0x07, 0x7e, 0xa9, 0xbd,
  0x92, 0x1d, 0xc7, 0xbd, 0x5a, 0xa1, 0x30, 0xbe, 0x60, 0xf2, 0x02, 0x3d,
  0x66, 0x77, 0xba, 0x3e, 0xaa, 0x9b, 0x58, 0x3e, 0xb4, 0x30, 0xbb, 0x3e,
  0x3e, 0x54, 0x40, 0xbe, 0xeb, 0x1e, 0x1d, 0x3e, 0x99, 0x10, 0x27, 0x3d,
  0x23, 0x6e, 0x47, 0xbe, 0x1f, 0xbd, 0x22, 0xbe, 0x53, 0xa9, 0xba, 0x3e,
  0x86, 0x36, 0x46, 0xbe, 0x1e, 0x26, 0x10, 0xbd, 0x1e, 0x6a, 0x25, 0xbe,
  0xbf, 0xcf, 0xc2, 0xbd, 0x84, 0xdc, 0x80, 0xbd, 0xb6, 0x52, 0xbc, 0xbe,
  0x72, 0x31, 0x2b, 0xbb, 0xc4, 0x6e, 0x58, 0xbe, 0xd1, 0x2b, 0x7a, 0x3d,
  0x3b, 0xba, 0x8e, 0x3e, 0x83, 0x74, 0x9b, 0xbd, 0xe4, 0x63, 0x20, 0x3e,
  0x4e, 0x71, 0xa9, 0x3d, 0x2f, 0x4d, 0xc9, 0xbd, 0x1c, 0x57, 0xe3, 0x3d,
  0x40, 0x5b, 0x1a, 0xbe, 0x34, 0xe1, 0x06, 0x3e, 0x4b, 0x51, 0x23, 0x3d,
  0xec, 0x5b, 0x0a, 0x3e, 0xaa, 0xae, 0xde, 0xbd, 0x52, 0xfa, 0xcb, 0xbd,
  0xbf, 0x10, 0xe8, 0x3c, 0x8c, 0xee, 0x28, 0xbc, 0x4e, 0xb4, 0x94, 0xbc,
  0xcf, 0x02, 0xf6, 0xbc, 0x38, 0xff, 0x07, 0xbe, 0x2a, 0x80, 0x10, 0xbe,
  0x6a, 0x4f, 0x63, 0xbe, 0x6b, 0xdd, 0x4e, 0xbe, 0x95, 0x4a, 0xb5, 0x3d,
  0x86, 0xf5, 0xe3, 0x3d, 0x75, 0xb3, 0x8c, 0xbe, 0xf8, 0xb4, 0xc9, 0x3d,
  0xda, 0x9d, 0x4c, 0x3d, 0xfc, 0xa9, 0x2d, 0x3e, 0x5b, 0x58, 0x0b, 0xbe,
  0x18, 0x67, 0xe2, 0xbd, 0x5c, 0xfc, 0x9f, 0xbd, 0x5f, 0x66, 0xbc, 0xbd,
  0xe3, 0xa0, 0x42, 0xbe, 0x79, 0xaf, 0x3c, 0xbe, 0xf6, 0x58, 0x98, 0xbd,
  0xa5, 0xa2, 0x0f, 0x3c, 0x24, 0x75, 0x93, 0xbe, 0x85, 0xcb, 0x13, 0xbd,
  0x91, 0xca, 0xe2, 0x3c, 0xa1, 0x6d, 0xac, 0xbd, 0xf9, 0x84, 0xf8, 0xbd,
  0x0a, 0x4b, 0x26, 0xbd, 0x31, 0xa5, 0x3f, 0xbe, 0x4e, 0xc7, 0xbf, 0x3b,
  0xa8, 0x51, 0x8b, 0x3d, 0xb6, 0xc6, 0xea, 0xbd, 0x4a, 0xae, 0x34, 0xbe,
  0x58, 0x5c, 0x2d, 0x3e, 0x27, 0xe5, 0x71, 0xbe, 0x06, 0x4d, 0xad, 0x3d,
  0xe4, 0x43, 0x1f, 0xbe, 0x26, 0xdd, 0x21, 0x3d, 0xf9, 0x01, 0x22, 0xbe,
  0xa2, 0xc5, 0x21, 0x3e, 0x40, 0x6b, 0x1c, 0xbf, 0xec, 0xf5, 0x9f, 0xbd,
  0xad, 0x00, 0xf2, 0x3c, 0x55, 0x1a, 0xea, 0x3c, 0xaa, 0xc4, 0x85, 0x3d,
  0xe6, 0x4c, 0xac, 0x3d, 0x75, 0xb4, 0x0c, 0x3c, 0x9d, 0x0e, 0x35, 0xbe,
  0xc1, 0xae, 0x5f, 0xbe, 0x6c, 0xc6, 0x9f, 0x3d, 0xc7, 0x96, 0x24, 0x3e,
  0x81, 0xff, 0xa1, 0x3e, 0xd7, 0x4d, 0x84, 0x3e, 0x09, 0x28, 0xad, 0xbd,
  0x50, 0x5b, 0x0e, 0x3e, 0xa3, 0x4f, 0x1d, 0x3e, 0x6f, 0x62, 0xd8, 0xbe,
  0xfe, 0xfb, 0x8e, 0x3e, 0x45, 0x22, 0x87, 0xbe, 0x7b, 0xab, 0xa8, 0x3d,
  0x7a, 0xfb, 0x72, 0xbd, 0x70, 0x7d, 0x4f, 0xbe, 0x1f, 0x61, 0xdc, 0xbd,
  0xba, 0x13, 0x9e, 0xbc, 0x7d, 0x64, 0x76, 0xbb, 0x43, 0x5c, 0x3f, 0x3e,
  0xed, 0x98, 0x42, 0x3e, 0x7d, 0xb9, 0x93, 0x3e, 0x63, 0x67, 0xa9, 0x3d,
  0x54, 0x03, 0x6e, 0xbe, 0xca, 0x7e, 0x6a, 0x3d, 0xfa, 0xcb, 0xa3, 0x3e,
  0x32, 0xf7, 0x0b, 0xbd, 0xcf, 0x07, 0xb9, 0x3b, 0x3d, 0xc9, 0xaa, 0xbe,
  0x7e, 0x40, 0xa8, 0x3d, 0xa6, 0xd8, 0xdb, 0xbd, 0x84, 0x23, 0xca, 0xbd,
  0x56, 0x7a, 0xa7, 0xbd, 0x95, 0x13, 0x02, 0xbe, 0xce, 0x36, 0x63, 0xbd,
  0xc9, 0x68, 0x2d, 0xbe, 0x5d, 0x4e, 0x1b, 0xbe, 0x51, 0x86, 0xc8, 0x3e,
  0x83, 0xb8, 0x06, 0xbe, 0x97, 0x15, 0x37, 0x3d, 0xb0, 0x49, 0xc2, 0x3d,
  0x66, 0x26, 0x25, 0xbe, 0x8f, 0x7d, 0x6d, 0xbe, 0xd4, 0x08, 0xb7, 0x3d,
  0x07, 0x98, 0x11, 0x3e, 0x76, 0x75, 0x5d, 0xbc, 0xa1, 0x6c, 0xb6, 0x3d,
  0x21, 0x98, 0xd6, 0xbc, 0xb2, 0x15, 0x0c, 0x3d, 0xf7, 0x03, 0x81, 0xbc,
  0xa8, 0x0e, 0xff, 0xbd, 0xfe, 0xb3, 0xa1, 0x3d, 0x0e, 0xee, 0x7a, 0xbd,
  0x19, 0x48, 0x00, 0xbe, 0xe3, 0x4b, 0x17, 0x3e, 0xef, 0xfa, 0x1d, 0xbe,
  0x10, 0xab, 0x01, 0x3d, 0xa6, 0x25, 0xb6, 0x3d, 0x29, 0x9b, 0x0e, 0x3b,
  0xcb, 0xf2, 0xd9, 0xbc, 0x58, 0x09, 0x40, 0xbd, 0x41, 0x67, 0x16, 0xbd,
  0x86, 0xeb, 0xe1, 0xbd, 0x80, 0xf4, 0x34, 0x3d, 0x49, 0xf4, 0xd3, 0xbd,
  0x13, 0x64, 0x24, 0xbe, 0x7d, 0xde, 0x47, 0xbc, 0xa7, 0x1a, 0x23, 0xbe,
  0xef, 0x22, 0x88, 0x3d, 0x63, 0x28, 0x7a, 0x3d, 0x3f, 0x48, 0x5f, 0x3d,
  0x07, 0x87, 0x50, 0xbe, 0xbb, 0x1e, 0x26, 0xbe, 0x20, 0x2d, 0x62, 0xbe,
  0x58, 0xc7, 0xe4, 0xbc, 0x16, 0xb4, 0x9e, 0xbc, 0x98, 0xed, 0x95, 0xbc,
  0xf9, 0xb1, 0x1b, 0xbe, 0x8c, 0x17, 0x83, 0xbe, 0x94, 0xce, 0xc9, 0xbd,
  0x69, 0x72, 0x2a, 0x3e, 0x73, 0xf6, 0x53, 0xbe, 0xe5, 0x8c, 0x5e, 0xbd,
  0x6c, 0x81, 0x3b, 0xbe, 0xf7, 0xdd, 0xdd, 0xbb, 0x6f, 0x73, 0xd2, 0x3d,
  0xf5, 0x30, 0x42, 0xbe, 0xde, 0x5f, 0xe5, 0x3d, 0x1a, 0x10, 0x0a, 0xbd,
  0xe6, 0xd7, 0xc8, 0xbc, 0xda, 0x68, 0x2a, 0xbe, 0x49, 0xba, 0xe3, 0xbd,
  0x6a, 0xb6, 0xd3, 0xbd, 0x2b, 0x27, 0x76, 0xbe, 0x63, 0x6f, 0xf3, 0xbd,
  0x7e, 0x2b, 0x25, 0x3d, 0x3d, 0x77, 0x03, 0xbb, 0xe3, 0x02, 0x24, 0xbe,
  0xde, 0xd8, 0x12, 0xbe, 0x85, 0x59, 0x9e, 0xbd, 0x52, 0xb8, 0x98, 0xbd,
  0x19, 0xcf, 0x04, 0xbd, 0x61, 0xd7, 0xcc, 0xbd, 0xd5, 0x23, 0x93, 0xbe,
  0xfc, 0xef, 0x23, 0x3b, 0x8e, 0xbf, 0x4b, 0x3d, 0x19, 0x80, 0x04, 0x3d,
  0xd8, 0x06, 0xc4, 0xbb, 0xb4, 0xf5, 0x7f, 0x3d, 0xf9, 0x95, 0x47, 0xbd,
  0x42, 0x09, 0xb0, 0xbd, 0xd1, 0xa0, 0x9c, 0x3d, 0x7c, 0x3a, 0x62, 0xbd,
  0x25, 0x84, 0x8c, 0xbe, 0x12, 0xb7, 0x6f, 0xbe, 0x79, 0x09, 0x14, 0xbe,
  0x23, 0x20, 0x56, 0xbd, 0x58, 0xe4, 0x17, 0xbe, 0x80, 0x2b, 0xf7, 0xbd,
  0x15, 0x33, 0xa2, 0xbd, 0xb3, 0xd7, 0x59, 0xbe, 0xf9, 0x81, 0x83, 0xbe,
  0xa5, 0xab, 0xb1, 0x3d, 0xd6, 0x14, 0x1a, 0x3d, 0xfd, 0xf7, 0x03, 0xbe,
  0x9a, 0xb2, 0x1a, 0xbe, 0x78, 0x4a, 0x9e, 0xbd, 0x4a, 0x44, 0x0c, 0xbe,
  0x55, 0x92, 0x0e, 0xbe, 0xa6, 0x79, 0x46, 0xbe, 0xf8, 0x5f, 0x91, 0xbd,
  0xc0, 0x1a, 0x2c, 0xbe, 0xfc, 0xcb, 0x16, 0xbe, 0x9d, 0xc2, 0xcb, 0xbd,
  0xb8, 0x2b, 0xb8, 0x3d, 0xc9, 0xba, 0x6a, 0xbe, 0xce, 0xe4, 0xda, 0x3c,
  0x2f, 0x9a, 0x16, 0x3c, 0xb2, 0x60, 0xa3, 0xbd, 0x9f, 0xeb, 0x5f, 0x3e,
  0xce, 0xfa, 0x1a, 0xbe, 0x23, 0x1f, 0xb3, 0xbd, 0x81, 0xb3, 0x51, 0x3c,
  0x69, 0xc7, 0xb1, 0x3d, 0xe0, 0xe3, 0xe6, 0xbc, 0x27, 0x38, 0xd7, 0xbb,
  0x13, 0x44, 0x3e, 0xbe, 0x0f, 0x60, 0x7a, 0x3e, 0xab, 0x21, 0xca, 0x3d,
  0x68, 0xb8, 0x1a, 0xbe, 0x9b, 0xc1, 0x84, 0x3e, 0xf6, 0x0f, 0x8f, 0xbe,
  0x3a, 0x59, 0x64, 0xbd, 0x5b, 0x9b, 0x46, 0x3d, 0x5c, 0x17, 0x4b, 0xbd,
  0xe0, 0x4d, 0x81, 0xbd, 0x38, 0x09, 0x8f, 0xbd, 0x35, 0x65, 0xc4, 0x3d,
  0x13, 0xa6, 0x26, 0xbe, 0xdb, 0xf4, 0xbc, 0xbd, 0xb2, 0x25, 0x22, 0x3e,
  0xb4, 0x13, 0x85, 0xbe, 0x03, 0xc2, 0x43, 0xbe, 0x72, 0x9c, 0x1b, 0xbd,
  0x8d, 0x72, 0x8a, 0xbd, 0xe2, 0x0d, 0x69, 0x3c, 0x26, 0xd0, 0xdb, 0xbd,
  0x79, 0xed, 0x9c, 0xbe, 0x92, 0xd9, 0x0e, 0xbd, 0xf5, 0xd9, 0x83, 0xbd,
  0xd6, 0xdd, 0xe5, 0xbd, 0xa9, 0x4f, 0x74, 0xbc, 0x99, 0xb6, 0x5e, 0xbb,
  0xe7, 0xf4, 0xf0, 0x3d, 0x7a, 0xa4, 0x52, 0xbe, 0x02, 0xd7, 0x27, 0xbe,
  0xc7, 0x63, 0xa5, 0xbc, 0xd6, 0x6d, 0x89, 0xbe, 0x3e, 0x18, 0x85, 0x3c,
  0x34, 0x1f, 0x19, 0xbe, 0x53, 0x52, 0x57, 0xbd, 0xa8, 0x98, 0x08, 0x3e,
  0x54, 0x22, 0x1c, 0xbb, 0xc0, 0x64, 0x1c, 0xbe, 0x56, 0xf8, 0x2c, 0xbe,
  0x4b, 0x28, 0x3b, 0x3e, 0x1c, 0x8e, 0xb2, 0x3d, 0xdf, 0x2b, 0x26, 0xbe,
  0xd0, 0xff, 0xb6, 0xbd, 0x35, 0xbd, 0x9f, 0xbd, 0x23, 0x1f, 0x2d, 0xbd,
  0x9b, 0x5d, 0x70, 0xbe, 0xc1, 0xaf, 0x87, 0x3d, 0x0b, 0x6a, 0x0c, 0xbe,
  0xc8, 0xc4, 0xd9, 0xbd, 0x1c, 0x96, 0x8b, 0xbd, 0x1e, 0xba, 0xe6, 0xbd,
  0xc8, 0x9b, 0xc0, 0x3d, 0x14, 0x26, 0xcb, 0x3d, 0x38, 0xde, 0x01, 0xbd,
  0xf0, 0x6d, 0xb6, 0xbd, 0xf1, 0x0a, 0xb6, 0xbd, 0xa9, 0x9e, 0x0e, 0xbe,
  0x7d, 0x77, 0xee, 0xbc, 0x8f, 0xd3, 0x66, 0x3e, 0xd2, 0xcd, 0x26, 0x3e,
  0x79, 0x5d, 0x39, 0xbe, 0x64, 0xc0, 0x5a, 0x3e, 0x19, 0x2b, 0x69, 0xbd,
  0x56, 0xb5, 0xad, 0xbd, 0x5b, 0x77, 0x83, 0xbe, 0xee, 0x73, 0xec, 0x3d,
  0x49, 0x52, 0xe5, 0x3d, 0x84, 0x13, 0x99, 0x3e, 0xae, 0x8b, 0xc4, 0x3e,
  0x40, 0xd8, 0xa8, 0x3b, 0x4b, 0x47, 0x4f, 0x3d, 0x6e, 0x1a, 0xac, 0x3b,
  0xb7, 0x3f, 0xcb, 0xbd, 0x17, 0x1d, 0xf9, 0x3d, 0x09, 0x3d, 0x05, 0x3e,
  0xd2, 0x61, 0x40, 0x3e, 0x14, 0x6e, 0x3f, 0xbe, 0x01, 0x58, 0x54, 0x3e,
  0xe1, 0x0b, 0x0b, 0xbe, 0xe8, 0xcf, 0xc7, 0xbd, 0x57, 0x00, 0x9a, 0xbe,
  0xbb, 0x8d, 0x89, 0x3e, 0x5c, 0x07, 0x22, 0x3e, 0x9b, 0xa7, 0xba, 0x3e,
  0x49, 0xb0, 0x8a, 0x3e, 0x47, 0xb3, 0xb0, 0xbd, 0x1e, 0xb1, 0xc8, 0xbd,
  0xd4, 0xec, 0xc3, 0x3d, 0x6a, 0x48, 0x90, 0x3c, 0x90, 0x6d, 0x44, 0x3e,
  0x00, 0x47, 0x3a, 0xbd, 0x83, 0xaa, 0x80, 0xbe, 0x8f, 0xc1, 0x1d, 0xbd,
  0xd3, 0x8f, 0x2e, 0xbb, 0x5a, 0xd1, 0x92, 0x3d, 0x03, 0xe8, 0xf4, 0x3b,
  0x8e, 0xea, 0xd9, 0xbd, 0x88, 0xda, 0x32, 0x3d, 0x9b, 0x3d, 0x01, 0x3e,
  0x7d, 0x01, 0x87, 0x3c, 0xc2, 0xaf, 0xc4, 0xbd, 0x34, 0x04, 0x70, 0xbe,
  0x2a, 0xa3, 0x77, 0x3c, 0xf1, 0x78, 0xfe, 0x3d, 0x18, 0x47, 0xd9, 0xbd,
  0x62, 0x32, 0xce, 0xbd, 0xd9, 0xc4, 0x92, 0xbe, 0x63, 0x86, 0x7b, 0xbe,
  0x71, 0x89, 0xbc, 0x3d, 0x52, 0x0e, 0x3f, 0x3e, 0x96, 0x7d, 0x8f, 0x3e,
  0x45, 0xae, 0x83, 0x3d, 0x2d, 0x50, 0xd2, 0x3d, 0xd6, 0x9a, 0x9d, 0xbe,
  0x9b, 0xbb, 0xef, 0xbd, 0xff, 0xd2, 0xa9, 0xbe, 0x0c, 0xd4, 0x56, 0xbe,
  0x10, 0xce, 0x73, 0xbe, 0x8d, 0xb1, 0x84, 0xbe, 0x86, 0x17, 0x1b, 0xbf,
  0xfc, 0xd5, 0x4d, 0x3e, 0xc6, 0xdf, 0xf5, 0xbd, 0xb0, 0xe7, 0x81, 0x3e,
  0x02, 0x8d, 0xa5, 0xbe, 0x57, 0x38, 0x1e, 0x3e, 0x09, 0xe7, 0x16, 0x3e,
  0xcf, 0x81, 0xea, 0xbd, 0x1b, 0x35, 0xd8, 0x3d, 0x70, 0x3e, 0xa6, 0x3e,
  0x66, 0xbe, 0xc3, 0xbd, 0xc2, 0x3e, 0x71, 0x3e, 0xb7, 0xac, 0x45, 0x3d,
  0xf6, 0xf4, 0xba, 0x3d, 0xa7, 0xc5, 0xc7, 0x3c, 0x14, 0xd1, 0x11, 0x3e,
  0x1a, 0x79, 0xce, 0xbe, 0xd2, 0xd8, 0x39, 0x3d, 0x2b, 0xbf, 0xbe, 0x3d,
  0x72, 0x92, 0x8b, 0x3e, 0xad, 0x7a, 0xe6, 0xbe, 0xbf, 0xf8, 0x65, 0xbd,
  0x09, 0x80, 0x71, 0x3e, 0xdc, 0x5d, 0xa2, 0x3d, 0xbf, 0x5d, 0x9c, 0xbe,
  0x1a, 0x3b, 0x23, 0xbe, 0x97, 0x37, 0xdb, 0x3d, 0xd5, 0xe0, 0xb6, 0x3e,
  0x72, 0x3e, 0xdc, 0x3e, 0x1d, 0xca, 0x03, 0x3f, 0x98, 0x03, 0x31, 0xbe,
  0x8c, 0x48, 0x09, 0x3f, 0xfb, 0x8f, 0xd2, 0xbb, 0x06, 0x8d, 0x7f, 0x3e,
  0x2e, 0x3d, 0x70, 0x3e, 0xb7, 0x19, 0x08, 0x3d, 0xe5, 0x61, 0xc4, 0xbd,
  0x5c, 0x3b, 0xd1, 0x3d, 0x18, 0xf8, 0xbb, 0x3c, 0x73, 0xee, 0xf2, 0x3d,
  0x36, 0x5c, 0xa5, 0x3d, 0x19, 0x53, 0xa4, 0xbc, 0xbc, 0x93, 0x7f, 0x3d,
  0xe6, 0x05, 0x94, 0x3e, 0x1a, 0x6f, 0x06, 0x3d, 0x5a, 0xf4, 0x16, 0x3e,
  0x18, 0x1f, 0x14, 0xbe, 0x7d, 0xa9, 0x03, 0x3f, 0xb8, 0x1d, 0x62, 0xbe,
  0x5d, 0xb0, 0x20, 0x3e, 0xc1, 0x42, 0xdc, 0xbd, 0xe4, 0x20, 0x01, 0xbe,
  0xb0, 0xac, 0x7a, 0xbe, 0xab, 0x53, 0x83, 0x3e, 0xf4, 0x6a, 0x6d, 0xbd,
  0xbf, 0xc9, 0xf4, 0xbd, 0x9d, 0xaa, 0xa9, 0x3d, 0x59, 0xfb, 0x1b, 0x3e,
  0x42, 0x9b, 0x05, 0xbe, 0xd9, 0xef, 0x9d, 0x3e, 0xe3, 0xdb, 0x85, 0xbd,
  0x07, 0xc2, 0x08, 0x3d, 0x0d, 0x5c, 0xe7, 0xbd, 0xac, 0x2d, 0x8c, 0x3d,
  0xc6, 0xaf, 0x37, 0xbe, 0x63, 0xcb, 0x05, 0x3f, 0x48, 0xbd, 0x0f, 0xbe,
  0x61, 0xac, 0xf5, 0x3d, 0x74, 0x14, 0x8c, 0xbe, 0x11, 0xae, 0xb6, 0x3e,
  0x89, 0xca, 0x8a, 0x3e, 0x2b, 0x13, 0x18, 0xbe, 0xe1, 0x8a, 0x50, 0x3d,
  0xb3, 0xe5, 0xf0, 0x3d, 0xb9, 0x5c, 0x91, 0xbd, 0x00, 0x44, 0xc9, 0x3d,
  0x78, 0x62, 0x87, 0xbe, 0x94, 0xd8, 0x08, 0xbe, 0x52, 0xba, 0xcb, 0xbd,
  0xe9, 0xc1, 0xe6, 0x3d, 0xdb, 0x02, 0xce, 0x3b, 0xcd, 0xf9, 0x1e, 0x3f,
  0x60, 0xea, 0x51, 0x3e, 0x63, 0xfd, 0x18, 0x3e, 0xe4, 0x72, 0xc4, 0xbe,
  0x9a, 0xb9, 0x99, 0xbc, 0xe9, 0x9c, 0x2e, 0x3e, 0xf9, 0x90, 0x69, 0x3c,
  0xcd, 0xa6, 0x0d, 0xbd, 0x8a, 0x1d, 0x2c, 0x3e, 0x86, 0xd1, 0x25, 0x3e,
  0x99, 0xa2, 0x5b, 0xbe, 0x32, 0xdd, 0x53, 0xbe, 0x60, 0xbf, 0x43, 0xbe,
  0xd7, 0x7b, 0xf2, 0xbb, 0x30, 0x6e, 0x10, 0x3d, 0xae, 0x0b, 0x49, 0xbe,
  0x66, 0xc8, 0xbe, 0x3c, 0x1d, 0x98, 0x61, 0x3e, 0x22, 0x82, 0x65, 0x3d,
  0x66, 0xfd, 0xff, 0xff, 0x10, 0x00, 0x00, 0x00, 0x07, 0x00, 0x00, 0x00,
  0x14, 0x00, 0x00, 0x00, 0x2c, 0x00, 0x00, 0x00, 0x02, 0x00, 0x00, 0x00,
  0x10, 0x00, 0x00, 0x00, 0x70, 0x00, 0x00, 0x00, 0x17, 0x00, 0x00, 0x00,
  0x73, 0x65, 0x71, 0x75, 0x65, 0x6e, 0x74, 0x69, 0x61, 0x6c, 0x2f, 0x64,
  0x65, 0x6e, 0x73, 0x65, 0x2f, 0x4d, 0x61, 0x74, 0x4d, 0x75, 0x6c, 0x00,
  0xd0, 0xfc, 0xff, 0xff, 0xda, 0xfd, 0xff, 0xff, 0x04, 0x00, 0x00, 0x00,
  0x08, 0x00, 0x00, 0x00, 0xff, 0xff, 0xff, 0xff, 0x70, 0x00, 0x00, 0x00,
  0x00, 0x00, 0x0e, 0x00, 0x18, 0x00, 0x08, 0x00, 0x07, 0x00, 0x0c, 0x00,
  0x10, 0x00, 0x14, 0x00, 0x0e, 0x00, 0x00, 0x00, 0x00, 0x00, 0x00, 0x02,
  0x10, 0x00, 0x00, 0x00, 0x06, 0x00, 0x00, 0x00, 0x10, 0x00, 0x00, 0x00,
  0x2c, 0x00, 0x00, 0x00, 0x01, 0x00, 0x00, 0x00, 0x02, 0x00, 0x00, 0x00,
  0x18, 0x00, 0x00, 0x00, 0x73, 0x65, 0x71, 0x75, 0x65, 0x6e, 0x74, 0x69,
  0x61, 0x6c, 0x2f, 0x66, 0x6c, 0x61, 0x74, 0x74, 0x65, 0x6e, 0x2f, 0x43,
  0x6f, 0x6e, 0x73, 0x74, 0x00, 0x00, 0x00, 0x00, 0x38, 0xfd, 0xff, 0xff,
  0x42, 0xfe, 0xff, 0xff, 0x04, 0x00, 0x00, 0x00, 0x0c, 0x00, 0x00, 0x00,
  0x1b, 0x3b, 0xaf, 0x3e, 0x9c, 0x18, 0x3b, 0xbf, 0x5a, 0x87, 0xb5, 0xbd,
  0x26, 0xfe, 0xff, 0xff, 0x10, 0x00, 0x00, 0x00, 0x05, 0x00, 0x00, 0x00,
  0x10, 0x00, 0x00, 0x00, 0x44, 0x00, 0x00, 0x00, 0x01, 0x00, 0x00, 0x00,
  0x03, 0x00, 0x00, 0x00, 0x32, 0x00, 0x00, 0x00, 0x73, 0x65, 0x71, 0x75,
  0x65, 0x6e, 0x74, 0x69, 0x61, 0x6c, 0x2f, 0x64, 0x65, 0x6e, 0x73, 0x65,
  0x5f, 0x31, 0x2f, 0x42, 0x69, 0x61, 0x73, 0x41, 0x64, 0x64, 0x2f, 0x52,
  0x65, 0x61, 0x64, 0x56, 0x61, 0x72, 0x69, 0x61, 0x62, 0x6c, 0x65, 0x4f,
  0x70, 0x2f, 0x72, 0x65, 0x73, 0x6f, 0x75, 0x72, 0x63, 0x65, 0x00, 0x00,
  0xa8, 0xfd, 0xff, 0xff, 0xb2, 0xfe, 0xff, 0xff, 0x04, 0x00, 0x00, 0x00,
  0x40, 0x00, 0x00, 0x00, 0x9f, 0xd4, 0x80, 0x3d, 0xb2, 0x5e, 0x30, 0xbe,
  0x8e, 0x68, 0xb5, 0xbe, 0xb6, 0xd8, 0xf4, 0xbe, 0x7a, 0x6c, 0x85, 0x3e,
  0xf4, 0x71, 0xe0, 0x3f, 0xd8, 0xe9, 0xa9, 0xbe, 0x7d, 0x80, 0xc3, 0x3c,
  0x43, 0x0d, 0x9c, 0xbe, 0x87, 0x97, 0x94, 0xbe, 0x25, 0xed, 0x57, 0x40,
  0xb3, 0x02, 0x39, 0xbf, 0x9a, 0x9f, 0x38, 0x3c, 0x2a, 0xd2, 0x8f, 0xbe,
  0x22, 0x14, 0x00, 0xbe, 0xa0, 0x4b, 0xcd, 0xbe, 0xca, 0xfe, 0xff, 0xff,
  0x10, 0x00, 0x00, 0x00, 0x04, 0x00, 0x00, 0x00, 0x10, 0x00, 0x00, 0x00,
  0x44, 0x00, 0x00, 0x00, 0x01, 0x00, 0x00, 0x00, 0x10, 0x00, 0x00, 0x00,
  0x30, 0x00, 0x00, 0x00, 0x73, 0x65, 0x71, 0x75, 0x65, 0x6e, 0x74, 0x69,
  0x61, 0x6c, 0x2f, 0x64, 0x65, 0x6e, 0x73, 0x65, 0x2f, 0x42, 0x69, 0x61,
  0x73, 0x41, 0x64, 0x64, 0x2f, 0x52, 0x65, 0x61, 0x64, 0x56, 0x61, 0x72,
  0x69, 0x61, 0x62, 0x6c, 0x65, 0x4f, 0x70, 0x2f, 0x72, 0x65, 0x73, 0x6f,
  0x75, 0x72, 0x63, 0x65, 0x00, 0x00, 0x00, 0x00, 0x4c, 0xfe, 0xff, 0xff,
  0x56, 0xff, 0xff, 0xff, 0x04, 0x00, 0x00, 0x00, 0x40, 0x00, 0x00, 0x00,
  0xfd, 0xc7, 0x1e, 0xbe, 0xfe, 0xe4, 0xde, 0x3f, 0x73, 0xf9, 0xa5, 0xbe,
  0x51, 0x4f, 0x83, 0xbe, 0x0f, 0x80, 0xa0, 0xbe, 0x12, 0x46, 0x09, 0xbf,
  0x6f, 0x18, 0xa6, 0xbe, 0x04, 0xfe, 0x68, 0x40, 0xd0, 0x6a, 0x92, 0xbd,
  0xae, 0xea, 0x6c, 0xbe, 0x57, 0x63, 0xda, 0xbd, 0xf3, 0x38, 0xc6, 0xbe,
  0x3e, 0xf1, 0xd2, 0xb8, 0xe0, 0x28, 0xf8, 0xbd, 0xf5, 0x71, 0xd4, 0xbd,
  0x34, 0xe5, 0x7c, 0x3f, 0x6e, 0xff, 0xff, 0xff, 0x10, 0x00, 0x00, 0x00,
  0x03, 0x00, 0x00, 0x00, 0x10, 0x00, 0x00, 0x00, 0x48, 0x00, 0x00, 0x00,
  0x01, 0x00, 0x00, 0x00, 0x10, 0x00, 0x00, 0x00, 0x33, 0x00, 0x00, 0x00,
  0x73, 0x65, 0x71, 0x75, 0x65, 0x6e, 0x74, 0x69, 0x61, 0x6c, 0x2f, 0x63,
  0x6f, 0x6e, 0x76, 0x32, 0x64, 0x5f, 0x31, 0x2f, 0x42, 0x69, 0x61, 0x73,
  0x41, 0x64, 0x64, 0x2f, 0x52, 0x65, 0x61, 0x64, 0x56, 0x61, 0x72, 0x69,
  0x61, 0x62, 0x6c, 0x65, 0x4f, 0x70, 0x2f, 0x72, 0x65, 0x73, 0x6f, 0x75,
  0x72, 0x63, 0x65, 0x00, 0x04, 0x00, 0x06, 0x00, 0x04, 0x00, 0x00, 0x00,
  0x00, 0x00, 0x06, 0x00, 0x08, 0x00, 0x04, 0x00, 0x06, 0x00, 0x00, 0x00,
  0x04, 0x00, 0x00, 0x00, 0x20, 0x00, 0x00, 0x00, 0xe0, 0x6d, 0xbd, 0xbf,
  0x02, 0x30, 0x05, 0xbf, 0x56, 0xe4, 0x50, 0xbf, 0x1f, 0x38, 0xa7, 0xbf,
  0x74, 0x13, 0x9f, 0xbf, 0xab, 0xff, 0xbd, 0xbf, 0xf9, 0x8b, 0xac, 0xbf,
  0x39, 0xb6, 0xa9, 0xbf, 0x00, 0x00, 0x0e, 0x00, 0x14, 0x00, 0x04, 0x00,
  0x00, 0x00, 0x08, 0x00, 0x0c, 0x00, 0x10, 0x00, 0x0e, 0x00, 0x00, 0x00,
  0x10, 0x00, 0x00, 0x00, 0x02, 0x00, 0x00, 0x00, 0x10, 0x00, 0x00, 0x00,
  0x44, 0x00, 0x00, 0x00, 0x01, 0x00, 0x00, 0x00, 0x08, 0x00, 0x00, 0x00,
  0x31, 0x00, 0x00, 0x00, 0x73, 0x65, 0x71, 0x75, 0x65, 0x6e, 0x74, 0x69,
  0x61, 0x6c, 0x2f, 0x63, 0x6f, 0x6e, 0x76, 0x32, 0x64, 0x2f, 0x42, 0x69,
  0x61, 0x73, 0x41, 0x64, 0x64, 0x2f, 0x52, 0x65, 0x61, 0x64, 0x56, 0x61,
  0x72, 0x69, 0x61, 0x62, 0x6c, 0x65, 0x4f, 0x70, 0x2f, 0x72, 0x65, 0x73,
  0x6f, 0x75, 0x72, 0x63, 0x65, 0x00, 0x00, 0x00, 0x90, 0xff, 0xff, 0xff,
  0x14, 0x00, 0x18, 0x00, 0x04, 0x00, 0x00, 0x00, 0x08, 0x00, 0x0c, 0x00,
  0x10, 0x00, 0x00, 0x00, 0x00, 0x00, 0x14, 0x00, 0x14, 0x00, 0x00, 0x00,
  0x14, 0x00, 0x00, 0x00, 0x01, 0x00, 0x00, 0x00, 0x20, 0x00, 0x00, 0x00,
  0x44, 0x00, 0x00, 0x00, 0x2c, 0x00, 0x00, 0x00, 0x04, 0x00, 0x00, 0x00,
  0x01, 0x00, 0x00, 0x00, 0x40, 0x00, 0x00, 0x00, 0x03, 0x00, 0x00, 0x00,
  0x01, 0x00, 0x00, 0x00, 0x0c, 0x00, 0x00, 0x00, 0x63, 0x6f, 0x6e, 0x76,
  0x32, 0x64, 0x5f, 0x69, 0x6e, 0x70, 0x75, 0x74, 0x00, 0x00, 0x00, 0x00,
  0x04, 0x00, 0x00, 0x00, 0xff, 0xff, 0xff, 0xff, 0x40, 0x00, 0x00, 0x00,
  0x03, 0x00, 0x00, 0x00, 0x01, 0x00, 0x00, 0x00, 0xfc, 0xff, 0xff, 0xff,
  0x04, 0x00, 0x04, 0x00, 0x04, 0x00, 0x00, 0x00
};

unsigned int model_tflite_len = 13052;// Fill the int in `src/model.cc` here
