#include "magic_wand_model_data.h"

// We need to keep the data array aligned on some architectures.
#ifdef __has_attribute
#define HAVE_ATTRIBUTE(x) __has_attribute(x)
#else
#define HAVE_ATTRIBUTE(x) 0
#endif
#if HAVE_ATTRIBUTE(aligned) || (defined(__GNUC__) && !defined(__clang__))
#define DATA_ALIGN_ATTRIBUTE __attribute__((aligned(4)))
#else
#define DATA_ALIGN_ATTRIBUTE
#endif

// Paste the data of the char array in `src/model.cc` here
const unsigned char g_magic_wand_model_data[] DATA_ALIGN_ATTRIBUTE = {
0x1c, 0x00, 0x00, 0x00, 0x54, 0x46, 0x4c, 0x33, 0x14, 0x00, 0x20, 0x00,
  0x04, 0x00, 0x08, 0x00, 0x0c, 0x00, 0x10, 0x00, 0x14, 0x00, 0x00, 0x00,
  0x18, 0x00, 0x1c, 0x00, 0x14, 0x00, 0x00, 0x00, 0x03, 0x00, 0x00, 0x00,
  0x18, 0x00, 0x00, 0x00, 0x2c, 0x00, 0x00, 0x00, 0xd8, 0x00, 0x00, 0x00,
  0x2c, 0x00, 0x00, 0x00, 0x80, 0x00, 0x00, 0x00, 0x78, 0x00, 0x00, 0x00,
  0x05, 0x00, 0x00, 0x00, 0x28, 0x07, 0x00, 0x00, 0x44, 0x06, 0x00, 0x00,
  0xbc, 0x03, 0x00, 0x00, 0xf8, 0x02, 0x00, 0x00, 0xac, 0x01, 0x00, 0x00,
  0x01, 0x00, 0x00, 0x00, 0xd0, 0x00, 0x00, 0x00, 0x14, 0x00, 0x00, 0x00,
  0xdc, 0x32, 0x00, 0x00, 0xd8, 0x32, 0x00, 0x00, 0xd0, 0x31, 0x00, 0x00,
  0x1c, 0x31, 0x00, 0x00, 0x74, 0x30, 0x00, 0x00, 0xfc, 0x2f, 0x00, 0x00,
  0x90, 0x2f, 0x00, 0x00, 0x40, 0x13, 0x00, 0x00, 0xec, 0x11, 0x00, 0x00,
  0x10, 0x10, 0x00, 0x00, 0xb4, 0x07, 0x00, 0x00, 0xb0, 0x32, 0x00, 0x00,
  0xac, 0x32, 0x00, 0x00, 0xa8, 0x32, 0x00, 0x00, 0xa4, 0x32, 0x00, 0x00,
  0xa0, 0x32, 0x00, 0x00, 0x9c, 0x32, 0x00, 0x00, 0x98, 0x32, 0x00, 0x00,
  0x94, 0x32, 0x00, 0x00, 0x3c, 0x00, 0x00, 0x00, 0x00, 0x00, 0x00, 0x00,
  0x01, 0x00, 0x00, 0x00, 0x0c, 0x00, 0x00, 0x00, 0x08, 0x00, 0x0c, 0x00,
  0x04, 0x00, 0x08, 0x00, 0x08, 0x00, 0x00, 0x00, 0x08, 0x00, 0x00, 0x00,
  0x13, 0x00, 0x00, 0x00, 0x13, 0x00, 0x00, 0x00, 0x6d, 0x69, 0x6e, 0x5f,
  0x72, 0x75, 0x6e, 0x74, 0x69, 0x6d, 0x65, 0x5f, 0x76, 0x65, 0x72, 0x73,
  0x69, 0x6f, 0x6e, 0x00, 0xb6, 0xce, 0xff, 0xff, 0x04, 0x00, 0x00, 0x00,
  0x10, 0x00, 0x00, 0x00, 0x31, 0x2e, 0x35, 0x2e, 0x30, 0x00, 0x00, 0x00,
  0x00, 0x00, 0x00, 0x00, 0x00, 0x00, 0x00, 0x00, 0x0f, 0x00, 0x00, 0x00,
  0x4d, 0x4c, 0x49, 0x52, 0x20, 0x43, 0x6f, 0x6e, 0x76, 0x65, 0x72, 0x74,
  0x65, 0x64, 0x2e, 0x00, 0x00, 0x00, 0x0e, 0x00, 0x18, 0x00, 0x04, 0x00,
  0x08, 0x00, 0x0c, 0x00, 0x10, 0x00, 0x14, 0x00, 0x0e, 0x00, 0x00, 0x00,
  0x14, 0x00, 0x00, 0x00, 0x5c, 0x00, 0x00, 0x00, 0x60, 0x00, 0x00, 0x00,
  0x64, 0x00, 0x00, 0x00, 0x84, 0x00, 0x00, 0x00, 0x12, 0x00, 0x00, 0x00,
  0x9c, 0x31, 0x00, 0x00, 0x2c, 0x31, 0x00, 0x00, 0x88, 0x30, 0x00, 0x00,
  0xe0, 0x2f, 0x00, 0x00, 0x38, 0x2f, 0x00, 0x00, 0xd4, 0x2e, 0x00, 0x00,
  0x6c, 0x2e, 0x00, 0x00, 0x18, 0x12, 0x00, 0x00, 0xbc, 0x10, 0x00, 0x00,
  0xe0, 0x0e, 0x00, 0x00, 0x0c, 0x06, 0x00, 0x00, 0x28, 0x05, 0x00, 0x00,
  0xe8, 0x03, 0x00, 0x00, 0x3c, 0x03, 0x00, 0x00, 0x98, 0x02, 0x00, 0x00,
  0xd4, 0x01, 0x00, 0x00, 0x10, 0x01, 0x00, 0x00, 0x84, 0x00, 0x00, 0x00,
  0x01, 0x00, 0x00, 0x00, 0x00, 0x00, 0x00, 0x00, 0x01, 0x00, 0x00, 0x00,
  0x11, 0x00, 0x00, 0x00, 0x08, 0x00, 0x00, 0x00, 0x74, 0x05, 0x00, 0x00,
  0x94, 0x04, 0x00, 0x00, 0x78, 0x03, 0x00, 0x00, 0xbc, 0x02, 0x00, 0x00,
  0x30, 0x02, 0x00, 0x00, 0x50, 0x01, 0x00, 0x00, 0xa8, 0x00, 0x00, 0x00,
  0x10, 0x00, 0x00, 0x00, 0x04, 0x00, 0x00, 0x00, 0x6d, 0x61, 0x69, 0x6e,
  0x00, 0x00, 0x00, 0x00, 0x7a, 0xff, 0xff, 0xff, 0x00, 0x00, 0x00, 0x09,
  0x04, 0x00, 0x00, 0x00, 0x1c, 0x00, 0x00, 0x00, 0x10, 0x00, 0x00, 0x00,
  0x04, 0x00, 0x00, 0x00, 0xb2, 0xcf, 0xff, 0xff, 0x00, 0x00, 0x80, 0x3f,
  0x01, 0x00, 0x00, 0x00, 0x11, 0x00, 0x00, 0x00, 0x01, 0x00, 0x00, 0x00,
  0x10, 0x00, 0x00, 0x00, 0xa0, 0xfa, 0xff, 0xff, 0x19, 0x00, 0x00, 0x00,
  0x00, 0x00, 0x00, 0x19, 0x01, 0x00, 0x00, 0x00, 0x40, 0xcf, 0xff, 0xff,
  0x14, 0x00, 0x00, 0x00, 0x12, 0x00, 0x00, 0x00, 0x18, 0x00, 0x00, 0x00,
  0x30, 0x00, 0x00, 0x00, 0x20, 0x00, 0x00, 0x00, 0x02, 0x00, 0x00, 0x00,
  0x01, 0x00, 0x00, 0x00, 0x04, 0x00, 0x00, 0x00, 0x08, 0x00, 0x00, 0x00,
  0x49, 0x64, 0x65, 0x6e, 0x74, 0x69, 0x74, 0x79, 0x00, 0x00, 0x00, 0x00,
  0x02, 0x00, 0x00, 0x00, 0xff, 0xff, 0xff, 0xff, 0x04, 0x00, 0x00, 0x00,
  0x24, 0xd0, 0xff, 0xff, 0x00, 0x00, 0x0e, 0x00, 0x18, 0x00, 0x08, 0x00,
  0x0c, 0x00, 0x10, 0x00, 0x07, 0x00, 0x14, 0x00, 0x0e, 0x00, 0x00, 0x00,
  0x00, 0x00, 0x00, 0x08, 0x03, 0x00, 0x00, 0x00, 0x18, 0x00, 0x00, 0x00,
  0x0c, 0x00, 0x00, 0x00, 0x04, 0x00, 0x00, 0x00, 0x40, 0xcf, 0xff, 0xff,
  0x01, 0x00, 0x00, 0x00, 0x10, 0x00, 0x00, 0x00, 0x03, 0x00, 0x00, 0x00,
  0x0f, 0x00, 0x00, 0x00, 0x07, 0x00, 0x00, 0x00, 0x04, 0x00, 0x00, 0x00,
  0xc8, 0xcf, 0xff, 0xff, 0x14, 0x00, 0x00, 0x00, 0x11, 0x00, 0x00, 0x00,
  0x18, 0x00, 0x00, 0x00, 0x5c, 0x00, 0x00, 0x00, 0x4c, 0x00, 0x00, 0x00,
  0x02, 0x00, 0x00, 0x00, 0x01, 0x00, 0x00, 0x00, 0x04, 0x00, 0x00, 0x00,
  0x34, 0x00, 0x00, 0x00, 0x73, 0x65, 0x71, 0x75, 0x65, 0x6e, 0x74, 0x69,
  0x61, 0x6c, 0x2f, 0x64, 0x65, 0x6e, 0x73, 0x65, 0x5f, 0x31, 0x2f, 0x4d,
  0x61, 0x74, 0x4d, 0x75, 0x6c, 0x3b, 0x73, 0x65, 0x71, 0x75, 0x65, 0x6e,
  0x74, 0x69, 0x61, 0x6c, 0x2f, 0x64, 0x65, 0x6e, 0x73, 0x65, 0x5f, 0x31,
  0x2f, 0x42, 0x69, 0x61, 0x73, 0x41, 0x64, 0x64, 0x00, 0x00, 0x00, 0x00,
  0x02, 0x00, 0x00, 0x00, 0xff, 0xff, 0xff, 0xff, 0x04, 0x00, 0x00, 0x00,
  0xc8, 0xcf, 0xff, 0xff, 0xda, 0xfc, 0xff, 0xff, 0x00, 0x00, 0x00, 0x08,
  0x03, 0x00, 0x00, 0x00, 0x24, 0x00, 0x00, 0x00, 0x18, 0x00, 0x00, 0x00,
  0x0c, 0x00, 0x00, 0x00, 0x00, 0x00, 0x06, 0x00, 0x08, 0x00, 0x07, 0x00,
  0x06, 0x00, 0x00, 0x00, 0x00, 0x00, 0x00, 0x01, 0x01, 0x00, 0x00, 0x00,
  0x0f, 0x00, 0x00, 0x00, 0x03, 0x00, 0x00, 0x00, 0x0e, 0x00, 0x00, 0x00,
  0x06, 0x00, 0x00, 0x00, 0x03, 0x00, 0x00, 0x00, 0xe8, 0xfb, 0xff, 0xff,
  0x09, 0x00, 0x00, 0x00, 0x00, 0x00, 0x00, 0x09, 0x01, 0x00, 0x00, 0x00,
  0x88, 0xd0, 0xff, 0xff, 0x14, 0x00, 0x00, 0x00, 0x10, 0x00, 0x00, 0x00,
  0x18, 0x00, 0x00, 0x00, 0x6c, 0x00, 0x00, 0x00, 0x5c, 0x00, 0x00, 0x00,
  0x02, 0x00, 0x00, 0x00, 0x01, 0x00, 0x00, 0x00, 0x10, 0x00, 0x00, 0x00,
  0x46, 0x00, 0x00, 0x00, 0x73, 0x65, 0x71, 0x75, 0x65, 0x6e, 0x74, 0x69,
  0x61, 0x6c, 0x2f, 0x64, 0x65, 0x6e, 0x73, 0x65, 0x2f, 0x4d, 0x61, 0x74,
  0x4d, 0x75, 0x6c, 0x3b, 0x73, 0x65, 0x71, 0x75, 0x65, 0x6e, 0x74, 0x69,
  0x61, 0x6c, 0x2f, 0x64, 0x65, 0x6e, 0x73, 0x65, 0x2f, 0x52, 0x65, 0x6c,
  0x75, 0x3b, 0x73, 0x65, 0x71, 0x75, 0x65, 0x6e, 0x74, 0x69, 0x61, 0x6c,
  0x2f, 0x64, 0x65, 0x6e, 0x73, 0x65, 0x2f, 0x42, 0x69, 0x61, 0x73, 0x41,
  0x64, 0x64, 0x00, 0x00, 0x02, 0x00, 0x00, 0x00, 0xff, 0xff, 0xff, 0xff,
  0x10, 0x00, 0x00, 0x00, 0xa8, 0xd1, 0xff, 0xff, 0x00, 0x00, 0x0a, 0x00,
  0x10, 0x00, 0x04, 0x00, 0x08, 0x00, 0x0c, 0x00, 0x0a, 0x00, 0x00, 0x00,
  0x02, 0x00, 0x00, 0x00, 0x10, 0x00, 0x00, 0x00, 0x04, 0x00, 0x00, 0x00,
  0x01, 0x00, 0x00, 0x00, 0x0e, 0x00, 0x00, 0x00, 0x02, 0x00, 0x00, 0x00,
  0x0d, 0x00, 0x00, 0x00, 0x05, 0x00, 0x00, 0x00, 0xa8, 0xfc, 0xff, 0xff,
  0x16, 0x00, 0x00, 0x00, 0x00, 0x00, 0x00, 0x16, 0x01, 0x00, 0x00, 0x00,
  0x48, 0xd1, 0xff, 0xff, 0x14, 0x00, 0x00, 0x00, 0x0f, 0x00, 0x00, 0x00,
  0x18, 0x00, 0x00, 0x00, 0x40, 0x00, 0x00, 0x00, 0x30, 0x00, 0x00, 0x00,
  0x02, 0x00, 0x00, 0x00, 0x01, 0x00, 0x00, 0x00, 0x70, 0x00, 0x00, 0x00,
  0x1a, 0x00, 0x00, 0x00, 0x73, 0x65, 0x71, 0x75, 0x65, 0x6e, 0x74, 0x69,
  0x61, 0x6c, 0x2f, 0x66, 0x6c, 0x61, 0x74, 0x74, 0x65, 0x6e, 0x2f, 0x52,
  0x65, 0x73, 0x68, 0x61, 0x70, 0x65, 0x00, 0x00, 0x02, 0x00, 0x00, 0x00,
  0xff, 0xff, 0xff, 0xff, 0x70, 0x00, 0x00, 0x00, 0x2c, 0xd1, 0xff, 0xff,
  0x3e, 0xfe, 0xff, 0xff, 0x00, 0x00, 0x00, 0x05, 0x01, 0x00, 0x00, 0x00,
  0x38, 0x00, 0x00, 0x00, 0x2c, 0x00, 0x00, 0x00, 0x14, 0x00, 0x00, 0x00,
  0x00, 0x00, 0x0e, 0x00, 0x14, 0x00, 0x00, 0x00, 0x10, 0x00, 0x0c, 0x00,
  0x08, 0x00, 0x04, 0x00, 0x0e, 0x00, 0x00, 0x00, 0x03, 0x00, 0x00, 0x00,
  0x01, 0x00, 0x00, 0x00, 0x03, 0x00, 0x00, 0x00, 0x01, 0x00, 0x00, 0x00,
  0x01, 0x00, 0x00, 0x00, 0x0d, 0x00, 0x00, 0x00, 0x01, 0x00, 0x00, 0x00,
  0x0c, 0x00, 0x00, 0x00, 0xe8, 0xd1, 0xff, 0xff, 0x14, 0x00, 0x00, 0x00,
  0x0e, 0x00, 0x00, 0x00, 0x20, 0x00, 0x00, 0x00, 0x58, 0x00, 0x00, 0x00,
  0x40, 0x00, 0x00, 0x00, 0x04, 0x00, 0x00, 0x00, 0x01, 0x00, 0x00, 0x00,
  0x07, 0x00, 0x00, 0x00, 0x01, 0x00, 0x00, 0x00, 0x10, 0x00, 0x00, 0x00,
  0x22, 0x00, 0x00, 0x00, 0x73, 0x65, 0x71, 0x75, 0x65, 0x6e, 0x74, 0x69,
  0x61, 0x6c, 0x2f, 0x6d, 0x61, 0x78, 0x5f, 0x70, 0x6f, 0x6f, 0x6c, 0x69,
  0x6e, 0x67, 0x32, 0x64, 0x5f, 0x31, 0x2f, 0x4d, 0x61, 0x78, 0x50, 0x6f,
  0x6f, 0x6c, 0x00, 0x00, 0x04, 0x00, 0x00, 0x00, 0xff, 0xff, 0xff, 0xff,
  0x07, 0x00, 0x00, 0x00, 0x01, 0x00, 0x00, 0x00, 0x10, 0x00, 0x00, 0x00,
  0xe4, 0xd1, 0xff, 0xff, 0x1a, 0xfe, 0xff, 0xff, 0x00, 0x00, 0x00, 0x01,
  0x24, 0x00, 0x00, 0x00, 0x18, 0x00, 0x00, 0x00, 0x04, 0x00, 0x00, 0x00,
  0x0c, 0xfe, 0xff, 0xff, 0x01, 0x00, 0x00, 0x00, 0x01, 0x00, 0x00, 0x00,
  0x00, 0x00, 0x00, 0x01, 0x01, 0x00, 0x00, 0x00, 0x0c, 0x00, 0x00, 0x00,
  0x03, 0x00, 0x00, 0x00, 0x0b, 0x00, 0x00, 0x00, 0x09, 0x00, 0x00, 0x00,
  0x02, 0x00, 0x00, 0x00, 0x90, 0xd2, 0xff, 0xff, 0x14, 0x00, 0x00, 0x00,
  0x0d, 0x00, 0x00, 0x00, 0x20, 0x00, 0x00, 0x00, 0xb8, 0x00, 0x00, 0x00,
  0xa0, 0x00, 0x00, 0x00, 0x04, 0x00, 0x00, 0x00, 0x01, 0x00, 0x00, 0x00,
  0x15, 0x00, 0x00, 0x00, 0x01, 0x00, 0x00, 0x00, 0x10, 0x00, 0x00, 0x00,
  0x83, 0x00, 0x00, 0x00, 0x73, 0x65, 0x71, 0x75, 0x65, 0x6e, 0x74, 0x69,
  0x61, 0x6c, 0x2f, 0x63, 0x6f, 0x6e, 0x76, 0x32, 0x64, 0x5f, 0x31, 0x2f,
  0x52, 0x65, 0x6c, 0x75, 0x3b, 0x73, 0x65, 0x71, 0x75, 0x65, 0x6e, 0x74,
  0x69, 0x61, 0x6c, 0x2f, 0x63, 0x6f, 0x6e, 0x76, 0x32, 0x64, 0x5f, 0x31,
  0x2f, 0x42, 0x69, 0x61, 0x73, 0x41, 0x64, 0x64, 0x3b, 0x73, 0x65, 0x71,
  0x75, 0x65, 0x6e, 0x74, 0x69, 0x61, 0x6c, 0x2f, 0x63, 0x6f, 0x6e, 0x76,
  0x32, 0x64, 0x5f, 0x31, 0x2f, 0x43, 0x6f, 0x6e, 0x76, 0x32, 0x44, 0x3b,
  0x73, 0x65, 0x71, 0x75, 0x65, 0x6e, 0x74, 0x69, 0x61, 0x6c, 0x2f, 0x63,
  0x6f, 0x6e, 0x76, 0x32, 0x64, 0x5f, 0x31, 0x2f, 0x42, 0x69, 0x61, 0x73,
  0x41, 0x64, 0x64, 0x2f, 0x52, 0x65, 0x61, 0x64, 0x56, 0x61, 0x72, 0x69,
  0x61, 0x62, 0x6c, 0x65, 0x4f, 0x70, 0x2f, 0x72, 0x65, 0x73, 0x6f, 0x75,
  0x72, 0x63, 0x65, 0x00, 0x04, 0x00, 0x00, 0x00, 0xff, 0xff, 0xff, 0xff,
  0x15, 0x00, 0x00, 0x00, 0x01, 0x00, 0x00, 0x00, 0x10, 0x00, 0x00, 0x00,
  0xfc, 0xd3, 0xff, 0xff, 0x00, 0x00, 0x0e, 0x00, 0x1a, 0x00, 0x08, 0x00,
  0x0c, 0x00, 0x10, 0x00, 0x07, 0x00, 0x14, 0x00, 0x0e, 0x00, 0x00, 0x00,
  0x00, 0x00, 0x00, 0x05, 0x01, 0x00, 0x00, 0x00, 0x3c, 0x00, 0x00, 0x00,
  0x30, 0x00, 0x00, 0x00, 0x14, 0x00, 0x00, 0x00, 0x00, 0x00, 0x0e, 0x00,
  0x18, 0x00, 0x17, 0x00, 0x10, 0x00, 0x0c, 0x00, 0x08, 0x00, 0x04, 0x00,
  0x0e, 0x00, 0x00, 0x00, 0x03, 0x00, 0x00, 0x00, 0x03, 0x00, 0x00, 0x00,
  0x03, 0x00, 0x00, 0x00, 0x03, 0x00, 0x00, 0x00, 0x00, 0x00, 0x00, 0x01,
  0x01, 0x00, 0x00, 0x00, 0x0b, 0x00, 0x00, 0x00, 0x01, 0x00, 0x00, 0x00,
  0x0a, 0x00, 0x00, 0x00, 0x2c, 0xff, 0xff, 0xff, 0x11, 0x00, 0x00, 0x00,
  0x00, 0x00, 0x00, 0x11, 0x01, 0x00, 0x00, 0x00, 0xcc, 0xd3, 0xff, 0xff,
  0x14, 0x00, 0x00, 0x00, 0x0c, 0x00, 0x00, 0x00, 0x20, 0x00, 0x00, 0x00,
  0x58, 0x00, 0x00, 0x00, 0x40, 0x00, 0x00, 0x00, 0x04, 0x00, 0x00, 0x00,
  0x01, 0x00, 0x00, 0x00, 0x15, 0x00, 0x00, 0x00, 0x01, 0x00, 0x00, 0x00,
  0x08, 0x00, 0x00, 0x00, 0x20, 0x00, 0x00, 0x00, 0x73, 0x65, 0x71, 0x75,
  0x65, 0x6e, 0x74, 0x69, 0x61, 0x6c, 0x2f, 0x6d, 0x61, 0x78, 0x5f, 0x70,
  0x6f, 0x6f, 0x6c, 0x69, 0x6e, 0x67, 0x32, 0x64, 0x2f, 0x4d, 0x61, 0x78,
  0x50, 0x6f, 0x6f, 0x6c, 0x00, 0x00, 0x00, 0x00, 0x04, 0x00, 0x00, 0x00,
  0xff, 0xff, 0xff, 0xff, 0x15, 0x00, 0x00, 0x00, 0x01, 0x00, 0x00, 0x00,
  0x08, 0x00, 0x00, 0x00, 0xd8, 0xd4, 0xff, 0xff, 0x00, 0x00, 0x0e, 0x00,
  0x14, 0x00, 0x00, 0x00, 0x08, 0x00, 0x0c, 0x00, 0x07, 0x00, 0x10, 0x00,
  0x0e, 0x00, 0x00, 0x00, 0x00, 0x00, 0x00, 0x01, 0x30, 0x00, 0x00, 0x00,
  0x24, 0x00, 0x00, 0x00, 0x10, 0x00, 0x00, 0x00, 0x0c, 0x00, 0x10, 0x00,
  0x00, 0x00, 0x04, 0x00, 0x08, 0x00, 0x0f, 0x00, 0x0c, 0x00, 0x00, 0x00,
  0x01, 0x00, 0x00, 0x00, 0x01, 0x00, 0x00, 0x00, 0x00, 0x00, 0x00, 0x01,
  0x01, 0x00, 0x00, 0x00, 0x0a, 0x00, 0x00, 0x00, 0x03, 0x00, 0x00, 0x00,
  0x00, 0x00, 0x00, 0x00, 0x08, 0x00, 0x00, 0x00, 0x01, 0x00, 0x00, 0x00,
  0x0c, 0x00, 0x10, 0x00, 0x0b, 0x00, 0x00, 0x00, 0x0c, 0x00, 0x04, 0x00,
  0x0c, 0x00, 0x00, 0x00, 0x03, 0x00, 0x00, 0x00, 0x00, 0x00, 0x00, 0x03,
  0x01, 0x00, 0x00, 0x00, 0xac, 0xd4, 0xff, 0xff, 0x14, 0x00, 0x00, 0x00,
  0x0b, 0x00, 0x00, 0x00, 0x20, 0x00, 0x00, 0x00, 0xb0, 0x00, 0x00, 0x00,
  0x98, 0x00, 0x00, 0x00, 0x04, 0x00, 0x00, 0x00, 0x01, 0x00, 0x00, 0x00,
  0x40, 0x00, 0x00, 0x00, 0x03, 0x00, 0x00, 0x00, 0x08, 0x00, 0x00, 0x00,
  0x7b, 0x00, 0x00, 0x00, 0x73, 0x65, 0x71, 0x75, 0x65, 0x6e, 0x74, 0x69,
  0x61, 0x6c, 0x2f, 0x63, 0x6f, 0x6e, 0x76, 0x32, 0x64, 0x2f, 0x52, 0x65,
  0x6c, 0x75, 0x3b, 0x73, 0x65, 0x71, 0x75, 0x65, 0x6e, 0x74, 0x69, 0x61,
  0x6c, 0x2f, 0x63, 0x6f, 0x6e, 0x76, 0x32, 0x64, 0x2f, 0x42, 0x69, 0x61,
  0x73, 0x41, 0x64, 0x64, 0x3b, 0x73, 0x65, 0x71, 0x75, 0x65, 0x6e, 0x74,
  0x69, 0x61, 0x6c, 0x2f, 0x63, 0x6f, 0x6e, 0x76, 0x32, 0x64, 0x2f, 0x43,
  0x6f, 0x6e, 0x76, 0x32, 0x44, 0x3b, 0x73, 0x65, 0x71, 0x75, 0x65, 0x6e,
  0x74, 0x69, 0x61, 0x6c, 0x2f, 0x63, 0x6f, 0x6e, 0x76, 0x32, 0x64, 0x2f,
  0x42, 0x69, 0x61, 0x73, 0x41, 0x64, 0x64, 0x2f, 0x52, 0x65, 0x61, 0x64,
  0x56, 0x61, 0x72, 0x69, 0x61, 0x62, 0x6c, 0x65, 0x4f, 0x70, 0x2f, 0x72,
  0x65, 0x73, 0x6f, 0x75, 0x72, 0x63, 0x65, 0x00, 0x04, 0x00, 0x00, 0x00,
  0xff, 0xff, 0xff, 0xff, 0x40, 0x00, 0x00, 0x00, 0x03, 0x00, 0x00, 0x00,
  0x08, 0x00, 0x00, 0x00, 0x00, 0xd5, 0xff, 0xff, 0x0a, 0xd6, 0xff, 0xff,
  0x04, 0x00, 0x00, 0x00, 0x00, 0x08, 0x00, 0x00, 0x77, 0xed, 0x77, 0x3d,
  0x67, 0x33, 0x77, 0xbe, 0x38, 0x3e, 0x8b, 0xbe, 0x2f, 0xcb, 0x97, 0xbe,
  0xf6, 0x03, 0x58, 0xbe, 0xcf, 0x84, 0xbf, 0x3e, 0x45, 0x2f, 0x19, 0x3e,
  0xd0, 0x53, 0xbc, 0xbe, 0xa7, 0x5c, 0x25, 0xbe, 0x54, 0x49, 0x66, 0xbe,
  0x74, 0xf1, 0xc1, 0x3e, 0x7d, 0xe8, 0xb8, 0xbe, 0x44, 0x6e, 0xc5, 0x3c,
  0xa0, 0x0a, 0x42, 0xbe, 0xda, 0xb5, 0x74, 0x3e, 0x7d, 0x58, 0x99, 0xbe,
  0xf0, 0xae, 0x49, 0xbe, 0x5f, 0xd8, 0x54, 0x3a, 0xac, 0xa6, 0xfe, 0xbd,
  0xe7, 0xdf, 0x83, 0xbe, 0xba, 0xbe, 0x81, 0x3e, 0x10, 0xa6, 0x1b, 0xbf,
  0x6b, 0x8c, 0x1e, 0x3e, 0xe7, 0x7e, 0xa7, 0x3d, 0x10, 0xcb, 0xd4, 0xbd,
  0x0c, 0x96, 0xbc, 0xbc, 0x2d, 0x9b, 0x6a, 0x3e, 0x04, 0xff, 0x65, 0x3e,
  0x8f, 0x61, 0xc0, 0xbd, 0xa7, 0xe9, 0xa8, 0xbe, 0xe0, 0x0e, 0x58, 0xbe,
  0x2e, 0xbd, 0xcf, 0x3d, 0x57, 0x1f, 0x94, 0x3d, 0x49, 0xf4, 0xa8, 0xbe,
  0x82, 0xf5, 0x99, 0x3b, 0x24, 0x3f, 0x88, 0x3c, 0x85, 0x38, 0xd9, 0xbe,
  0x66, 0xce, 0xb3, 0xbe, 0x7d, 0x21, 0xec, 0xbd, 0x85, 0xe8, 0x88, 0x3e,
  0x5b, 0x9a, 0x13, 0x3e, 0x69, 0xae, 0xcd, 0xbe, 0x70, 0xae, 0xa1, 0x3e,
  0x88, 0x1b, 0x82, 0xbe, 0x78, 0xa3, 0x2e, 0x3c, 0xf7, 0x3f, 0x2f, 0xbb,
  0x4f, 0x5d, 0xa6, 0x3e, 0xfd, 0x82, 0x72, 0xbe, 0x6b, 0x8d, 0x86, 0xbd,
  0xb2, 0x9d, 0xc3, 0xbe, 0xca, 0x93, 0x14, 0x3c, 0xc2, 0xdd, 0x6f, 0xbe,
  0x08, 0xf0, 0x5f, 0x3d, 0x51, 0xcc, 0x10, 0xbe, 0x38, 0xb2, 0x92, 0x3e,
  0x9b, 0xaf, 0xb3, 0x3e, 0x39, 0x10, 0xcc, 0xbd, 0x90, 0x26, 0x7b, 0xbe,
  0xd5, 0xc6, 0xdf, 0x3e, 0xe2, 0xf7, 0x4c, 0xbe, 0xdc, 0xb1, 0x7d, 0x3e,
  0x71, 0xee, 0x08, 0xbe, 0x4a, 0x65, 0x9e, 0xbd, 0xe6, 0x1e, 0xb5, 0x3e,
  0xe9, 0xaf, 0x78, 0xbd, 0x91, 0x70, 0x3c, 0x3d, 0x32, 0x88, 0x4c, 0xbe,
  0x2d, 0x88, 0xb9, 0x3c, 0x17, 0x5c, 0x3a, 0xbe, 0xc7, 0xce, 0x32, 0xbd,
  0x76, 0x89, 0x34, 0x3e, 0xa7, 0x2b, 0x23, 0xbe, 0xa2, 0x38, 0x26, 0x3e,
  0x84, 0xec, 0xf4, 0xbc, 0x22, 0xe8, 0x7b, 0xbe, 0x97, 0xed, 0xc8, 0xbd,
  0x63, 0xe7, 0x67, 0x3d, 0xb2, 0xaa, 0x67, 0x3e, 0xc3, 0xc7, 0x88, 0x3e,
  0x17, 0xd1, 0x41, 0xbe, 0xa9, 0x57, 0x14, 0xbe, 0x18, 0x45, 0x19, 0xbd,
  0x3e, 0xb4, 0x0b, 0x3f, 0x95, 0x55, 0x81, 0xbc, 0x38, 0x7d, 0x58, 0x3e,
  0x32, 0x05, 0xd7, 0xbd, 0x0d, 0xd6, 0x82, 0x3e, 0xf5, 0x87, 0x1e, 0xbe,
  0x4a, 0xbf, 0xba, 0xbd, 0x9d, 0xe2, 0x01, 0x3b, 0x75, 0x8e, 0x80, 0xbc,
  0xfc, 0x34, 0x17, 0xbd, 0xd0, 0x7f, 0x00, 0xbe, 0x79, 0x89, 0xc6, 0xbd,
  0x29, 0x61, 0x61, 0x3e, 0x77, 0x33, 0x4a, 0x3e, 0xf0, 0x96, 0xbb, 0xbe,
  0xa4, 0x27, 0x45, 0xbe, 0xb4, 0x00, 0xab, 0x3c, 0x7f, 0x83, 0x27, 0x3e,
  0x18, 0xbc, 0x14, 0x3e, 0x12, 0xef, 0x85, 0xbe, 0xfc, 0x7b, 0xed, 0x3d,
  0xdc, 0x06, 0x4a, 0x3e, 0xe6, 0x6c, 0xc8, 0xbe, 0x9d, 0x58, 0x47, 0xbe,
  0xc3, 0x65, 0x79, 0x3e, 0xbf, 0x4d, 0xfa, 0x3c, 0xaf, 0x87, 0x96, 0x3d,
  0xbd, 0xb2, 0xd1, 0xbd, 0x51, 0x57, 0x0c, 0x3d, 0xfb, 0xa5, 0x71, 0xbe,
  0xe8, 0x17, 0x8a, 0xbe, 0x44, 0xab, 0x53, 0xbe, 0x32, 0x80, 0xcf, 0xbc,
  0xc1, 0x34, 0x34, 0xbd, 0x03, 0x63, 0x80, 0x3e, 0xb7, 0x4b, 0xb4, 0xbd,
  0x9e, 0x9f, 0x2e, 0x3e, 0x2a, 0x42, 0xd3, 0x3d, 0x2f, 0x8b, 0x87, 0xbe,
  0x2a, 0xd5, 0x37, 0xbe, 0x69, 0x46, 0x33, 0x3e, 0xc4, 0xc8, 0xf9, 0x3d,
  0x95, 0x10, 0xe0, 0x3e, 0x63, 0x50, 0x81, 0xbd, 0x39, 0x59, 0x22, 0x3e,
  0x45, 0x9f, 0x29, 0xbe, 0xc9, 0x7e, 0x2e, 0x3e, 0x33, 0xfa, 0x78, 0xbd,
  0x87, 0xdf, 0x99, 0xbd, 0x18, 0x68, 0x3d, 0xbe, 0xcf, 0x3c, 0xc3, 0x3c,
  0x05, 0xf6, 0x72, 0xbd, 0xb1, 0x81, 0x8e, 0xbd, 0xca, 0x7b, 0x68, 0x3d,
  0x6a, 0xdd, 0xe8, 0x3d, 0x53, 0x3c, 0x03, 0xba, 0x9f, 0xde, 0xb8, 0xbd,
  0x33, 0x15, 0x16, 0xbe, 0x3f, 0x92, 0xe4, 0x3d, 0x72, 0x0e, 0x3e, 0xbe,
  0x99, 0x2e, 0xa4, 0xbd, 0x3a, 0x9b, 0xe3, 0xbd, 0x4d, 0x87, 0xa2, 0x3e,
  0xcf, 0x82, 0xc4, 0x3d, 0x99, 0x3b, 0x0d, 0xbc, 0xb1, 0x41, 0x6d, 0xbe,
  0xb2, 0xc5, 0x4e, 0x3e, 0x3e, 0x96, 0x12, 0x3e, 0x8a, 0x24, 0x2b, 0x3e,
  0x76, 0x88, 0xdc, 0xbd, 0x49, 0x4d, 0x82, 0x3e, 0x1c, 0x99, 0x96, 0x3e,
  0x0f, 0x09, 0x23, 0xbe, 0xe9, 0xd9, 0xf2, 0xbc, 0xbc, 0xc7, 0xbd, 0x3e,
  0xb9, 0x76, 0x98, 0x3c, 0x72, 0x34, 0x12, 0xbd, 0x2d, 0xd3, 0x69, 0xbe,
  0x25, 0x40, 0x26, 0xbd, 0xa9, 0x95, 0x55, 0xbd, 0x4e, 0x4a, 0xf7, 0xbd,
  0x9a, 0x56, 0xc0, 0xbd, 0xfa, 0xc4, 0x8e, 0xbe, 0xc6, 0x45, 0x37, 0xbe,
  0x59, 0x62, 0xd1, 0xbe, 0x8a, 0x26, 0x33, 0xbe, 0xf4, 0x4b, 0x1d, 0xbe,
  0x0f, 0x31, 0x02, 0xbd, 0x1f, 0x2f, 0x81, 0x3d, 0x7a, 0x27, 0x09, 0xbc,
  0xa8, 0xd4, 0x50, 0x3c, 0x95, 0x1f, 0xcb, 0xbc, 0xf2, 0x5c, 0x95, 0xbc,
  0x47, 0x2f, 0x9a, 0x3c, 0x55, 0x7b, 0x02, 0xbe, 0xc1, 0xba, 0x6f, 0xbc,
  0xc2, 0xc1, 0x85, 0x3d, 0xe2, 0x25, 0x16, 0xbc, 0xa7, 0x0e, 0x62, 0xbd,
  0x0c, 0x04, 0xde, 0xbd, 0xdf, 0x05, 0x3a, 0xbe, 0x86, 0x9f, 0x59, 0xbd,
  0x9e, 0x20, 0x54, 0x3e, 0x48, 0x32, 0x8a, 0x3c, 0x0e, 0x04, 0x1a, 0x3e,
  0xbf, 0x74, 0x0d, 0x3e, 0x90, 0x4b, 0xc4, 0x3e, 0x9b, 0x42, 0x18, 0x3e,
  0xaf, 0x64, 0x07, 0x3f, 0x3c, 0xe1, 0x99, 0x3d, 0x8e, 0xc5, 0x52, 0xbe,
  0xba, 0x5c, 0x2d, 0xbd, 0x73, 0x12, 0x37, 0xbe, 0x3d, 0x98, 0x0b, 0x3d,
  0x0c, 0x8b, 0x3d, 0xbe, 0xfb, 0x55, 0x87, 0xbc, 0x19, 0xcb, 0xba, 0x3d,
  0xc9, 0x95, 0x9b, 0xbe, 0xd2, 0xe0, 0x63, 0xbe, 0x63, 0x74, 0x74, 0xbe,
  0xa8, 0xdb, 0x09, 0xbe, 0x68, 0xac, 0x9c, 0xbd, 0x42, 0x8e, 0x8b, 0xbe,
  0xad, 0x0e, 0x2b, 0xbe, 0xf4, 0xab, 0xb0, 0xbd, 0x20, 0xa0, 0x98, 0xbc,
  0x40, 0x80, 0x6c, 0xbe, 0x89, 0x36, 0x50, 0xbe, 0xf5, 0xae, 0x81, 0xbe,
  0x21, 0x05, 0x45, 0xbe, 0xee, 0x7e, 0xf0, 0x3c, 0x59, 0xa6, 0x84, 0xbd,
  0x7f, 0xbb, 0x2d, 0xbe, 0xad, 0x3c, 0xf5, 0xbd, 0x28, 0x07, 0x28, 0xbc,
  0x07, 0xad, 0x00, 0x3e, 0xee, 0x55, 0x81, 0xbe, 0xcc, 0x5e, 0x19, 0x3d,
  0x34, 0x38, 0x5f, 0xbd, 0xf2, 0x7f, 0x47, 0xbe, 0xff, 0x85, 0x0b, 0x3e,
  0xaa, 0xb2, 0x9d, 0xbd, 0x40, 0x49, 0x82, 0xbd, 0xa8, 0x16, 0x61, 0xbc,
  0x10, 0x6f, 0xb8, 0x3e, 0x54, 0x54, 0x08, 0x3e, 0x3f, 0x95, 0x99, 0x3e,
  0xda, 0xda, 0x9f, 0x3e, 0xcb, 0xcc, 0xa3, 0x3d, 0x88, 0xf1, 0x81, 0xbd,
  0xdb, 0xa7, 0x86, 0xbc, 0x9e, 0x5b, 0xfa, 0xbb, 0xed, 0xfd, 0xc8, 0x3e,
  0xdb, 0x93, 0xbc, 0xbd, 0x35, 0xad, 0x97, 0x3e, 0x06, 0x8c, 0x3b, 0xbe,
  0x98, 0x70, 0xe7, 0x3e, 0xcc, 0x9c, 0x82, 0xbd, 0x9a, 0x9e, 0xc7, 0x3c,
  0x54, 0x3c, 0x08, 0xbd, 0x72, 0xee, 0x89, 0xbe, 0x5a, 0x30, 0x2c, 0xbe,
  0xe5, 0xd8, 0xc8, 0xbd, 0xc6, 0x8d, 0x91, 0x3c, 0xfa, 0xf2, 0x84, 0xbd,
  0x50, 0xe4, 0x0c, 0xbc, 0xb8, 0x22, 0x79, 0xbd, 0x5d, 0x7e, 0x87, 0x3d,
  0xa3, 0x46, 0x12, 0xbf, 0xd6, 0xcf, 0x88, 0xbe, 0x6f, 0x86, 0x3e, 0xbe,
  0x28, 0x2e, 0x3b, 0xbe, 0x0a, 0x99, 0x35, 0x3d, 0xa7, 0xc6, 0xd6, 0xbe,
  0x26, 0xba, 0xb6, 0x3d, 0x0b, 0x54, 0xd2, 0x3e, 0xbc, 0xbf, 0x16, 0x3e,
  0x9d, 0x5e, 0xf8, 0xbd, 0xba, 0xa1, 0x9f, 0xbe, 0xa4, 0x1a, 0x16, 0xbf,
  0x09, 0x73, 0xb8, 0xbe, 0xa7, 0xb4, 0x39, 0x3e, 0x0a, 0xe6, 0x9c, 0xbd,
  0xca, 0xe2, 0x8d, 0xbd, 0x7d, 0x2c, 0x4f, 0xbf, 0x4f, 0xca, 0x1e, 0xbe,
  0x9d, 0x7a, 0x28, 0xbd, 0x52, 0xfb, 0x50, 0xbe, 0x3f, 0xe4, 0xdc, 0xbe,
  0x27, 0xb2, 0xbf, 0xbe, 0xa5, 0xa3, 0x21, 0xbd, 0x38, 0x5b, 0xf2, 0xbd,
  0x21, 0x17, 0x48, 0xbe, 0x98, 0x2e, 0x87, 0xbd, 0xbe, 0x1a, 0x90, 0x3e,
  0x56, 0xd8, 0xa9, 0x3e, 0x05, 0x84, 0xb0, 0x3e, 0x49, 0xbd, 0x8d, 0xbe,
  0xd4, 0xa1, 0x85, 0xbd, 0x4c, 0xfa, 0x2a, 0xbe, 0xbd, 0xe6, 0xf8, 0x3c,
  0xf9, 0x62, 0x13, 0x3e, 0x12, 0xa4, 0x6d, 0x3e, 0xcc, 0x27, 0xd4, 0x3d,
  0x03, 0xa1, 0x65, 0x3d, 0xde, 0x40, 0xde, 0xbd, 0xf8, 0x84, 0x3e, 0xbe,
  0xec, 0x6e, 0x5f, 0xbe, 0xe1, 0xb5, 0xea, 0xbc, 0x16, 0xf9, 0x0c, 0xbe,
  0x46, 0xbc, 0xaf, 0x3d, 0xb9, 0xe7, 0xd9, 0xbc, 0x89, 0x7b, 0x00, 0x3e,
  0xe6, 0x6d, 0x0b, 0xbe, 0x3f, 0x0e, 0x24, 0xbe, 0xaa, 0xdf, 0x34, 0xbe,
  0x7a, 0x44, 0x07, 0xbe, 0x56, 0xa3, 0x04, 0x3e, 0xf6, 0x78, 0x0c, 0xbe,
  0xae, 0x58, 0xc3, 0xbd, 0x50, 0xb8, 0x02, 0x3e, 0xf2, 0x4c, 0xa1, 0xbc,
  0x1b, 0x40, 0xc2, 0xbd, 0x3e, 0x6b, 0x1f, 0xbe, 0xf8, 0x90, 0xad, 0x3a,
  0x59, 0x9d, 0x0c, 0xbe, 0x8c, 0xc6, 0x30, 0xbe, 0x8d, 0x20, 0xa0, 0xbc,
  0x1c, 0x9f, 0x84, 0x3e, 0x6e, 0xfa, 0x59, 0xbd, 0x6d, 0x55, 0xae, 0x3d,
  0x62, 0x67, 0x99, 0xbe, 0x65, 0xfd, 0xb5, 0xbe, 0x66, 0xc2, 0x9f, 0xbd,
  0x72, 0xb6, 0x00, 0xbf, 0x68, 0x3c, 0x94, 0xbe, 0xc7, 0x07, 0x4f, 0xbe,
  0xc2, 0x87, 0xb5, 0xbe, 0x6a, 0x67, 0x4b, 0xbd, 0x5c, 0x7c, 0x70, 0xbe,
  0xa7, 0xe7, 0x6f, 0xbe, 0x9c, 0xc9, 0x65, 0xbe, 0x9a, 0xfa, 0x9c, 0xbe,
  0x09, 0xed, 0x5f, 0xbd, 0x9b, 0x07, 0x41, 0xbe, 0xc1, 0x47, 0x56, 0xbc,
  0x3a, 0xed, 0xc9, 0x3c, 0x89, 0x88, 0xae, 0xbe, 0x7b, 0xcd, 0x33, 0xbf,
  0x9b, 0x75, 0x75, 0xbe, 0xd3, 0x61, 0x82, 0xbd, 0x48, 0x0f, 0xa5, 0x3e,
  0x4f, 0xe3, 0x38, 0x3e, 0xe0, 0xb9, 0x33, 0xbe, 0xcb, 0x14, 0xd1, 0x3d,
  0x7c, 0x68, 0x52, 0xbe, 0xd1, 0x67, 0x45, 0x3e, 0xbb, 0x8a, 0x30, 0xbe,
  0xcc, 0x4b, 0x91, 0xbd, 0x73, 0x57, 0x28, 0xbe, 0x70, 0x09, 0x39, 0x3e,
  0xdd, 0x70, 0xa9, 0xbc, 0xc8, 0xf4, 0x7f, 0xbd, 0x84, 0xb8, 0x5d, 0x3d,
  0x34, 0xff, 0x3f, 0x3e, 0x67, 0xa1, 0x93, 0xbd, 0x48, 0xa0, 0x9f, 0xbd,
  0xa8, 0xd8, 0x1c, 0xbe, 0xb6, 0xe6, 0xdc, 0x3e, 0x1d, 0x17, 0xa5, 0x3c,
  0x8b, 0x42, 0x66, 0xbd, 0xf4, 0x23, 0x48, 0xbe, 0x86, 0x2d, 0x6f, 0xbe,
  0xd2, 0x2e, 0x77, 0xbe, 0xa2, 0xf3, 0x8b, 0xbe, 0xa0, 0xcd, 0xd6, 0xbd,
  0xb0, 0xea, 0x81, 0xbe, 0x35, 0xbc, 0xc7, 0x3c, 0x9f, 0x83, 0x63, 0xbd,
  0x52, 0x4a, 0xbd, 0xbe, 0x39, 0x03, 0xb5, 0xbc, 0x4e, 0x03, 0x15, 0xbe,
  0x6c, 0x2b, 0xc9, 0xbe, 0x5b, 0x26, 0x29, 0x3e, 0xc4, 0x1e, 0x43, 0xbe,
  0x28, 0x36, 0x9f, 0xbd, 0xad, 0x48, 0xc4, 0x3c, 0x54, 0xa8, 0x54, 0xbe,
  0x52, 0x9d, 0x9b, 0x3e, 0x4e, 0x20, 0x52, 0xbe, 0x9f, 0x00, 0x56, 0xbd,
  0x45, 0x43, 0xcc, 0xbc, 0x82, 0xd3, 0xb7, 0x3e, 0xfe, 0x59, 0x0b, 0x3e,
  0x9d, 0x8d, 0x52, 0x3c, 0xb9, 0x9c, 0x02, 0xbe, 0x4c, 0xff, 0xd3, 0xbd,
  0x99, 0xaa, 0xd0, 0xbd, 0x24, 0xc8, 0x14, 0xbe, 0x48, 0xcb, 0x49, 0x3c,
  0xd0, 0xff, 0x19, 0xbe, 0xe2, 0x16, 0xe9, 0xbd, 0x41, 0x2f, 0x48, 0xbd,
  0xba, 0x4b, 0xdc, 0x3d, 0xe1, 0x49, 0xda, 0xbe, 0x53, 0xe0, 0x16, 0xbd,
  0x24, 0xba, 0xcf, 0xbd, 0x5c, 0x59, 0xfc, 0xbc, 0x5a, 0xeb, 0x9a, 0xbe,
  0x28, 0xc4, 0x00, 0xbe, 0x52, 0x24, 0x8b, 0xbd, 0x78, 0x8c, 0xdd, 0xbb,
  0xc7, 0x7d, 0x14, 0x3e, 0x9c, 0xf5, 0x32, 0x3e, 0x3e, 0x2d, 0xfc, 0x3d,
  0xae, 0xed, 0x15, 0x3e, 0x17, 0x9b, 0xe0, 0xbe, 0xee, 0xc1, 0x2e, 0xbe,
  0xc6, 0xe6, 0xcb, 0xbd, 0x17, 0x76, 0xb6, 0x3b, 0xd2, 0x9d, 0x97, 0xbe,
  0x1f, 0x2c, 0x31, 0xbe, 0xc2, 0x87, 0x7a, 0xbe, 0x75, 0x41, 0x20, 0x3e,
  0xe1, 0xca, 0x09, 0x3f, 0x7d, 0x9b, 0xab, 0xbe, 0x0e, 0xa6, 0x39, 0xbe,
  0x5c, 0xd1, 0x0d, 0x3e, 0x62, 0x9b, 0xc0, 0xbd, 0x8d, 0xc8, 0xb4, 0x3d,
  0xfd, 0xcf, 0x98, 0xbe, 0x4f, 0x13, 0x01, 0xbe, 0x6e, 0xf8, 0x85, 0xbd,
  0x3b, 0xe1, 0x47, 0xbd, 0xfa, 0x33, 0xcd, 0xbc, 0x4e, 0x24, 0x95, 0xbe,
  0x6a, 0x06, 0xa7, 0xbe, 0x4d, 0x47, 0x6a, 0xbe, 0xbf, 0xa5, 0x83, 0xbe,
  0x4f, 0xf5, 0xb3, 0xbd, 0x23, 0xea, 0xfc, 0x3b, 0x2e, 0x42, 0x8e, 0xbd,
  0xd7, 0x8a, 0xea, 0xbc, 0xa8, 0xc2, 0xd1, 0xbe, 0xfc, 0xf3, 0xb5, 0x3d,
  0x31, 0x42, 0xf1, 0xbe, 0x56, 0xab, 0x0f, 0xbe, 0x96, 0x87, 0x95, 0x3d,
  0x4e, 0x2a, 0xce, 0x3e, 0x1b, 0xca, 0x85, 0xbe, 0x50, 0xee, 0x32, 0xbe,
  0xdc, 0x60, 0xd4, 0xbd, 0xc0, 0x3b, 0x9c, 0x3e, 0x28, 0xda, 0x03, 0xbe,
  0x96, 0x1e, 0x9e, 0x3e, 0xdc, 0x57, 0x01, 0xbf, 0xc8, 0xff, 0x4a, 0xbd,
  0x04, 0x68, 0x04, 0x3e, 0x37, 0x1a, 0xcf, 0xbd, 0xc6, 0xcb, 0xc9, 0x3d,
  0x8d, 0xe4, 0x0f, 0xbe, 0x66, 0x1a, 0x4b, 0xbe, 0xc7, 0x0b, 0x66, 0x3b,
  0x38, 0x7a, 0xbe, 0xbe, 0x24, 0x22, 0x24, 0xbd, 0x8e, 0xf1, 0x1a, 0x3e,
  0xb7, 0xd4, 0xf4, 0xbc, 0x88, 0x9a, 0x65, 0x3d, 0xfc, 0x07, 0x47, 0xbe,
  0x25, 0x65, 0x4b, 0x3c, 0x4b, 0x56, 0x71, 0x3e, 0xb8, 0x6b, 0x23, 0xbe,
  0xac, 0x13, 0x19, 0x3c, 0xb4, 0x54, 0x15, 0x3e, 0x49, 0xee, 0xa2, 0xbd,
  0x85, 0x41, 0x2b, 0xbd, 0x6d, 0xa6, 0x4d, 0x3d, 0x18, 0x0b, 0xf7, 0x3d,
  0xfd, 0x72, 0xd0, 0xbc, 0x0b, 0x07, 0xc9, 0xbd, 0x26, 0xf8, 0x5a, 0xbe,
  0x7e, 0xeb, 0x3e, 0x3c, 0x8b, 0x4a, 0xb3, 0x3b, 0x6e, 0x75, 0x86, 0xbd,
  0xdf, 0xf8, 0x8a, 0x3e, 0xe6, 0x94, 0xf2, 0x3d, 0x71, 0xa7, 0x87, 0xbe,
  0x06, 0xbb, 0xbf, 0xbd, 0x79, 0x5d, 0x77, 0xbe, 0x31, 0xae, 0xfd, 0xbb,
  0x4b, 0xc8, 0xb1, 0xbd, 0xc3, 0x27, 0x5c, 0xbd, 0xb9, 0xb1, 0x20, 0xbd,
  0x42, 0xd8, 0x07, 0x3e, 0x9a, 0x67, 0x3a, 0x3e, 0xdd, 0x0f, 0x82, 0x3d,
  0x7b, 0x44, 0x53, 0x3d, 0xdc, 0xcd, 0x42, 0x3e, 0x3b, 0xa6, 0x06, 0x3b,
  0x03, 0x4c, 0x42, 0xbe, 0xb2, 0x07, 0x06, 0xbe, 0x50, 0x5d, 0x44, 0xbe,
  0x8f, 0x23, 0x49, 0x3e, 0xda, 0x9a, 0x86, 0x3d, 0x4f, 0x47, 0x5a, 0x3e,
  0xcf, 0x22, 0x87, 0xbd, 0xb0, 0x25, 0x40, 0xbe, 0x6e, 0x70, 0x22, 0xbc,
  0xe0, 0x5e, 0xf5, 0xbe, 0x40, 0xfc, 0x57, 0xbe, 0xbb, 0xf6, 0x59, 0xbd,
  0x2a, 0x3f, 0x18, 0xbb, 0x16, 0xa7, 0x1d, 0x3e, 0xbe, 0xd8, 0x22, 0xbe,
  0x45, 0x91, 0x32, 0x3e, 0x97, 0xea, 0x07, 0x3e, 0x67, 0xfe, 0x73, 0xbe,
  0xea, 0x30, 0x45, 0xbe, 0x12, 0x17, 0x5e, 0x3e, 0xbe, 0xdc, 0xc4, 0x3d,
  0x37, 0x6a, 0xf7, 0x3d, 0xc2, 0x82, 0xb2, 0xbe, 0xec, 0x43, 0x8a, 0x3e,
  0x87, 0xfb, 0x98, 0xbc, 0x63, 0xc9, 0xb5, 0xbe, 0xa7, 0xc2, 0xa9, 0xbe,
  0xc1, 0x76, 0xbf, 0x3e, 0x25, 0x8e, 0x1e, 0xbd, 0xce, 0x28, 0xb2, 0x3e,
  0x60, 0x0a, 0x75, 0xbe, 0xe2, 0xdd, 0xff, 0xff, 0x10, 0x00, 0x00, 0x00,
  0x0a, 0x00, 0x00, 0x00, 0x1c, 0x00, 0x00, 0x00, 0x38, 0x00, 0x00, 0x00,
  0x04, 0x00, 0x00, 0x00, 0x10, 0x00, 0x00, 0x00, 0x04, 0x00, 0x00, 0x00,
  0x01, 0x00, 0x00, 0x00, 0x08, 0x00, 0x00, 0x00, 0x1a, 0x00, 0x00, 0x00,
  0x73, 0x65, 0x71, 0x75, 0x65, 0x6e, 0x74, 0x69, 0x61, 0x6c, 0x2f, 0x63,
  0x6f, 0x6e, 0x76, 0x32, 0x64, 0x5f, 0x31, 0x2f, 0x43, 0x6f, 0x6e, 0x76,
  0x32, 0x44, 0x00, 0x00, 0x58, 0xdd, 0xff, 0xff, 0x62, 0xde, 0xff, 0xff,
  0x04, 0x00, 0x00, 0x00, 0x80, 0x01, 0x00, 0x00, 0xc6, 0x6b, 0xe6, 0xbd,
  0x0f, 0x88, 0x86, 0x3d, 0x55, 0x3c, 0x6b, 0x38, 0x41, 0x5d, 0xcd, 0xbc,
  0x7c, 0x16, 0xd9, 0x3d, 0x21, 0xae, 0xba, 0x3d, 0x39, 0x89, 0x21, 0xbd,
  0xd4, 0x50, 0x13, 0x3e, 0x6d, 0xbc, 0x1f, 0x3e, 0x05, 0xf9, 0x5e, 0x3d,
  0xbd, 0xc7, 0x9a, 0x3d, 0x98, 0x1d, 0xf6, 0x3d, 0xf7, 0xc8, 0x49, 0xbe,
  0xb1, 0x47, 0x9e, 0xbd, 0x30, 0xab, 0x2c, 0x3d, 0xe2, 0x85, 0x57, 0xbe,
  0x61, 0x97, 0xc0, 0xbc, 0x73, 0xef, 0x04, 0x3d, 0xa7, 0x3a, 0x47, 0xbe,
  0x5a, 0x7e, 0xb3, 0xbc, 0xc3, 0x08, 0xcc, 0x3c, 0x72, 0xa1, 0x1f, 0xbe,
  0x73, 0xa5, 0xc7, 0x3b, 0xd8, 0x5e, 0x2e, 0x3d, 0x29, 0xe7, 0xaf, 0x3d,
  0x77, 0x41, 0x9c, 0x3e, 0x9f, 0x55, 0xc5, 0x3e, 0xa0, 0x93, 0x9b, 0x3e,
  0x42, 0xbf, 0x8e, 0xbc, 0x26, 0xfa, 0x3c, 0xbd, 0x8d, 0x35, 0xa0, 0xbe,
  0x7b, 0x94, 0x5a, 0xbe, 0xac, 0x74, 0x58, 0xbe, 0x35, 0xaf, 0x50, 0x3d,
  0x09, 0xaa, 0x35, 0xbe, 0x8b, 0x94, 0xbd, 0xbe, 0x6b, 0x4f, 0x5d, 0x3d,
  0xb4, 0x97, 0x13, 0xbe, 0xed, 0x71, 0x4c, 0xbe, 0x03, 0x43, 0x6c, 0xbe,
  0x9a, 0xb0, 0x38, 0x3e, 0xb9, 0x8c, 0xac, 0x3d, 0x8a, 0xc7, 0x9b, 0xbb,
  0xd1, 0x38, 0x23, 0x3e, 0xb5, 0xb4, 0x88, 0xbe, 0x6a, 0xc3, 0x11, 0xbe,
  0x7d, 0x85, 0xfb, 0x3b, 0xc8, 0xe9, 0x5d, 0xbe, 0xf6, 0xb3, 0x8e, 0xbd,
  0xbb, 0xf5, 0xa5, 0x3e, 0x0f, 0x8e, 0x70, 0x3e, 0xed, 0xc5, 0x40, 0x3d,
  0xcd, 0x35, 0xfe, 0x3d, 0x6b, 0x18, 0x49, 0xbe, 0x6b, 0xf3, 0xd2, 0x3e,
  0x85, 0x5a, 0x57, 0xbe, 0xe2, 0xc5, 0x74, 0x3e, 0x80, 0x86, 0x2c, 0xbe,
  0xa7, 0x5c, 0x8d, 0xbe, 0x5b, 0xb8, 0xeb, 0xbc, 0x59, 0x14, 0xe2, 0xbc,
  0x51, 0xd9, 0x41, 0xbd, 0xb3, 0xe3, 0x80, 0xbd, 0x0a, 0xb4, 0x6e, 0x3d,
  0x08, 0x3f, 0x93, 0xbd, 0x65, 0x4d, 0x5c, 0x3d, 0x01, 0xf4, 0x36, 0x3e,
  0x29, 0x9b, 0x9c, 0x3c, 0x75, 0x44, 0x06, 0x3e, 0xfe, 0x63, 0x69, 0x3e,
  0x01, 0x80, 0x04, 0xbc, 0x38, 0x47, 0x3c, 0x3e, 0x1a, 0xda, 0xb4, 0x3e,
  0x56, 0x04, 0x1f, 0x3c, 0xd8, 0x24, 0x0c, 0xbe, 0x0d, 0x28, 0x8d, 0x3e,
  0xf8, 0x82, 0xe9, 0x3e, 0xbf, 0xb0, 0xba, 0x3d, 0x08, 0xbe, 0x95, 0xbe,
  0x0d, 0xd6, 0x41, 0xbe, 0xcd, 0x33, 0x2d, 0x3e, 0xb1, 0xc6, 0x82, 0xbe,
  0x62, 0x2c, 0x99, 0xbe, 0xff, 0xf7, 0x7c, 0xbd, 0xd7, 0x20, 0xcb, 0x3e,
  0x5e, 0xbe, 0x18, 0x3e, 0xed, 0x16, 0x81, 0x3e, 0xe5, 0xed, 0xac, 0xbd,
  0xcb, 0xc8, 0xdc, 0xbd, 0xe1, 0x6d, 0x95, 0xbe, 0xe7, 0xde, 0xf0, 0x3b,
  0x83, 0x71, 0xa5, 0xbd, 0xa8, 0x98, 0x33, 0xbe, 0x9a, 0x87, 0x27, 0x3e,
  0xf2, 0x93, 0x34, 0xbd, 0xab, 0xe2, 0xf1, 0xbd, 0xba, 0xdf, 0xff, 0xff,
  0x10, 0x00, 0x00, 0x00, 0x09, 0x00, 0x00, 0x00, 0x1c, 0x00, 0x00, 0x00,
  0x38, 0x00, 0x00, 0x00, 0x04, 0x00, 0x00, 0x00, 0x08, 0x00, 0x00, 0x00,
  0x04, 0x00, 0x00, 0x00, 0x03, 0x00, 0x00, 0x00, 0x01, 0x00, 0x00, 0x00,
  0x18, 0x00, 0x00, 0x00, 0x73, 0x65, 0x71, 0x75, 0x65, 0x6e, 0x74, 0x69,
  0x61, 0x6c, 0x2f, 0x63, 0x6f, 0x6e, 0x76, 0x32, 0x64, 0x2f, 0x43, 0x6f,
  0x6e, 0x76, 0x32, 0x44, 0x00, 0x00, 0x00, 0x00, 0x30, 0xdf, 0xff, 0xff,
  0x3a, 0xe0, 0xff, 0xff, 0x04, 0x00, 0x00, 0x00, 0x00, 0x01, 0x00, 0x00,
  0x37, 0x50, 0x10, 0x3d, 0xfd, 0xb5, 0xdf, 0x3e, 0xce, 0x4b, 0x15, 0x3f,
  0xc4, 0xbb, 0x96, 0xbe, 0x2c, 0x04, 0xe3, 0xbc, 0xc3, 0x46, 0x40, 0xbe,
  0x9e, 0xbf, 0x36, 0x3f, 0x4b, 0x58, 0x5a, 0x3e, 0x41, 0x49, 0x9c, 0xbe,
  0x1a, 0x9a, 0xf8, 0x3d, 0x70, 0x9d, 0x27, 0x3d, 0xb7, 0x5a, 0x87, 0x3d,
  0xbc, 0x59, 0x00, 0xbf, 0x2b, 0x42, 0xb3, 0xbe, 0x9a, 0x04, 0xc3, 0xbd,
  0x04, 0x2a, 0x84, 0x3d, 0x41, 0xd7, 0x30, 0x3d, 0x87, 0x99, 0xca, 0x3e,
  0x75, 0x72, 0x92, 0xbe, 0xc1, 0x49, 0x69, 0xbe, 0x17, 0x09, 0x80, 0xbc,
  0x98, 0x26, 0x5a, 0xbe, 0xb5, 0x7c, 0xb0, 0xbe, 0x29, 0xc3, 0x82, 0x3e,
  0x21, 0xed, 0x8e, 0xbe, 0x7f, 0x34, 0x80, 0xbf, 0xab, 0x42, 0x09, 0xbd,
  0x96, 0x32, 0x75, 0x3e, 0x19, 0x67, 0x35, 0x3e, 0xf7, 0xb9, 0x0a, 0x3e,
  0xc0, 0x77, 0x27, 0xbd, 0x5a, 0x18, 0x49, 0x3e, 0xeb, 0xab, 0xfa, 0x3c,
  0xcc, 0x2f, 0x6b, 0xbe, 0x21, 0x61, 0x34, 0xbf, 0xcd, 0x22, 0x7a, 0xbe,
  0x84, 0x07, 0x82, 0xbf, 0xf7, 0x88, 0x85, 0xbe, 0xdf, 0xab, 0x34, 0xbf,
  0x33, 0x6b, 0x59, 0xbe, 0xd0, 0x82, 0xe1, 0x3d, 0x21, 0x09, 0x79, 0xbf,
  0x48, 0xeb, 0x98, 0x3e, 0x0c, 0x51, 0xc9, 0xbd, 0xc1, 0x86, 0xd1, 0x3e,
  0x5d, 0x20, 0xac, 0xbe, 0x3e, 0x45, 0xca, 0xbd, 0x53, 0xa6, 0xfc, 0x3d,
  0xf0, 0xfd, 0x8c, 0x3d, 0x34, 0x25, 0xff, 0x3d, 0x0d, 0xde, 0x17, 0x3e,
  0xeb, 0x3f, 0x92, 0xbe, 0x0f, 0x85, 0xa7, 0x3c, 0xed, 0xf0, 0x65, 0xbe,
  0xb8, 0xd9, 0x02, 0xbf, 0xbb, 0xef, 0xae, 0x3e, 0xcb, 0x25, 0x95, 0x3e,
  0x32, 0x1a, 0xbf, 0xbe, 0x11, 0x49, 0xc1, 0x3e, 0x90, 0x78, 0x34, 0x3e,
  0x88, 0xf5, 0x88, 0xbe, 0x6c, 0xbb, 0xc8, 0x3e, 0xa9, 0x53, 0xca, 0xbd,
  0x50, 0x67, 0xc5, 0x3e, 0x12, 0xe1, 0xff, 0xff, 0x10, 0x00, 0x00, 0x00,
  0x08, 0x00, 0x00, 0x00, 0x14, 0x00, 0x00, 0x00, 0x30, 0x00, 0x00, 0x00,
  0x02, 0x00, 0x00, 0x00, 0x04, 0x00, 0x00, 0x00, 0x10, 0x00, 0x00, 0x00,
  0x19, 0x00, 0x00, 0x00, 0x73, 0x65, 0x71, 0x75, 0x65, 0x6e, 0x74, 0x69,
  0x61, 0x6c, 0x2f, 0x64, 0x65, 0x6e, 0x73, 0x65, 0x5f, 0x31, 0x2f, 0x4d,
  0x61, 0x74, 0x4d, 0x75, 0x6c, 0x00, 0x00, 0x00, 0x80, 0xe0, 0xff, 0xff,
  0x8a, 0xe1, 0xff, 0xff, 0x04, 0x00, 0x00, 0x00, 0x00, 0x1c, 0x00, 0x00,
  0x6b, 0xf5, 0x76, 0xbd, 0xde, 0x9c, 0x1f, 0x3e, 0x26, 0xdc, 0x51, 0xbe,
  0x81, 0xf0, 0x88, 0x3e, 0xd4, 0xa7, 0x27, 0x3e, 0x95, 0xb8, 0x5c, 0x3c,
  0xb9, 0xc1, 0x4e, 0x3e, 0xd5, 0x6b, 0xa8, 0xbe, 0xc7, 0x93, 0x35, 0xbf,
  0x5e, 0x3d, 0xa8, 0x3b, 0x7c, 0x4b, 0xbd, 0xbe, 0x12, 0x10, 0xae, 0xbe,
  0x33, 0xd5, 0x5f, 0x3d, 0x88, 0xd3, 0x57, 0xbe, 0x90, 0x95, 0x43, 0x3d,
  0xa3, 0x96, 0xa2, 0xbd, 0xd5, 0x7e, 0xe9, 0xbd, 0x25, 0xcf, 0x88, 0x3e,
  0x14, 0x6e, 0x82, 0xbe, 0x59, 0x14, 0x17, 0x3f, 0xf2, 0xd0, 0xb0, 0x3d,
  0xde, 0xa8, 0x1a, 0xbe, 0xcb, 0xa3, 0x22, 0x3e, 0x9a, 0x09, 0xec, 0xbe,
  0x1f, 0xfc, 0xd2, 0xbe, 0x23, 0x84, 0xb5, 0xbd, 0x9f, 0x7e, 0x9c, 0xbd,
  0x08, 0xf6, 0x80, 0x3e, 0x77, 0x3c, 0x9e, 0x3e, 0x41, 0x2c, 0x95, 0xbd,
  0xc7, 0xcc, 0x6f, 0x3d, 0x1a, 0x88, 0xef, 0xbd, 0xae, 0x8e, 0xc5, 0xbc,
  0x57, 0x28, 0x9b, 0x3e, 0x8e, 0x89, 0x4f, 0xbe, 0x8a, 0xee, 0x17, 0x3f,
  0xbb, 0x4c, 0xf9, 0x3c, 0x1a, 0x99, 0x80, 0xbe, 0x2e, 0xab, 0x10, 0x3e,
  0x11, 0x22, 0x61, 0xbe, 0xe5, 0xce, 0xf1, 0xbd, 0x5b, 0xb2, 0x26, 0x3f,
  0xdf, 0xea, 0x81, 0x3e, 0xae, 0x84, 0x78, 0x3e, 0xec, 0x5c, 0x0c, 0x3f,
  0x1a, 0x9c, 0x48, 0x3e, 0xca, 0xdc, 0x39, 0x3d, 0x4c, 0x0e, 0xcc, 0x3b,
  0x05, 0x07, 0x8c, 0x3e, 0x26, 0x98, 0xab, 0x3e, 0xc1, 0x12, 0xa5, 0xbd,
  0xdc, 0x27, 0xed, 0x3e, 0x2d, 0xdb, 0x15, 0x3d, 0xe1, 0xca, 0x5c, 0xbe,
  0xe1, 0x4e, 0x30, 0xbe, 0x3a, 0xd4, 0x00, 0xbe, 0xea, 0x26, 0xa4, 0xbd,
  0x3a, 0xf0, 0xee, 0x3e, 0xcf, 0x99, 0xb0, 0x3c, 0x1e, 0x76, 0xd4, 0x3e,
  0x74, 0x57, 0x10, 0x3e, 0xc1, 0x17, 0x69, 0xbe, 0xd6, 0xb9, 0x74, 0x3c,
  0x6d, 0xad, 0x88, 0x3c, 0xcf, 0xc1, 0x52, 0x3e, 0x1e, 0xa4, 0xe2, 0x3d,
  0xcb, 0xa1, 0x04, 0xbd, 0x48, 0x53, 0xe3, 0x3e, 0x2f, 0x64, 0x2a, 0x3d,
  0x05, 0xd2, 0x5c, 0xbe, 0x05, 0x85, 0x0a, 0x3d, 0xa5, 0x4f, 0x2f, 0xbe,
  0xcc, 0x09, 0x08, 0xbe, 0x69, 0xc3, 0xb6, 0x3e, 0xe8, 0x09, 0x9e, 0xbe,
  0x41, 0xd3, 0x81, 0x3e, 0xf6, 0x7e, 0xa2, 0x3e, 0x37, 0x8d, 0x07, 0x3d,
  0x39, 0x93, 0xe7, 0x3c, 0xdd, 0xda, 0xeb, 0xbc, 0xc3, 0xb1, 0x6c, 0xbb,
  0x5e, 0x93, 0x49, 0x3e, 0x37, 0x3f, 0x77, 0xbe, 0x22, 0x77, 0x0a, 0x3f,
  0xb7, 0x66, 0xe0, 0xbb, 0x9f, 0xda, 0xce, 0xbe, 0x82, 0x5e, 0x03, 0xbe,
  0x73, 0x00, 0x97, 0xbe, 0x7f, 0x99, 0x0e, 0xbe, 0x80, 0xf4, 0x18, 0x3f,
  0xa5, 0x73, 0xa0, 0x3d, 0xd1, 0xb6, 0x2e, 0x3e, 0xad, 0xd2, 0xe2, 0x3e,
  0x98, 0x50, 0x46, 0xbe, 0x87, 0x14, 0x94, 0xbc, 0x7f, 0xc6, 0x3b, 0xbd,
  0x9b, 0x6e, 0x46, 0xbe, 0x7f, 0xb6, 0xdf, 0x3d, 0x42, 0x63, 0x01, 0xbe,
  0xf9, 0xc5, 0xcc, 0x3e, 0xa1, 0x70, 0xa9, 0xbc, 0x8c, 0x77, 0x7d, 0xbc,
  0xe8, 0xe6, 0x49, 0x3e, 0x32, 0xc8, 0xcc, 0x3c, 0x83, 0x3d, 0x89, 0xbe,
  0xa4, 0xce, 0x98, 0x3e, 0x7c, 0x99, 0x98, 0xbd, 0x55, 0x66, 0x94, 0x3d,
  0x99, 0x50, 0x04, 0x3e, 0x29, 0x25, 0x4d, 0xbd, 0x3f, 0xbf, 0xbf, 0x3d,
  0xff, 0xe3, 0x76, 0xbd, 0xf3, 0x86, 0x51, 0xbc, 0x1b, 0xcb, 0x6d, 0xbe,
  0xec, 0x87, 0xd9, 0xbd, 0x93, 0x83, 0x05, 0xbe, 0x18, 0x5c, 0x20, 0xbe,
  0x78, 0xbe, 0xb7, 0xbd, 0x39, 0x1c, 0x65, 0xbe, 0xdf, 0xe2, 0x6c, 0xbe,
  0x07, 0xe8, 0x67, 0xbe, 0xbf, 0xfc, 0x31, 0xbd, 0x5a, 0x9c, 0x24, 0xbe,
  0x88, 0x56, 0x06, 0x3e, 0x3c, 0xa7, 0x6f, 0x3d, 0xd4, 0xae, 0xbd, 0x3d,
  0xf0, 0xd7, 0x39, 0xbe, 0x4c, 0x33, 0x71, 0xbe, 0x8a, 0xfc, 0x4b, 0xbe,
  0x18, 0x58, 0x1a, 0xbe, 0x9c, 0xc2, 0xa2, 0x3d, 0xd9, 0x2f, 0x9f, 0x3d,
  0xbd, 0xc1, 0xd4, 0xbd, 0x4f, 0xee, 0x51, 0xbe, 0xc8, 0x94, 0xd5, 0x3d,
  0x50, 0x65, 0x32, 0xbe, 0xba, 0x8d, 0x1d, 0xbe, 0x06, 0xbf, 0x3d, 0x3c,
  0x38, 0xa3, 0xfd, 0x3c, 0xb0, 0xba, 0x3f, 0xbd, 0x2f, 0xa8, 0x1c, 0x3e,
  0x96, 0xd3, 0x47, 0xbd, 0xe9, 0x8b, 0xe4, 0xbd, 0x51, 0xf9, 0x51, 0xbd,
  0xe1, 0x52, 0xca, 0x3d, 0xdd, 0xcb, 0x6e, 0x3d, 0x30, 0xa4, 0xac, 0xbd,
  0xd6, 0x9f, 0xa0, 0xbd, 0xb5, 0xab, 0x87, 0x3d, 0xea, 0xae, 0xeb, 0xbd,
  0xe1, 0x16, 0xb0, 0x3d, 0xad, 0x5e, 0x3d, 0xbd, 0x08, 0xd5, 0xb6, 0x3d,
  0xfd, 0x43, 0x5a, 0xbe, 0x27, 0x76, 0x59, 0xbd, 0x38, 0x78, 0x96, 0xbd,
  0x90, 0x80, 0x26, 0x3e, 0x5f, 0x85, 0x0b, 0x3d, 0x7c, 0x86, 0x43, 0x3d,
  0xb2, 0x1c, 0x6e, 0xbe, 0xea, 0xd8, 0x00, 0x3e, 0x5f, 0xc5, 0x89, 0xbd,
  0x50, 0x33, 0x7e, 0xbe, 0x24, 0xfe, 0xd0, 0xbd, 0xc9, 0xfe, 0x8a, 0xbe,
  0xbe, 0x99, 0xf2, 0x3d, 0xff, 0x4a, 0x0e, 0x3d, 0xde, 0x84, 0x56, 0xbe,
  0x16, 0x59, 0x09, 0x3e, 0x9f, 0x1d, 0x97, 0xbd, 0x1d, 0x3b, 0xed, 0x3c,
  0xc2, 0x41, 0x2d, 0x3e, 0x34, 0x59, 0xd1, 0xbc, 0xe7, 0x7a, 0x27, 0x3e,
  0xd1, 0x54, 0x22, 0xbe, 0x60, 0x00, 0xaa, 0x3d, 0xc8, 0x34, 0x5e, 0xbe,
  0xae, 0x63, 0x07, 0x3e, 0x0d, 0xd0, 0xde, 0x3c, 0xc7, 0xc2, 0xe3, 0xbd,
  0xcc, 0xf5, 0x97, 0xbc, 0xf5, 0xa7, 0x41, 0xbe, 0x3c, 0x25, 0xf2, 0x3d,
  0xdd, 0xd3, 0x23, 0xbe, 0xd5, 0xb8, 0x2c, 0xbe, 0x87, 0xe1, 0x28, 0xbd,
  0xb3, 0x81, 0x07, 0x3e, 0x34, 0x29, 0x09, 0xbe, 0x6a, 0xef, 0x3c, 0xbe,
  0x0d, 0xc5, 0x99, 0xbb, 0x6a, 0x3d, 0x11, 0xbd, 0xe7, 0x8e, 0x0e, 0xbc,
  0x32, 0xab, 0x40, 0xbe, 0xfa, 0x99, 0x46, 0xbe, 0xc6, 0x67, 0x14, 0x3d,
  0x78, 0x98, 0xfd, 0xbd, 0x55, 0xfa, 0x63, 0xbe, 0xa6, 0xae, 0x7a, 0x3d,
  0xc5, 0x0c, 0xdd, 0xbd, 0x14, 0xfb, 0xd5, 0xbc, 0x1f, 0xb1, 0xfa, 0x3b,
  0xb6, 0x6f, 0x0d, 0xbe, 0x4f, 0x92, 0xcc, 0xbd, 0x9c, 0xee, 0xbf, 0xbd,
  0x12, 0xad, 0xef, 0xbc, 0x87, 0x1b, 0x84, 0xbd, 0x1b, 0xe6, 0x04, 0xbe,
  0x2e, 0x6f, 0x23, 0xbd, 0xa1, 0x04, 0xaa, 0x3d, 0x2b, 0xa1, 0x17, 0xbd,
  0xa6, 0x70, 0xbd, 0x3d, 0x09, 0xe0, 0x35, 0xba, 0x16, 0xda, 0x0a, 0xbe,
  0x55, 0x22, 0x5e, 0xbe, 0x3f, 0x37, 0x31, 0xbe, 0x3c, 0x43, 0x99, 0xbd,
  0x75, 0xf5, 0x21, 0xbd, 0x7c, 0x6b, 0x51, 0xbe, 0x06, 0x77, 0x03, 0x3e,
  0x17, 0x52, 0x6b, 0xbe, 0x7d, 0x99, 0x75, 0xbd, 0x99, 0x42, 0x7b, 0xbc,
  0xe4, 0x45, 0x10, 0x3d, 0x6a, 0xdb, 0x3f, 0xbe, 0x6e, 0x6e, 0x45, 0xbe,
  0x31, 0x36, 0xb7, 0xbd, 0x74, 0x29, 0xc1, 0xbe, 0xa0, 0xa7, 0xaa, 0x3d,
  0x97, 0xa5, 0x5e, 0xbe, 0xce, 0x40, 0xef, 0xbd, 0x89, 0x01, 0xb3, 0x3b,
  0xc8, 0x4a, 0xfd, 0x3b, 0xee, 0x49, 0xb3, 0x3c, 0x88, 0x86, 0xc8, 0x3e,
  0x67, 0xda, 0x89, 0xbd, 0xb2, 0x74, 0xaa, 0x3d, 0x58, 0xa9, 0x18, 0x3e,
  0xa1, 0x82, 0x06, 0xbe, 0x99, 0xbf, 0x01, 0xbd, 0x2f, 0x12, 0x9e, 0xbe,
  0x0b, 0xc6, 0x76, 0xbe, 0x5c, 0x70, 0x4e, 0xbe, 0x6a, 0x97, 0xa4, 0x3d,
  0x88, 0x67, 0x3c, 0xbd, 0xc6, 0xba, 0x45, 0xbe, 0x0b, 0xb3, 0xa4, 0xbb,
  0xb5, 0xb7, 0xa4, 0x3d, 0x0d, 0xce, 0xaf, 0x3c, 0x07, 0x0b, 0xba, 0xbd,
  0x80, 0xe3, 0x20, 0x3f, 0x26, 0x2e, 0x3d, 0xbd, 0x1b, 0xcd, 0x62, 0x3d,
  0x84, 0xc4, 0xe2, 0xbd, 0x8a, 0x4d, 0x6f, 0xbe, 0x86, 0x8d, 0xbe, 0xbd,
  0x98, 0x3b, 0x77, 0x3d, 0x82, 0x46, 0x29, 0xbd, 0xda, 0x6d, 0x4b, 0x3c,
  0x5f, 0xed, 0xca, 0x3d, 0xef, 0xce, 0xcb, 0x3d, 0x5a, 0x23, 0xc6, 0xbd,
  0x4f, 0x94, 0x48, 0x3d, 0x3b, 0xab, 0xf6, 0x3c, 0x80, 0x1f, 0x5c, 0x3d,
  0x6d, 0xdb, 0xce, 0x3c, 0xfb, 0xea, 0x2c, 0x3f, 0x24, 0xc9, 0xee, 0xbd,
  0x0f, 0xd1, 0x2c, 0x3e, 0x14, 0x22, 0x30, 0x3d, 0x48, 0xb1, 0x1c, 0xbd,
  0x49, 0xdd, 0x73, 0x3d, 0x1f, 0x08, 0x70, 0xbd, 0x74, 0x3d, 0xa0, 0xbd,
  0xc1, 0xde, 0x13, 0x3c, 0x73, 0x78, 0x9c, 0x3b, 0x51, 0xb2, 0x98, 0x3d,
  0x29, 0x22, 0x17, 0xbe, 0xa0, 0xda, 0x7a, 0xbd, 0xa3, 0xcc, 0x2d, 0xbe,
  0x09, 0xd5, 0x75, 0xbe, 0x78, 0xaf, 0xa6, 0x3d, 0xd7, 0x96, 0xc9, 0x3e,
  0xf5, 0x0f, 0xd1, 0xbd, 0x42, 0x10, 0x20, 0x3d, 0xea, 0x02, 0x9a, 0x3e,
  0x7d, 0x35, 0x60, 0xbe, 0xec, 0x29, 0x54, 0xbd, 0xe0, 0xfd, 0x25, 0xbe,
  0x78, 0x16, 0x3d, 0xbe, 0xbf, 0x80, 0x9c, 0x3d, 0x8a, 0x4e, 0x1c, 0xbe,
  0xe4, 0x8d, 0x06, 0xbe, 0x3b, 0x4c, 0xe3, 0x3b, 0x3c, 0x1a, 0x3e, 0x3d,
  0x30, 0x0e, 0xf6, 0x3d, 0x32, 0xe8, 0xcb, 0x3c, 0x7c, 0x3a, 0x91, 0xbe,
  0x40, 0x51, 0x2f, 0x3f, 0x10, 0xd2, 0x4d, 0xbe, 0x32, 0x8d, 0xdc, 0xbd,
  0x13, 0xb4, 0x80, 0x3e, 0x75, 0xef, 0x01, 0x3e, 0x9f, 0x90, 0x65, 0xbe,
  0x88, 0xea, 0x39, 0xbe, 0x0e, 0xbd, 0x48, 0x3d, 0x1b, 0x6f, 0xc7, 0x3d,
  0x92, 0x25, 0xd0, 0xbd, 0x18, 0x30, 0xd8, 0xbc, 0x63, 0x48, 0x66, 0xbe,
  0x4b, 0x7b, 0x7a, 0xbe, 0xc7, 0x69, 0x2e, 0x3e, 0xb0, 0xe0, 0x43, 0xbe,
  0x2b, 0xd6, 0x07, 0xbd, 0x16, 0xc5, 0x23, 0x3f, 0x55, 0x2c, 0x63, 0xbd,
  0xcc, 0x78, 0x08, 0xbe, 0x6e, 0xfa, 0xf0, 0xbc, 0xbc, 0xd9, 0x60, 0xbc,
  0x00, 0xd5, 0x14, 0x3d, 0xc1, 0x53, 0x99, 0xbe, 0xc6, 0x85, 0x0a, 0xbd,
  0xf7, 0xab, 0x4d, 0xbe, 0xa7, 0xb4, 0x94, 0x3c, 0x0f, 0x97, 0x6d, 0xbd,
  0x04, 0xbb, 0x70, 0xbe, 0x4b, 0x4e, 0x12, 0xbe, 0x84, 0xa3, 0x10, 0x3e,
  0xfd, 0x75, 0x8b, 0xbe, 0x1b, 0xa0, 0x4a, 0xbe, 0x4e, 0x3a, 0x5e, 0x3e,
  0xfd, 0x97, 0x09, 0x3e, 0x91, 0xfd, 0x55, 0x3d, 0x9d, 0xc5, 0x66, 0xbe,
  0x15, 0x47, 0xd6, 0xbd, 0x27, 0xdc, 0xa3, 0xbe, 0x75, 0x01, 0x01, 0xbd,
  0x7c, 0x47, 0x19, 0xbe, 0xa3, 0x69, 0x2c, 0xbe, 0x80, 0xa5, 0x2e, 0xbd,
  0x49, 0x6a, 0xaa, 0x3d, 0x5d, 0x7c, 0x9b, 0xbd, 0x9a, 0xbb, 0x3b, 0xbe,
  0x53, 0x88, 0x6a, 0x3d, 0x57, 0xb7, 0x8d, 0xbd, 0x37, 0x40, 0xc1, 0xbd,
  0x11, 0xd9, 0xd0, 0x3e, 0x2a, 0xff, 0x05, 0x3d, 0x52, 0x7f, 0x88, 0xbd,
  0x6d, 0x0f, 0xbd, 0xbd, 0x75, 0xbd, 0x7b, 0xbe, 0x94, 0x64, 0xf3, 0xbd,
  0xeb, 0x8f, 0xcd, 0xbb, 0xbc, 0x7e, 0x18, 0x3e, 0xfa, 0x9f, 0xad, 0xbc,
  0xcd, 0xf1, 0x2f, 0xbe, 0xe4, 0xe0, 0xbe, 0xba, 0xba, 0x8e, 0xfb, 0xbd,
  0x10, 0xa7, 0x93, 0xbd, 0xc4, 0x40, 0x25, 0xbe, 0xaa, 0x29, 0x20, 0xbc,
  0x0f, 0x67, 0xda, 0xbd, 0x66, 0x6c, 0x54, 0x3f, 0xd7, 0x79, 0x1d, 0x3d,
  0xf6, 0x40, 0x5f, 0xbe, 0x2e, 0x98, 0xe6, 0xbd, 0x07, 0x6f, 0x5f, 0xbe,
  0xf4, 0xb0, 0xce, 0xbd, 0x0e, 0x8e, 0xc4, 0xbc, 0x04, 0x4d, 0x5a, 0x3d,
  0x4f, 0x0d, 0xe0, 0xbd, 0x27, 0xf9, 0xca, 0x3c, 0xdb, 0x43, 0x82, 0xbd,
  0x54, 0xcb, 0xdd, 0xbd, 0xce, 0xef, 0xa7, 0xbe, 0x41, 0xbb, 0xa4, 0x3d,
  0xfd, 0x3d, 0x1f, 0xbc, 0xa4, 0x0c, 0x15, 0xbe, 0x6f, 0xc8, 0x93, 0x3f,
  0x51, 0xd5, 0xd7, 0xbd, 0x2f, 0x22, 0x89, 0x3c, 0xfc, 0x21, 0x05, 0x3e,
  0x69, 0x62, 0xe7, 0x3d, 0x68, 0x07, 0x0d, 0xbe, 0x29, 0x00, 0x14, 0x3d,
  0xa4, 0x7c, 0xb0, 0xbe, 0xbd, 0x70, 0x9c, 0xbe, 0x54, 0x6d, 0x82, 0xbe,
  0x01, 0xec, 0x5c, 0xbe, 0x32, 0xb4, 0x0b, 0xbe, 0x57, 0xb4, 0xdb, 0xbe,
  0xf0, 0x38, 0xb4, 0x3d, 0xcb, 0x63, 0x47, 0xbe, 0x0c, 0xef, 0x13, 0xbe,
  0xe1, 0x4f, 0x60, 0x3f, 0xb3, 0x17, 0x1d, 0xbe, 0xa7, 0x92, 0x7f, 0xbe,
  0x2d, 0xe6, 0x6d, 0xbe, 0x42, 0x1b, 0xcf, 0xbe, 0x4c, 0x6d, 0x82, 0xbe,
  0x33, 0xdd, 0x73, 0xbd, 0xf6, 0x91, 0xdf, 0x3e, 0xb5, 0x22, 0x69, 0xbd,
  0x10, 0xb8, 0xa5, 0xbd, 0xe7, 0x2b, 0x71, 0x3d, 0xca, 0xe9, 0xdb, 0xbc,
  0x86, 0xde, 0xf6, 0xbd, 0x93, 0x6b, 0x30, 0xbd, 0xb1, 0x4b, 0x9e, 0xbe,
  0x9c, 0xad, 0xcd, 0xbd, 0x06, 0x4c, 0x1e, 0x3f, 0x71, 0xbe, 0x19, 0x3f,
  0xdc, 0x5e, 0x7f, 0xbc, 0xf5, 0x37, 0x96, 0xbd, 0x13, 0x94, 0x34, 0xbe,
  0xa0, 0xe1, 0x3a, 0xbe, 0xb4, 0x09, 0xe6, 0x3d, 0xd6, 0xde, 0x47, 0x3f,
  0x1d, 0x2f, 0x9a, 0x3e, 0x35, 0xc7, 0x85, 0xbc, 0x41, 0x1f, 0xc3, 0xbc,
  0xdb, 0x9c, 0x87, 0xbd, 0xb3, 0x65, 0x47, 0xbd, 0xbf, 0x83, 0xfa, 0x3c,
  0xc6, 0xb1, 0xe3, 0x3c, 0x4f, 0x4f, 0x16, 0xbc, 0x81, 0x3b, 0x9c, 0x3f,
  0x85, 0x63, 0x9a, 0x3e, 0xab, 0x3c, 0x57, 0x3e, 0x52, 0x52, 0x1a, 0x3e,
  0xe2, 0x6c, 0x07, 0x3f, 0xdd, 0x96, 0x14, 0x3d, 0x32, 0xa6, 0x38, 0xbd,
  0xfa, 0xcb, 0xb9, 0x3e, 0xb6, 0x0c, 0x12, 0x3e, 0x7e, 0x6e, 0x80, 0xbc,
  0x7c, 0x75, 0x57, 0xbd, 0xdd, 0xfd, 0xe7, 0xbb, 0x80, 0x9e, 0x9d, 0x3e,
  0x51, 0xeb, 0xac, 0x3d, 0xd5, 0xe5, 0x9a, 0x3c, 0xec, 0x6a, 0x5b, 0x3d,
  0x44, 0x09, 0x9d, 0x3d, 0x3f, 0x5d, 0xc3, 0x3e, 0x74, 0xcb, 0xc0, 0x3e,
  0xa3, 0xff, 0x15, 0x3f, 0x4b, 0xfd, 0xd7, 0x3e, 0x64, 0x91, 0xb4, 0x3e,
  0x74, 0x2d, 0xf5, 0xbd, 0xc1, 0xb4, 0x8b, 0x3d, 0x9d, 0x1d, 0xab, 0xbd,
  0x1e, 0x29, 0x52, 0xbe, 0x0d, 0xa5, 0xfc, 0x3e, 0xcc, 0x60, 0xa4, 0xbd,
  0xd2, 0xcc, 0xc3, 0x3d, 0x64, 0xeb, 0x20, 0x3e, 0xbe, 0x23, 0x91, 0xbe,
  0xb9, 0x1e, 0x11, 0xbf, 0xd7, 0xfc, 0xba, 0xbe, 0xba, 0xe7, 0xce, 0xbd,
  0x2e, 0xfa, 0xe9, 0xbc, 0xf6, 0x60, 0x94, 0x3e, 0xaa, 0x99, 0xf9, 0xbc,
  0xf7, 0x4b, 0x8e, 0x3c, 0xd5, 0x9b, 0x12, 0xbe, 0x6f, 0x28, 0x78, 0x3e,
  0xba, 0xf0, 0x8c, 0x3e, 0x5a, 0xc2, 0x53, 0xbc, 0x55, 0x47, 0xdc, 0x3e,
  0xa2, 0xaf, 0x07, 0xbe, 0x4a, 0x6c, 0x8f, 0x3d, 0x35, 0x44, 0x16, 0xbd,
  0xbd, 0x9a, 0x97, 0xbd, 0x5c, 0x86, 0x13, 0xbf, 0x33, 0x21, 0x62, 0xbe,
  0x46, 0x0a, 0xe2, 0xbd, 0x88, 0x93, 0xa7, 0x3e, 0x66, 0xff, 0xb7, 0x3e,
  0x22, 0x94, 0x1c, 0x3d, 0xca, 0x65, 0xd6, 0x3d, 0xcf, 0xe4, 0x42, 0xbe,
  0xa1, 0x3e, 0x6c, 0x3e, 0x55, 0x7b, 0x8f, 0x3e, 0xf7, 0x4c, 0xcb, 0xbd,
  0x45, 0x34, 0xea, 0x3e, 0x50, 0x89, 0x04, 0xbe, 0xfa, 0xea, 0x93, 0xbc,
  0xdf, 0x21, 0x7b, 0x3d, 0x0d, 0x5d, 0x16, 0x3e, 0x99, 0x90, 0x03, 0xbf,
  0xa2, 0x45, 0x32, 0xbe, 0x8f, 0x5d, 0xaf, 0x3e, 0xe7, 0xd1, 0xd4, 0x3e,
  0xb0, 0x57, 0xb5, 0x3e, 0xbf, 0xe2, 0x26, 0x3c, 0xba, 0x77, 0x7d, 0x3d,
  0x5e, 0x12, 0x30, 0x3d, 0x74, 0xf9, 0xc2, 0x3e, 0xda, 0xd5, 0xad, 0x3e,
  0x7e, 0x14, 0x21, 0xbd, 0x95, 0x64, 0xf3, 0x3e, 0xcd, 0xb3, 0x17, 0xbd,
  0x84, 0xa7, 0x62, 0xbd, 0x81, 0xfa, 0xd2, 0x3d, 0x73, 0xf7, 0x05, 0xbd,
  0x42, 0xa4, 0xd6, 0xbd, 0x6d, 0x69, 0x32, 0xbe, 0x53, 0xac, 0xa9, 0x3e,
  0xe2, 0xab, 0x73, 0xbd, 0x5e, 0xb1, 0x87, 0x3e, 0xbf, 0x68, 0x10, 0x3e,
  0x0c, 0x2d, 0xa8, 0xbc, 0x21, 0xd9, 0xc2, 0x3d, 0x27, 0xfe, 0x92, 0x3e,
  0x1a, 0x7a, 0x97, 0x3e, 0x09, 0x18, 0x98, 0x3d, 0xb9, 0xfc, 0xa3, 0x3e,
  0x5e, 0x1a, 0x66, 0xbd, 0x8a, 0x92, 0x86, 0xbd, 0x42, 0xc4, 0xea, 0x3d,
  0x15, 0xd2, 0x5e, 0xbd, 0x16, 0x7d, 0xb1, 0xbe, 0x95, 0xa7, 0x98, 0xbe,
  0x11, 0x6b, 0x2f, 0xbe, 0xf9, 0xd0, 0xb5, 0x3e, 0xd0, 0x9c, 0x9a, 0x3e,
  0xc9, 0x0b, 0x5d, 0x3e, 0xab, 0xc1, 0xd4, 0x3c, 0x53, 0xa7, 0x50, 0xbe,
  0x08, 0xc9, 0xb7, 0x3d, 0x8a, 0x4b, 0x13, 0x3e, 0xaa, 0xbd, 0xca, 0xbd,
  0xa2, 0x5a, 0xae, 0x3e, 0xae, 0x97, 0xe7, 0xbd, 0x34, 0x50, 0x6b, 0xbe,
  0x40, 0x23, 0xad, 0x3c, 0x84, 0xcb, 0xac, 0xbd, 0xdc, 0xa0, 0xc7, 0xbe,
  0x54, 0x63, 0xb4, 0xbe, 0x18, 0xa1, 0x1e, 0x3e, 0xa0, 0x07, 0xe9, 0xbc,
  0xe9, 0xb8, 0x6c, 0x3e, 0x32, 0xeb, 0x05, 0x3e, 0xce, 0xf9, 0x8e, 0x3d,
  0x5f, 0x94, 0x3f, 0xbe, 0x27, 0xf2, 0x24, 0x3d, 0x8f, 0x6b, 0x32, 0x3e,
  0xa9, 0x55, 0xac, 0xbe, 0x74, 0x92, 0x36, 0x3e, 0x87, 0xac, 0x3d, 0xbe,
  0xc5, 0xa6, 0x36, 0xbe, 0xe6, 0xa6, 0x6e, 0x3e, 0x6e, 0x3b, 0xd4, 0xbd,
  0x49, 0xbd, 0xe6, 0xbe, 0x08, 0xbb, 0x0c, 0x3f, 0xf8, 0x36, 0x45, 0xbe,
  0x00, 0x08, 0xc5, 0xbd, 0xb7, 0x4f, 0x34, 0xbc, 0x9f, 0x37, 0xcb, 0x3d,
  0x35, 0x49, 0xfb, 0x3d, 0xf2, 0x24, 0x3c, 0xbe, 0xb6, 0x09, 0x7d, 0xbe,
  0xf6, 0xdd, 0xd1, 0xbe, 0xc5, 0x2e, 0x82, 0xbd, 0xb4, 0xb3, 0x63, 0xbe,
  0x01, 0xa2, 0x2f, 0xbc, 0x2a, 0x28, 0x80, 0xbd, 0x26, 0x1b, 0xf0, 0x3d,
  0xe5, 0xa5, 0x70, 0x3e, 0xdb, 0x80, 0xf1, 0x3d, 0x33, 0xe7, 0x09, 0xbe,
  0x13, 0x78, 0x25, 0xbe, 0xe9, 0x1b, 0x8a, 0xbd, 0xf2, 0x1c, 0x06, 0xbe,
  0xe2, 0x11, 0x8b, 0xbe, 0xd5, 0xb5, 0xae, 0x3c, 0x0b, 0x7b, 0x51, 0xbe,
  0xc0, 0x68, 0xe6, 0xbe, 0xc7, 0x2d, 0x5e, 0xbe, 0x16, 0x37, 0x2b, 0xbc,
  0xca, 0x94, 0x11, 0xbe, 0xae, 0xc4, 0xb2, 0xbc, 0x57, 0xcd, 0x22, 0x3e,
  0x39, 0xbc, 0x93, 0x3d, 0xa9, 0xa8, 0x84, 0xbd, 0x23, 0x78, 0x42, 0x3e,
  0xd2, 0xa4, 0xa5, 0xbd, 0x68, 0xcb, 0x16, 0xbe, 0x3c, 0x44, 0x8c, 0xbd,
  0xa9, 0xf4, 0x20, 0xbe, 0x04, 0x53, 0x01, 0xbe, 0x6e, 0xd7, 0x20, 0x3c,
  0xf0, 0xb9, 0x52, 0xbe, 0x69, 0xb1, 0x77, 0xbe, 0x16, 0x59, 0x19, 0xbe,
  0x3b, 0x7a, 0x6a, 0x3e, 0xd6, 0x84, 0x08, 0xbd, 0x3a, 0x8c, 0x86, 0xbb,
  0x8c, 0x5b, 0x95, 0x3e, 0x22, 0x75, 0x48, 0x3b, 0x36, 0x75, 0xaa, 0xbd,
  0x7d, 0xe7, 0xc9, 0x3d, 0xcb, 0x26, 0xe6, 0x3b, 0xbb, 0x61, 0x5e, 0xbe,
  0x1b, 0x1d, 0x47, 0xbe, 0x53, 0x40, 0x15, 0xbe, 0x2e, 0xfe, 0x6d, 0xbe,
  0x6d, 0x6f, 0x84, 0x3c, 0x3f, 0x1f, 0x6f, 0xbe, 0x4a, 0x70, 0xed, 0xbe,
  0x7b, 0x6f, 0xd5, 0xbe, 0xb3, 0xd4, 0x38, 0x3e, 0x2f, 0x4f, 0x43, 0xbe,
  0x62, 0x47, 0x0a, 0x3c, 0x41, 0x1a, 0x09, 0x3e, 0x7b, 0xf6, 0x0a, 0xbe,
  0xce, 0xea, 0x48, 0x3e, 0xb6, 0x59, 0x60, 0xbd, 0xcf, 0xfc, 0xd8, 0x3a,
  0xe6, 0xab, 0x13, 0xbe, 0x2e, 0x96, 0xf2, 0xbe, 0x9b, 0xda, 0x13, 0xbe,
  0xe0, 0x65, 0x21, 0xbe, 0xb4, 0xea, 0xc8, 0xbc, 0xc0, 0x69, 0x10, 0xbe,
  0x78, 0xef, 0x95, 0x3e, 0x99, 0x25, 0xf6, 0xbd, 0x8c, 0xb2, 0x53, 0x3d,
  0xd4, 0xaf, 0xd9, 0xbe, 0x1d, 0x50, 0xc5, 0xbc, 0x24, 0x51, 0xc8, 0x3d,
  0x31, 0x97, 0xa7, 0x3a, 0x87, 0xf1, 0xf5, 0x3d, 0xd1, 0x1b, 0x86, 0x3c,
  0x8d, 0x3a, 0xa8, 0x3c, 0xc3, 0x08, 0xdf, 0x3d, 0x8f, 0xbf, 0x57, 0xbe,
  0x4a, 0x3b, 0x03, 0xbe, 0xfa, 0xb1, 0x71, 0xbd, 0x06, 0x02, 0x06, 0xbc,
  0xe2, 0x8d, 0x34, 0xbe, 0xdf, 0x7c, 0x35, 0x3e, 0xf9, 0xd6, 0xaf, 0xbe,
  0x32, 0xc6, 0x0e, 0x3c, 0xca, 0x4d, 0x04, 0xbf, 0xf9, 0xcf, 0x91, 0xbc,
  0xdd, 0x56, 0x02, 0x3e, 0xa3, 0x4d, 0x4c, 0x3e, 0x15, 0x23, 0x52, 0xbc,
  0x95, 0xc3, 0xa8, 0x3d, 0x98, 0x8e, 0x1a, 0x3e, 0xf5, 0xcc, 0x15, 0xbe,
  0xce, 0x8b, 0x6a, 0xbe, 0x0b, 0x35, 0x79, 0x3c, 0x36, 0x4b, 0x12, 0x3d,
  0xd2, 0xd7, 0xbd, 0xbb, 0x43, 0xe6, 0x53, 0xbe, 0x62, 0x00, 0xd4, 0x3d,
  0x23, 0x53, 0x33, 0xbe, 0xa3, 0x60, 0x2a, 0x3b, 0x43, 0xfb, 0xbc, 0xbe,
  0xbc, 0x52, 0xad, 0xbc, 0x4d, 0xa5, 0xa8, 0x3d, 0x59, 0x27, 0x2e, 0xbd,
  0xe7, 0x4f, 0x23, 0x3d, 0x36, 0xc8, 0xdb, 0x3d, 0x54, 0x3f, 0xad, 0xbe,
  0xdd, 0x96, 0xe8, 0xbb, 0x89, 0x82, 0x47, 0x3e, 0x9f, 0xd2, 0x5f, 0x3e,
  0xed, 0xc6, 0x2d, 0x3d, 0x6f, 0x92, 0x88, 0x3d, 0xe4, 0xe8, 0x6f, 0xbe,
  0x39, 0xad, 0xd0, 0xbd, 0xf9, 0x7f, 0xb0, 0xbd, 0xce, 0x81, 0x48, 0xbd,
  0x39, 0x2a, 0xd7, 0xbd, 0xf7, 0x77, 0x65, 0xbe, 0x07, 0x66, 0x95, 0xbd,
  0x17, 0xaf, 0x74, 0x3b, 0xb9, 0x9b, 0x3d, 0xbe, 0x79, 0xd5, 0x3c, 0xbe,
  0xf5, 0xa6, 0xee, 0x3e, 0x44, 0x05, 0xa5, 0xbd, 0x7f, 0x19, 0x3b, 0x3e,
  0x40, 0x65, 0xfd, 0xbd, 0xda, 0x6e, 0x95, 0xbd, 0x50, 0x9c, 0x77, 0xbe,
  0xb6, 0xbf, 0x2c, 0xbe, 0xc7, 0x09, 0xe2, 0x3c, 0x1d, 0x07, 0x73, 0xbe,
  0x0d, 0x6f, 0xfe, 0xbc, 0x8d, 0x82, 0x61, 0xbe, 0x96, 0x5d, 0x50, 0xbe,
  0xeb, 0x0f, 0x34, 0x3e, 0x3c, 0xb2, 0xf9, 0xbd, 0x89, 0xd0, 0x61, 0xbc,
  0xd5, 0xb9, 0x05, 0xbe, 0x7a, 0x47, 0x24, 0x3f, 0xec, 0x8d, 0x95, 0x3d,
  0x55, 0x13, 0x8a, 0xbd, 0xf0, 0xdc, 0xac, 0x3c, 0x65, 0xaf, 0x87, 0xbe,
  0xdd, 0xa7, 0x93, 0x3c, 0x65, 0x83, 0x9a, 0xbd, 0x1d, 0xbb, 0x32, 0x3d,
  0x7f, 0x4d, 0xbd, 0x3d, 0xf9, 0x7f, 0xa8, 0xbe, 0x19, 0xd6, 0x62, 0x3d,
  0xaa, 0x8b, 0x8c, 0xbe, 0x84, 0x15, 0x6f, 0x3e, 0x71, 0x4a, 0x15, 0xbe,
  0x49, 0xb9, 0xd9, 0xbd, 0x92, 0x59, 0x55, 0xbc, 0xd2, 0x85, 0x4a, 0x3f,
  0xe7, 0x5f, 0xe0, 0xbd, 0x38, 0x2b, 0xd3, 0x3d, 0xd9, 0xd6, 0x98, 0x3d,
  0x78, 0xd8, 0x0e, 0x3d, 0x2c, 0x96, 0x4e, 0xbe, 0x87, 0x0b, 0xe8, 0xbd,
  0xdf, 0x31, 0x1f, 0xbd, 0x1c, 0x92, 0xf9, 0xbc, 0x9a, 0x84, 0xb0, 0x3b,
  0xdf, 0x97, 0xd8, 0xbd, 0x1b, 0xac, 0x83, 0xbe, 0xa2, 0x56, 0x21, 0xbe,
  0x8e, 0x9c, 0x01, 0xbe, 0x05, 0x67, 0x8b, 0xbd, 0x30, 0xf4, 0x65, 0xbd,
  0xb4, 0x62, 0xf0, 0x3e, 0x22, 0xf0, 0x24, 0x3e, 0xbb, 0x3f, 0x51, 0x3e,
  0x8a, 0x4b, 0x2b, 0xbe, 0x8a, 0x9d, 0x8e, 0xbd, 0x80, 0xf2, 0x01, 0xbe,
  0x93, 0xf1, 0xfe, 0x3c, 0x64, 0x89, 0x96, 0xbd, 0x24, 0x5e, 0x0e, 0xbe,
  0xa4, 0x90, 0x2c, 0xbe, 0x87, 0x7c, 0xb2, 0x3b, 0x00, 0xf7, 0x5e, 0xbc,
  0xfb, 0x7e, 0x28, 0xbe, 0x31, 0x36, 0x48, 0x3e, 0x98, 0x5f, 0x39, 0xbe,
  0x7b, 0xbb, 0xff, 0x3c, 0x7c, 0x22, 0xa3, 0x3f, 0x5c, 0xce, 0x04, 0x3e,
  0x2e, 0x81, 0x68, 0xbe, 0xb2, 0x65, 0x57, 0x3e, 0x8a, 0xfe, 0x64, 0xbe,
  0x39, 0xb9, 0x41, 0xbe, 0x51, 0xdc, 0x9c, 0xbe, 0x63, 0x0b, 0xe0, 0x3d,
  0x7e, 0x51, 0x23, 0xbe, 0x7f, 0x90, 0xa9, 0xbe, 0x8e, 0x4c, 0x12, 0x3e,
  0xd5, 0xbe, 0xc8, 0x3c, 0x56, 0x8d, 0x27, 0xbd, 0x8e, 0x43, 0x4f, 0x3d,
  0x13, 0xc5, 0xb9, 0xbd, 0x25, 0x30, 0x01, 0xbe, 0xcf, 0xaa, 0x01, 0x3f,
  0x18, 0x6b, 0xda, 0x3d, 0xf0, 0x73, 0xa0, 0x3d, 0x6c, 0xf1, 0xc8, 0x3d,
  0xc3, 0x76, 0x48, 0x3d, 0x78, 0x4b, 0x84, 0xbd, 0xbe, 0x0b, 0x38, 0xbe,
  0xd5, 0xb1, 0x29, 0xbd, 0x62, 0x4e, 0xb4, 0xbb, 0xd0, 0x9e, 0x6e, 0xbe,
  0xee, 0x71, 0xb4, 0x3d, 0xcf, 0xd8, 0x8c, 0xbe, 0x18, 0x8c, 0x79, 0xbc,
  0x76, 0x09, 0x08, 0x3e, 0x0f, 0xaf, 0x34, 0xbe, 0xd8, 0xbe, 0x2a, 0x3c,
  0x7c, 0x0a, 0x28, 0x3e, 0xed, 0x07, 0x13, 0xbe, 0x0b, 0x04, 0x16, 0x3e,
  0x60, 0x5c, 0xbb, 0x3c, 0x4b, 0xab, 0x4d, 0x3d, 0xf9, 0x54, 0x06, 0xbe,
  0xd5, 0x2b, 0x78, 0xbe, 0xb5, 0xaa, 0xb4, 0x3d, 0x18, 0x0e, 0x4a, 0xbd,
  0xb9, 0xc5, 0x49, 0xbe, 0x94, 0x4c, 0x63, 0xbc, 0xff, 0xa4, 0xd4, 0xbc,
  0x46, 0x78, 0x91, 0xbe, 0x64, 0x49, 0x62, 0xbe, 0x5a, 0x4c, 0xa3, 0xbc,
  0xfb, 0x9a, 0xe4, 0xbb, 0xff, 0x19, 0xfc, 0x3c, 0x0a, 0x3b, 0x1a, 0xbe,
  0x54, 0x10, 0x57, 0x3d, 0xe8, 0x07, 0x47, 0x3b, 0xd9, 0x75, 0x07, 0xbe,
  0x80, 0xcc, 0x36, 0xbe, 0x1f, 0x7e, 0xd7, 0x3c, 0x21, 0x79, 0x14, 0xbe,
  0x5a, 0x90, 0x1b, 0x3d, 0x2f, 0x3f, 0x97, 0xbd, 0xbb, 0xb2, 0x8d, 0x3e,
  0xd2, 0xa3, 0xf4, 0xbd, 0x49, 0x77, 0x41, 0x3e, 0x8d, 0x96, 0x41, 0x3e,
  0x26, 0x9b, 0x0e, 0xbe, 0xd9, 0x58, 0xe2, 0xbd, 0x4f, 0x58, 0x20, 0xbe,
  0xb3, 0x92, 0x37, 0x3e, 0x99, 0x5b, 0x12, 0x3e, 0x98, 0x85, 0xa9, 0x3d,
  0x91, 0xfe, 0x75, 0xbe, 0xb0, 0xce, 0xfc, 0x3c, 0x1f, 0xea, 0x62, 0xbe,
  0xfa, 0x69, 0x14, 0x3c, 0x1b, 0x2c, 0x75, 0x3e, 0x92, 0x42, 0xab, 0xbe,
  0xc0, 0x07, 0xdc, 0x3d, 0x5d, 0x69, 0xd8, 0xbd, 0xf7, 0x3b, 0x63, 0xbe,
  0xfc, 0xbb, 0x47, 0xbe, 0xfe, 0x62, 0x91, 0xbe, 0x8b, 0xeb, 0xd0, 0xbc,
  0x21, 0x6d, 0x6e, 0x3d, 0x07, 0xb4, 0xbd, 0x3d, 0x0c, 0xcc, 0x80, 0xbd,
  0x24, 0x3a, 0xf5, 0xbd, 0x09, 0x44, 0x9a, 0xbd, 0xed, 0x8c, 0xc8, 0xbd,
  0x1c, 0x5d, 0x3b, 0x3d, 0x63, 0x98, 0x3b, 0x3e, 0x24, 0x0d, 0x17, 0xbe,
  0xb8, 0x8b, 0x3d, 0xbe, 0x4a, 0x71, 0x92, 0x3e, 0x88, 0xdc, 0x85, 0xbd,
  0xa8, 0x81, 0x50, 0xbd, 0xc6, 0xd7, 0xcf, 0x3d, 0xcc, 0xe9, 0xa7, 0xbd,
  0xcb, 0xdb, 0x0b, 0x3e, 0x39, 0x5c, 0x2d, 0xbd, 0xcb, 0x79, 0x99, 0x3d,
  0x87, 0x59, 0x3b, 0xbe, 0x9e, 0x67, 0x1c, 0x3e, 0xfc, 0x34, 0xe1, 0x3d,
  0x55, 0x9b, 0x40, 0x3b, 0x2e, 0x14, 0xa9, 0xbd, 0x5d, 0x26, 0x1b, 0x3e,
  0x8d, 0xdf, 0x07, 0x3c, 0x33, 0x94, 0xa4, 0xbd, 0xdc, 0x6d, 0x28, 0xbe,
  0xa7, 0x60, 0x1e, 0xbe, 0x00, 0xd2, 0xb0, 0xbb, 0xdf, 0x19, 0x4c, 0xbe,
  0xd2, 0x9b, 0xe4, 0xbd, 0xd2, 0x1c, 0x23, 0x3d, 0x7f, 0xaa, 0x09, 0x3d,
  0x26, 0xab, 0x29, 0x3e, 0x96, 0x72, 0x16, 0xbe, 0xc6, 0xa8, 0x2e, 0xbb,
  0xd7, 0x1a, 0xd4, 0x3c, 0xf9, 0xd5, 0x51, 0x3d, 0xca, 0x50, 0xe9, 0xbd,
  0x36, 0xe7, 0x32, 0xbe, 0xa3, 0xf0, 0x46, 0xbe, 0xa9, 0x44, 0x22, 0xbd,
  0x93, 0x17, 0x99, 0xbd, 0xc6, 0x52, 0x3b, 0xbe, 0x6e, 0xf6, 0x5e, 0x3d,
  0x3c, 0x2c, 0x04, 0xbe, 0x42, 0x2e, 0x4f, 0xbe, 0xa5, 0xe3, 0x34, 0xbe,
  0xdc, 0x4a, 0xee, 0xbd, 0x21, 0x15, 0x75, 0xbe, 0x6f, 0x27, 0xca, 0x3c,
  0xf0, 0x12, 0x09, 0x3e, 0x30, 0xb1, 0xcc, 0x3d, 0xf3, 0x02, 0x3e, 0xbc,
  0x8c, 0x85, 0x43, 0xbe, 0x4c, 0x51, 0x22, 0xbe, 0x69, 0xcc, 0x13, 0x3e,
  0xa9, 0x73, 0x06, 0xbd, 0x05, 0x59, 0xf7, 0xbc, 0x71, 0x4d, 0x78, 0xbe,
  0x6e, 0x5a, 0xd9, 0xbd, 0xb4, 0x1d, 0x16, 0xbd, 0x8d, 0xb8, 0x20, 0xbd,
  0xd2, 0xb5, 0x27, 0xbe, 0xe5, 0x5a, 0x29, 0xbe, 0xf7, 0x84, 0x39, 0xbe,
  0xa3, 0x2f, 0xe7, 0x3d, 0x22, 0xd2, 0xb8, 0xbd, 0xfb, 0x4d, 0xbc, 0xbd,
  0x0c, 0xbe, 0x5a, 0xbe, 0xf0, 0x72, 0x61, 0xbe, 0x9b, 0x51, 0xa3, 0xbd,
  0x70, 0xdc, 0x92, 0xbc, 0x2b, 0xee, 0xc0, 0xbc, 0xad, 0xfa, 0x4d, 0xbd,
  0x72, 0xe4, 0x01, 0xbe, 0x42, 0x4c, 0xdd, 0xbd, 0xa1, 0x28, 0x51, 0xbd,
  0xf9, 0xac, 0xff, 0x3c, 0x83, 0xd8, 0x80, 0x3d, 0x62, 0xa5, 0xb8, 0xbd,
  0xfd, 0xe5, 0x07, 0xbe, 0x46, 0xe1, 0xea, 0xbd, 0x85, 0x26, 0x25, 0x3e,
  0x11, 0xfa, 0x18, 0xbe, 0x5a, 0x7c, 0x46, 0xbd, 0xc3, 0xf8, 0x84, 0x3d,
  0x49, 0xbc, 0x35, 0x3e, 0x44, 0x2d, 0xb6, 0x3d, 0xca, 0x9c, 0x3c, 0xbc,
  0x96, 0x95, 0x4e, 0x3c, 0x9f, 0xbf, 0x8d, 0xbd, 0x66, 0x20, 0x7c, 0xbe,
  0xac, 0x91, 0xd8, 0x3d, 0xc6, 0x2c, 0x77, 0xbe, 0xe2, 0x44, 0x7a, 0xbd,
  0xdf, 0x4e, 0xb0, 0xbd, 0xd2, 0xee, 0x05, 0x3e, 0x50, 0x82, 0x70, 0x3c,
  0x16, 0xe7, 0x45, 0x3e, 0x75, 0x52, 0xa9, 0xbd, 0xb3, 0x75, 0x4c, 0xbe,
  0xe9, 0x2e, 0xed, 0x3d, 0x98, 0x99, 0xcc, 0xbd, 0xc8, 0x43, 0x0e, 0xbe,
  0xac, 0xcc, 0x74, 0xbd, 0xa5, 0x3c, 0xfd, 0xbd, 0x33, 0xed, 0xb0, 0xbd,
  0xb4, 0x95, 0xf1, 0xbd, 0xb4, 0x07, 0x3b, 0x3e, 0xfa, 0x5f, 0x89, 0xbd,
  0xae, 0x2b, 0x5f, 0x3d, 0x26, 0xa3, 0xbc, 0x3d, 0xec, 0xc0, 0x7b, 0xbb,
  0xdf, 0x38, 0xf3, 0xbd, 0x15, 0x9d, 0x2c, 0x3e, 0x37, 0x1f, 0x11, 0xbe,
  0xfb, 0x75, 0x00, 0x3e, 0xbe, 0x3e, 0x46, 0x3c, 0x0e, 0x16, 0x0d, 0x3e,
  0x1d, 0xad, 0xb3, 0x3d, 0xaf, 0xd1, 0x9a, 0xbd, 0x53, 0x57, 0x91, 0xbe,
  0xcd, 0x6b, 0x5d, 0xbe, 0x51, 0x1f, 0x8c, 0x3d, 0x5e, 0x42, 0x29, 0x3e,
  0xe2, 0xf7, 0x89, 0x3c, 0x87, 0xa2, 0x54, 0xbe, 0x75, 0x78, 0x98, 0x3d,
  0x66, 0x3c, 0x05, 0xbe, 0x9c, 0xea, 0x20, 0x3d, 0xb3, 0x9f, 0x63, 0x3e,
  0xa3, 0x36, 0x5b, 0xbe, 0x11, 0x2a, 0x79, 0xbe, 0xad, 0xcd, 0x7b, 0xbe,
  0x76, 0xa8, 0x1b, 0x3e, 0x8c, 0x37, 0x95, 0xbc, 0xc7, 0x4d, 0x38, 0xbe,
  0xee, 0x5a, 0xae, 0xbd, 0x49, 0x61, 0xc3, 0xbd, 0xe4, 0xdb, 0xbc, 0xbd,
  0x46, 0x38, 0xeb, 0x3c, 0x09, 0xd4, 0x88, 0xbc, 0x1f, 0xe9, 0x0d, 0xbe,
  0x43, 0xc3, 0x25, 0xbe, 0x08, 0x4e, 0x52, 0x3d, 0xec, 0x87, 0x60, 0x3e,
  0x65, 0x34, 0xe9, 0xbd, 0x0e, 0xcc, 0xb5, 0xbd, 0xf0, 0x9b, 0x2f, 0xbd,
  0x81, 0xfc, 0x64, 0xbe, 0x2c, 0x61, 0x27, 0x3e, 0x61, 0xd3, 0x21, 0xbe,
  0xc6, 0x64, 0x84, 0x3c, 0xfd, 0xce, 0xad, 0x3c, 0x81, 0xad, 0x87, 0xbd,
  0xda, 0x4b, 0x3a, 0xbe, 0x11, 0x2d, 0xcd, 0xbc, 0x85, 0x78, 0xea, 0x3c,
  0xac, 0x2a, 0x84, 0xbe, 0x68, 0xa4, 0xce, 0x3b, 0xa1, 0x23, 0xf6, 0xbd,
  0x4b, 0x79, 0x67, 0x3d, 0xd1, 0x63, 0xb0, 0xbd, 0x26, 0xf3, 0x0d, 0xbe,
  0x81, 0xb5, 0xfd, 0xbd, 0xdb, 0xbd, 0x4c, 0xbe, 0x03, 0xc1, 0x5a, 0xbd,
  0x6b, 0x4a, 0x6c, 0xbe, 0x07, 0x14, 0x26, 0xbe, 0xbf, 0xcd, 0xf5, 0xbd,
  0x2c, 0xc5, 0x90, 0xbd, 0x0b, 0xcf, 0x16, 0xbe, 0x14, 0x08, 0x23, 0x3c,
  0x71, 0x82, 0x82, 0xbc, 0x8b, 0xcf, 0x48, 0xbe, 0x32, 0x18, 0xf0, 0xbc,
  0xc8, 0x00, 0x03, 0x3e, 0x30, 0x2a, 0x45, 0x3d, 0x1e, 0xec, 0xfb, 0xbd,
  0xc8, 0xd6, 0xc2, 0x3d, 0x44, 0x8e, 0x68, 0xbd, 0xce, 0x9a, 0xb0, 0xbc,
  0x52, 0x75, 0x12, 0xbe, 0xf0, 0x09, 0x14, 0xbe, 0xb1, 0x50, 0x3f, 0xbe,
  0xdb, 0x45, 0x0e, 0xbd, 0xfa, 0x52, 0x5a, 0xbd, 0xfb, 0x47, 0x8b, 0x3b,
  0x56, 0x49, 0x1e, 0x3e, 0x06, 0x45, 0x34, 0xbd, 0xec, 0xad, 0x80, 0xbe,
  0x1c, 0xca, 0xfb, 0x3e, 0xf8, 0xe8, 0xb2, 0xbd, 0x20, 0x80, 0x75, 0xbd,
  0xfc, 0xa9, 0x98, 0x3e, 0xaa, 0x67, 0x13, 0x3d, 0x08, 0x29, 0x8e, 0xbe,
  0xa9, 0xd2, 0x87, 0xbd, 0xd3, 0xf2, 0x04, 0xbe, 0x21, 0x8b, 0xcd, 0xbc,
  0x33, 0xa2, 0x13, 0xbe, 0xfb, 0x03, 0x49, 0xbd, 0x84, 0xae, 0x92, 0xbe,
  0xf5, 0xcf, 0xb2, 0xbe, 0x82, 0x5d, 0x66, 0xbc, 0xa0, 0xcc, 0x86, 0xbd,
  0x06, 0x5c, 0x6b, 0x3b, 0xc0, 0xe1, 0x8a, 0x3f, 0x99, 0xed, 0xa2, 0x3d,
  0x9a, 0x41, 0x1a, 0x3d, 0x8b, 0xc6, 0x72, 0x3e, 0xb3, 0x96, 0x86, 0xbe,
  0xb4, 0xad, 0x8f, 0xbe, 0x1a, 0x46, 0x1d, 0xbe, 0x98, 0x5b, 0x44, 0xbb,
  0x28, 0xa4, 0x3b, 0x3e, 0x00, 0x3e, 0xf2, 0xbd, 0x66, 0x7d, 0xf8, 0xbd,
  0x57, 0xb2, 0x40, 0xbe, 0x72, 0xa7, 0xc8, 0xbd, 0x03, 0xc5, 0xbc, 0xbd,
  0xc0, 0x48, 0x48, 0xbe, 0xb4, 0xfe, 0x1e, 0xbe, 0xda, 0xcf, 0x8f, 0x3f,
  0x3d, 0xe3, 0xee, 0xbd, 0xb3, 0x5d, 0x19, 0x3e, 0x12, 0xed, 0xd5, 0x3b,
  0x2a, 0xd5, 0x20, 0xbe, 0x61, 0xb4, 0xb5, 0xbe, 0x38, 0xa3, 0x48, 0xbe,
  0xb0, 0x36, 0x26, 0x3e, 0xad, 0x6c, 0x48, 0x3e, 0x0a, 0x6e, 0x8a, 0xbe,
  0x97, 0x13, 0x01, 0x3e, 0x3b, 0xe4, 0x90, 0xbe, 0x8c, 0x74, 0x87, 0xbe,
  0x16, 0x72, 0xcb, 0xbb, 0x14, 0xba, 0xd7, 0xbd, 0x29, 0xbd, 0x01, 0x3d,
  0xc2, 0xa3, 0x2b, 0x3f, 0x01, 0xe8, 0xa7, 0x3d, 0x64, 0xec, 0x3a, 0xbe,
  0xf2, 0x17, 0xa1, 0x3d, 0xb6, 0xba, 0xac, 0xbd, 0x70, 0x75, 0x14, 0xbe,
  0x49, 0x6c, 0xde, 0xbd, 0x61, 0xdc, 0x20, 0xbe, 0x0d, 0xbe, 0x36, 0x3d,
  0xdb, 0x6a, 0xbd, 0xbe, 0xe6, 0xd6, 0x88, 0x3c, 0x18, 0x08, 0xa4, 0xbe,
  0x1f, 0x86, 0x10, 0xbd, 0xba, 0x19, 0x0d, 0x3e, 0x9d, 0x57, 0xc3, 0xbd,
  0xca, 0x57, 0x3f, 0xbe, 0xfd, 0x70, 0x49, 0x3f, 0xf2, 0x56, 0x18, 0xbe,
  0x87, 0xb7, 0x3c, 0x3e, 0x7e, 0xf0, 0x60, 0x3d, 0x80, 0x8e, 0x35, 0x3d,
  0xbb, 0x33, 0x7a, 0xbd, 0xae, 0xd8, 0xa0, 0xbe, 0x47, 0xba, 0x82, 0xbe,
  0xc8, 0xdf, 0x81, 0xbd, 0x3c, 0x56, 0x55, 0xbe, 0xc7, 0xce, 0x1c, 0xbd,
  0x6d, 0xb4, 0x12, 0xbe, 0x9d, 0x4d, 0x48, 0xbe, 0xec, 0xa8, 0x58, 0x3d,
  0x81, 0x5d, 0x4d, 0xbe, 0x3f, 0xaa, 0xbb, 0x3d, 0xb3, 0xac, 0xa0, 0x3f,
  0x85, 0xa0, 0xbf, 0x3d, 0x53, 0x9a, 0x27, 0xbe, 0xce, 0xcc, 0x32, 0x3e,
  0xc4, 0xba, 0x8e, 0xbe, 0xb4, 0x39, 0x9c, 0xbe, 0x70, 0x82, 0x92, 0xbe,
  0x51, 0x2e, 0x45, 0xbd, 0x28, 0x18, 0xd6, 0xbc, 0x9f, 0xb4, 0xed, 0xbd,
  0x1b, 0xf6, 0xf3, 0x3c, 0x00, 0x76, 0x84, 0xbe, 0x9c, 0x1a, 0x2c, 0xbe,
  0x50, 0x0e, 0xd0, 0xbb, 0x03, 0x42, 0x67, 0xbe, 0x75, 0x55, 0x20, 0xbe,
  0xe0, 0x43, 0x93, 0x3e, 0xf7, 0x84, 0x70, 0x3d, 0x48, 0xbb, 0x11, 0xbe,
  0xe5, 0x0d, 0xaa, 0xbe, 0x02, 0xd3, 0x59, 0xbe, 0xa4, 0xac, 0x89, 0xbd,
  0xe5, 0xe2, 0x1c, 0xbe, 0x90, 0x9d, 0x6f, 0x3c, 0xd6, 0xf2, 0xdf, 0xbd,
  0x93, 0xbe, 0x95, 0xbe, 0x3a, 0xca, 0xe1, 0xbd, 0xc7, 0xb6, 0xdd, 0xbd,
  0x0a, 0xda, 0xda, 0x3c, 0x4b, 0x24, 0x19, 0xbe, 0xce, 0x5a, 0xee, 0xbd,
  0xf8, 0x4c, 0x08, 0xbe, 0x56, 0xd1, 0x46, 0xbe, 0x87, 0x90, 0xd4, 0x3d,
  0x01, 0xd9, 0xa8, 0xbd, 0x45, 0xa1, 0x31, 0x3e, 0x9d, 0x92, 0x20, 0xbb,
  0x46, 0x9d, 0xdd, 0xbd, 0xbf, 0x03, 0x9c, 0xbe, 0x0d, 0xad, 0x2b, 0xbe,
  0x02, 0x19, 0x8b, 0x3e, 0xbe, 0x6a, 0xe8, 0xbc, 0x4c, 0x1a, 0x66, 0xbd,
  0x1b, 0xe1, 0x40, 0xbe, 0x2c, 0x7f, 0x6e, 0xbd, 0xc7, 0x37, 0x3f, 0x3e,
  0xfc, 0xfa, 0x0b, 0xbe, 0x33, 0x25, 0xec, 0xbd, 0x00, 0x3c, 0x88, 0x3c,
  0x48, 0x0c, 0x45, 0xbe, 0x6a, 0xe5, 0xfc, 0x3d, 0x5e, 0x27, 0x5a, 0x3e,
  0x99, 0x8e, 0x1e, 0xbe, 0x4c, 0x33, 0x6c, 0x3d, 0x38, 0xb2, 0xb2, 0xbc,
  0xd1, 0x80, 0x28, 0x3e, 0xc9, 0x0a, 0xed, 0xbd, 0x95, 0xa5, 0xe2, 0xbc,
  0xda, 0x39, 0x37, 0xbe, 0x3c, 0x07, 0x6e, 0xbe, 0xb1, 0x77, 0x39, 0xbe,
  0xd0, 0x74, 0x55, 0x3e, 0x13, 0x5a, 0xac, 0xbd, 0x63, 0x69, 0x13, 0x3e,
  0xeb, 0xcc, 0x53, 0xbe, 0x9a, 0x2c, 0x2f, 0xbe, 0x01, 0x29, 0xb1, 0xbd,
  0x67, 0xf9, 0x6f, 0x3e, 0xe7, 0xe8, 0xae, 0x3d, 0x21, 0x6c, 0xd0, 0x3d,
  0xa0, 0x58, 0xd9, 0xbd, 0xb7, 0x51, 0xe9, 0x3d, 0xe2, 0x05, 0x43, 0xbe,
  0x26, 0xde, 0x81, 0xbe, 0x01, 0xb9, 0x01, 0x3e, 0x20, 0xe7, 0xe6, 0xbd,
  0xa1, 0xb2, 0x30, 0x3d, 0xc5, 0x3f, 0x73, 0x3d, 0x6a, 0x0f, 0x50, 0xbe,
  0x43, 0x65, 0xee, 0x3d, 0xce, 0x5f, 0x4e, 0xbd, 0xe4, 0xbe, 0x2f, 0xbe,
  0x3d, 0x25, 0xbf, 0x3d, 0x7a, 0x1b, 0xd2, 0xbc, 0x5a, 0xe2, 0x67, 0x3d,
  0x5e, 0x39, 0xc5, 0xbd, 0xae, 0x0b, 0x8a, 0xbd, 0x47, 0x14, 0x8a, 0xbd,
  0xc3, 0x7a, 0x49, 0x3e, 0x1f, 0x63, 0x94, 0x3d, 0x4e, 0xd0, 0x45, 0x3e,
  0x8b, 0x4e, 0xc9, 0xbd, 0x1a, 0xc5, 0x3b, 0xbe, 0x3a, 0x06, 0x56, 0x3b,
  0x85, 0x44, 0x7d, 0x3d, 0x29, 0x66, 0x78, 0x3d, 0x84, 0x83, 0x16, 0xbe,
  0x75, 0x44, 0x53, 0xbe, 0x6c, 0xa8, 0x6e, 0x3e, 0x91, 0x9c, 0x82, 0x3e,
  0x01, 0xf5, 0x26, 0x3e, 0xaa, 0x90, 0x6b, 0xbe, 0x44, 0xa8, 0xf1, 0xbd,
  0xcf, 0x40, 0xd5, 0x3d, 0x7f, 0xfe, 0x13, 0xbd, 0x8e, 0x64, 0xfe, 0xbd,
  0x1d, 0xa2, 0x98, 0xbd, 0x23, 0xb3, 0x5c, 0xbe, 0x51, 0x0e, 0x9b, 0x3d,
  0x71, 0xfd, 0x10, 0x3e, 0x28, 0x89, 0xf5, 0xbd, 0x96, 0xc2, 0x67, 0xbe,
  0x47, 0x4f, 0xd9, 0x3d, 0xcd, 0x03, 0x0d, 0x3e, 0x46, 0x34, 0x11, 0xbc,
  0xed, 0xdd, 0x12, 0x3d, 0xc2, 0xbe, 0x18, 0xbe, 0x6f, 0xd9, 0x6e, 0xbe,
  0x6e, 0x7e, 0x5c, 0xbe, 0xd9, 0xea, 0x0e, 0xbe, 0x43, 0xcf, 0x00, 0x3d,
  0x45, 0x0f, 0x1d, 0xbe, 0xb5, 0x9c, 0xc7, 0xbb, 0x70, 0x6a, 0x3a, 0xbe,
  0xea, 0x58, 0x50, 0x3c, 0x58, 0x28, 0x5f, 0xbe, 0xab, 0x4a, 0x19, 0xbe,
  0xd5, 0x78, 0x79, 0xbe, 0xc6, 0xa0, 0x71, 0x3d, 0x23, 0xca, 0xd9, 0xbd,
  0x82, 0xa3, 0x06, 0xbe, 0x2a, 0x4f, 0x0a, 0x3d, 0x68, 0x2c, 0xdc, 0xbd,
  0xfa, 0x0b, 0x54, 0x3d, 0x03, 0x79, 0xb9, 0x3d, 0x74, 0x39, 0x9f, 0xbd,
  0x0f, 0x75, 0x98, 0xbd, 0xe1, 0x23, 0x2a, 0x3d, 0xd4, 0x01, 0x1c, 0x3e,
  0x4b, 0x6e, 0xe0, 0xbd, 0x7d, 0x2b, 0x8d, 0xbe, 0x26, 0x29, 0x3a, 0x3e,
  0x87, 0xab, 0x4e, 0xbe, 0x78, 0x32, 0xf6, 0xbc, 0x3a, 0x98, 0xe1, 0xbc,
  0x6d, 0x6f, 0xde, 0xbd, 0x79, 0x2f, 0xdd, 0xbd, 0x76, 0xf9, 0xbb, 0xbb,
  0xc4, 0xc9, 0xc0, 0xbe, 0x92, 0x80, 0xd7, 0xbc, 0xa7, 0x64, 0x32, 0xbd,
  0xfe, 0x5e, 0x90, 0xbd, 0xaf, 0x2b, 0x72, 0xbe, 0xee, 0x4a, 0xf5, 0xbd,
  0x33, 0x7d, 0x3b, 0xbe, 0xdf, 0xd2, 0x2e, 0xbe, 0xad, 0x47, 0xe8, 0xbd,
  0xa5, 0xb4, 0x4c, 0xbd, 0xd5, 0x73, 0x32, 0x3d, 0x9d, 0x93, 0xca, 0x3c,
  0x0c, 0xb5, 0x25, 0x3b, 0x19, 0x76, 0x4f, 0xbe, 0xb6, 0x18, 0xf3, 0xbd,
  0x0c, 0xc4, 0x64, 0xbd, 0xee, 0x33, 0xa7, 0xbd, 0xff, 0x65, 0x8f, 0xbd,
  0x17, 0xd4, 0x95, 0x3c, 0x5d, 0xa8, 0xee, 0xbd, 0x8f, 0xa3, 0xb4, 0xbc,
  0xe8, 0xcd, 0x72, 0x3d, 0x1b, 0x81, 0xf7, 0xbd, 0x7b, 0xb8, 0x85, 0x3b,
  0xc7, 0xc4, 0x92, 0xbe, 0xcb, 0xa4, 0xe4, 0x3d, 0x75, 0xc2, 0x3f, 0xbd,
  0xef, 0x47, 0x96, 0x3d, 0x0f, 0x03, 0x1f, 0xbd, 0x76, 0x17, 0xfd, 0xbd,
  0xe2, 0x25, 0x2b, 0xbe, 0x5c, 0xa7, 0x0a, 0x3e, 0x34, 0xf5, 0x8e, 0xbe,
  0xdf, 0x7a, 0x6f, 0xbe, 0x71, 0xec, 0x44, 0xbd, 0x16, 0xdd, 0x80, 0xbe,
  0x2a, 0x10, 0x39, 0xbe, 0x9d, 0xe5, 0x93, 0xbd, 0xe2, 0xa3, 0x36, 0xbd,
  0x9a, 0x8d, 0xac, 0xbd, 0x31, 0xc5, 0xd9, 0xbe, 0x5b, 0x95, 0x5c, 0xbe,
  0xce, 0x0f, 0xc9, 0x3d, 0x48, 0x44, 0x6e, 0xbd, 0x8c, 0xf8, 0xe7, 0xbd,
  0x8a, 0xe0, 0x67, 0xbe, 0xb3, 0x96, 0x3c, 0xbe, 0x42, 0x31, 0xa1, 0xbd,
  0x9d, 0xbb, 0xab, 0xbe, 0x94, 0xbb, 0xc9, 0xbe, 0xe2, 0x68, 0xd1, 0xbd,
  0xc6, 0x6a, 0x28, 0xbd, 0xf2, 0xab, 0xf0, 0x3d, 0xed, 0x2c, 0x2b, 0xbe,
  0xa5, 0x00, 0x89, 0xbe, 0xe7, 0x25, 0x05, 0xbe, 0x1c, 0x9f, 0x69, 0x3d,
  0x26, 0x50, 0x3b, 0xbd, 0x70, 0x05, 0xb8, 0xbd, 0x16, 0x79, 0xb9, 0xbd,
  0x28, 0xf9, 0x04, 0xbe, 0x89, 0x40, 0xcc, 0x3e, 0x63, 0x85, 0xe7, 0xbd,
  0x0f, 0x17, 0x89, 0x3d, 0x16, 0xc7, 0x06, 0xbe, 0xff, 0x2e, 0x26, 0xbe,
  0x54, 0x36, 0xa8, 0xbc, 0xd7, 0x0e, 0x05, 0x3f, 0xca, 0x0a, 0x87, 0x3e,
  0xef, 0x03, 0xab, 0x3d, 0x2d, 0x5c, 0xac, 0xbd, 0xc7, 0xfd, 0x85, 0xbd,
  0xca, 0xf7, 0xd6, 0x3d, 0x67, 0x36, 0xf6, 0x3d, 0x1b, 0xcb, 0x4b, 0xbd,
  0x95, 0xd7, 0xfe, 0x3d, 0xeb, 0xc3, 0x7d, 0x3c, 0x47, 0x61, 0x9c, 0x3e,
  0xbb, 0x4f, 0xab, 0x3e, 0x87, 0x3a, 0xb3, 0x3e, 0xd5, 0x6f, 0xaa, 0x3e,
  0xa7, 0xad, 0x11, 0xbe, 0xdc, 0xc9, 0xdf, 0xbd, 0x60, 0x22, 0x6d, 0x3e,
  0x46, 0xb1, 0x01, 0x3e, 0xa4, 0xa5, 0x7a, 0x3b, 0x0a, 0x65, 0xdf, 0x3d,
  0x94, 0xb2, 0xba, 0xba, 0x93, 0x9c, 0x16, 0x3e, 0x7b, 0x13, 0x44, 0x3e,
  0x5a, 0xba, 0x6d, 0xbc, 0xa5, 0xee, 0x93, 0xbd, 0xc3, 0x86, 0xa8, 0x3b,
  0x9f, 0x60, 0x23, 0x3e, 0x52, 0x5c, 0xc8, 0x3e, 0x1c, 0xb2, 0x71, 0x3e,
  0xf4, 0xfa, 0xfa, 0x3e, 0xc1, 0xec, 0x3d, 0x3e, 0x99, 0x3b, 0x93, 0x3d,
  0x78, 0x66, 0x8b, 0xbd, 0x1f, 0xa6, 0x8c, 0x3d, 0x9d, 0xf3, 0xb3, 0xbd,
  0x2a, 0x5d, 0x38, 0xbe, 0x76, 0x64, 0x46, 0xbe, 0xa8, 0x0c, 0xa8, 0xbd,
  0x98, 0x20, 0x1a, 0x3e, 0xac, 0x18, 0x83, 0xbd, 0x20, 0x89, 0x2f, 0x3b,
  0xbd, 0x9b, 0x31, 0x3e, 0x2e, 0x2d, 0x19, 0x3d, 0x82, 0x58, 0x16, 0xbe,
  0x24, 0x15, 0x00, 0xbe, 0x1e, 0x74, 0x9b, 0xbc, 0x1f, 0x99, 0x8d, 0xbc,
  0x2c, 0x68, 0xde, 0xbc, 0x8a, 0x1c, 0x08, 0x3c, 0x36, 0xd4, 0x2b, 0xbe,
  0x76, 0xfc, 0xd3, 0x3b, 0xf6, 0x7b, 0xc4, 0xbd, 0xa0, 0x00, 0x47, 0xbe,
  0x8f, 0xf0, 0x84, 0xbe, 0x33, 0x68, 0x54, 0x3d, 0x16, 0x88, 0xa6, 0x3d,
  0x31, 0xd6, 0x3c, 0xbe, 0x22, 0x52, 0x04, 0xbe, 0x1f, 0xb5, 0xfa, 0x3d,
  0x5c, 0x27, 0xa8, 0x3c, 0x12, 0xd7, 0x13, 0xbe, 0x9a, 0xfb, 0xb3, 0x3d,
  0x42, 0xa9, 0x81, 0xbd, 0xf9, 0x80, 0x72, 0xbe, 0xa8, 0x0e, 0x2d, 0xbd,
  0xc6, 0x2f, 0x01, 0xbe, 0x00, 0xdb, 0x5d, 0xbe, 0xe7, 0x68, 0x3c, 0xbd,
  0x21, 0x9c, 0xc5, 0xbd, 0x53, 0xe6, 0x32, 0xbe, 0x6a, 0xb4, 0xe5, 0x3d,
  0x12, 0xcf, 0xd6, 0x3c, 0xbd, 0x4b, 0x15, 0xbe, 0x15, 0xf7, 0x99, 0xbd,
  0x43, 0x1f, 0x86, 0x3d, 0x06, 0xf3, 0x3c, 0xbe, 0x80, 0x37, 0x8e, 0x3d,
  0x19, 0xf0, 0xfe, 0xbd, 0x48, 0x01, 0xbe, 0xbc, 0x31, 0xfa, 0x84, 0xbd,
  0x84, 0x57, 0x7d, 0xbd, 0x4d, 0x89, 0x80, 0x3d, 0xcf, 0x8a, 0x46, 0xbe,
  0x0e, 0xe6, 0x24, 0xbd, 0xbb, 0x03, 0x1c, 0x3d, 0x2a, 0xe8, 0x5d, 0xbe,
  0x36, 0xb9, 0x36, 0xbe, 0x67, 0xcb, 0x99, 0xbe, 0xc4, 0x35, 0x28, 0x3d,
  0x29, 0xcd, 0xdd, 0xbd, 0x6a, 0x42, 0xbf, 0xbd, 0x19, 0x9f, 0x27, 0xbe,
  0xd4, 0xdc, 0xdb, 0x3d, 0x02, 0xa9, 0x4e, 0xbc, 0xb7, 0x2c, 0x3f, 0xbe,
  0x95, 0xf4, 0x3d, 0xbe, 0x31, 0xa6, 0x81, 0xbd, 0xcd, 0xa8, 0x12, 0x3a,
  0x6f, 0xa1, 0xbb, 0x3d, 0xa2, 0xcd, 0xf0, 0xbd, 0xda, 0x5b, 0x3d, 0xbe,
  0xfc, 0x95, 0x06, 0xbe, 0x86, 0x97, 0x34, 0xbd, 0x17, 0xcf, 0xa6, 0xbd,
  0xb5, 0xda, 0x03, 0x3e, 0x85, 0xc9, 0x0d, 0xbe, 0xb0, 0x7c, 0x8e, 0x3d,
  0xa3, 0x9c, 0x98, 0xbd, 0x79, 0x19, 0xf2, 0x39, 0x51, 0x4d, 0x01, 0xbd,
  0xf1, 0xaf, 0x78, 0xbe, 0x41, 0xc8, 0xb4, 0xbd, 0xd7, 0x9e, 0x0b, 0xbe,
  0x8d, 0x47, 0x33, 0xbb, 0x24, 0xe5, 0x03, 0xbe, 0x4c, 0x58, 0xa5, 0x3c,
  0x66, 0x1a, 0x84, 0xbe, 0xc0, 0x4c, 0x98, 0xbe, 0x03, 0x69, 0x3e, 0x3e,
  0x16, 0x73, 0xb5, 0xbd, 0x4e, 0xe6, 0x1c, 0xbe, 0xc4, 0x33, 0x43, 0xbe,
  0x15, 0x17, 0x08, 0x3c, 0x8b, 0x90, 0x56, 0xbe, 0xb1, 0xe6, 0xe4, 0x3d,
  0xd4, 0x55, 0x24, 0xbe, 0x91, 0xc1, 0x3a, 0x3d, 0x64, 0x41, 0x6a, 0xbe,
  0x74, 0x9a, 0xd9, 0x3d, 0xe1, 0x05, 0x8c, 0x3c, 0xe2, 0xce, 0x37, 0xbc,
  0xa6, 0x8f, 0x5b, 0xbe, 0x8b, 0x70, 0x8e, 0xbd, 0x59, 0x30, 0x96, 0x3c,
  0x72, 0xcf, 0x0a, 0x3e, 0xc7, 0xdf, 0x17, 0xbe, 0xf7, 0x6e, 0xdb, 0xbd,
  0xd2, 0xd0, 0xd4, 0xbb, 0xd0, 0x38, 0x49, 0xbe, 0xf3, 0xa7, 0x67, 0x3b,
  0x68, 0xea, 0x8f, 0xbe, 0x58, 0x5b, 0x53, 0xbd, 0xfa, 0x67, 0x7e, 0xbe,
  0x38, 0x20, 0x81, 0xbe, 0xb1, 0x06, 0xcf, 0xbd, 0xec, 0x2f, 0x86, 0x3d,
  0x5a, 0x37, 0xdf, 0xbd, 0x94, 0xf9, 0x6b, 0xbe, 0xad, 0xd7, 0x81, 0xbe,
  0xac, 0xf4, 0x24, 0xbe, 0xc6, 0x27, 0x53, 0x3e, 0xa5, 0x52, 0x53, 0xbe,
  0xed, 0x25, 0x15, 0xbc, 0x50, 0xeb, 0x44, 0xbe, 0x78, 0x33, 0x2e, 0x3c,
  0x37, 0xd7, 0x1e, 0x3e, 0x54, 0x54, 0x1b, 0xbe, 0xf6, 0xb6, 0xa6, 0x3c,
  0x37, 0xf8, 0xed, 0xba, 0xe1, 0xe5, 0x90, 0xbd, 0xbe, 0x41, 0xb0, 0x3c,
  0x12, 0x73, 0xf8, 0xbd, 0x35, 0xfb, 0x62, 0xbe, 0x94, 0x46, 0x9f, 0xbd,
  0xef, 0x37, 0xa9, 0xbe, 0x39, 0xae, 0x30, 0x3e, 0x3b, 0x94, 0x40, 0x3d,
  0x8a, 0x20, 0x80, 0xbd, 0x53, 0x9c, 0xd0, 0xbd, 0xc8, 0xe8, 0x05, 0x3e,
  0x8a, 0x0e, 0x06, 0xbd, 0xba, 0xbd, 0x25, 0xbe, 0x40, 0x42, 0x01, 0xbe,
  0x85, 0x53, 0xb4, 0xbc, 0x11, 0xf0, 0xaf, 0xbd, 0xd5, 0x57, 0x32, 0xbd,
  0x77, 0x78, 0x24, 0x3e, 0x99, 0xca, 0xae, 0x3c, 0x50, 0x16, 0xe9, 0x3d,
  0x52, 0x28, 0xec, 0xbd, 0x11, 0x4a, 0x85, 0x3d, 0x9f, 0x03, 0x0f, 0xbe,
  0xfa, 0xa6, 0x4b, 0x3e, 0x3f, 0xea, 0x26, 0xbc, 0x50, 0xca, 0xae, 0x3d,
  0xfb, 0xe2, 0xc2, 0xbd, 0xcb, 0x34, 0x8c, 0x3d, 0x5a, 0x02, 0x5d, 0xbe,
  0x01, 0x4c, 0xae, 0xbd, 0x7e, 0x07, 0xc3, 0x3d, 0x50, 0x43, 0x6e, 0xbe,
  0x3b, 0x38, 0xed, 0x3d, 0x13, 0x22, 0x10, 0xbe, 0x6d, 0x25, 0xd1, 0x3d,
  0xb8, 0xc6, 0xea, 0x3c, 0x9b, 0xa4, 0x11, 0x3d, 0xeb, 0x34, 0x61, 0xbe,
  0xe8, 0x9c, 0x83, 0x3c, 0x59, 0x7e, 0xa9, 0x3d, 0xcd, 0x5d, 0x6a, 0xbe,
  0x80, 0xad, 0xd3, 0xbd, 0x84, 0xec, 0xaa, 0xbd, 0x14, 0xe4, 0xee, 0x3d,
  0x14, 0x8a, 0x18, 0x3d, 0x55, 0x1c, 0x30, 0x3a, 0xa7, 0xfa, 0x15, 0x3e,
  0x1b, 0x26, 0x28, 0xbe, 0x56, 0x7a, 0x9b, 0xbd, 0xf5, 0xc1, 0x0a, 0x3e,
  0x82, 0x37, 0x11, 0x3e, 0xde, 0x37, 0xc1, 0xbc, 0x2e, 0x36, 0x2e, 0xbd,
  0x65, 0x6a, 0x45, 0xbe, 0xac, 0x29, 0x23, 0xbe, 0x24, 0x29, 0x72, 0x3d,
  0x6e, 0x8d, 0x6e, 0xbe, 0x54, 0x1c, 0x30, 0xbd, 0xc9, 0xcf, 0x21, 0xbe,
  0xdf, 0xaa, 0x73, 0x3d, 0x94, 0x02, 0x10, 0x3e, 0x20, 0x57, 0x4b, 0xbe,
  0x3e, 0x96, 0x90, 0xbd, 0x37, 0xab, 0x46, 0xbe, 0xc6, 0x51, 0x66, 0xbe,
  0xdc, 0x5a, 0x1c, 0xbc, 0xdb, 0xf8, 0x26, 0xbd, 0x0c, 0x2b, 0x24, 0xbe,
  0x20, 0x00, 0x8c, 0x3d, 0x1a, 0x37, 0xfa, 0xbd, 0xb2, 0x16, 0x27, 0x3c,
  0xdf, 0x4c, 0x81, 0x3d, 0x9c, 0x20, 0x9e, 0x3b, 0xba, 0x9d, 0xd0, 0x3d,
  0x27, 0xfd, 0x4a, 0xbe, 0x8b, 0xf4, 0xde, 0x3d, 0x3b, 0x86, 0xb8, 0x3d,
  0x55, 0x24, 0x2c, 0xbd, 0x96, 0xa7, 0x89, 0xbe, 0x06, 0xfb, 0xb3, 0xbd,
  0x9e, 0xad, 0xe2, 0xbd, 0x8d, 0xb7, 0x04, 0x3d, 0xef, 0x3b, 0x08, 0xbe,
  0x51, 0x84, 0xbd, 0x3c, 0xc4, 0xbb, 0x3b, 0xbd, 0x2c, 0x3f, 0x16, 0xbd,
  0x8c, 0xcd, 0x52, 0xbe, 0x32, 0x0e, 0x6b, 0x3d, 0x8d, 0x29, 0x59, 0xbd,
  0x14, 0xf9, 0x0c, 0xbe, 0x6c, 0xa1, 0xcb, 0x3d, 0xb2, 0xaa, 0xe2, 0x3c,
  0x0d, 0xfb, 0xcc, 0x3d, 0x07, 0xf3, 0x04, 0xbe, 0x9e, 0x30, 0x25, 0xbe,
  0xdd, 0x0e, 0x30, 0x3c, 0xcf, 0x4d, 0x2a, 0x3c, 0xef, 0xeb, 0x8c, 0x3e,
  0xbf, 0x5a, 0xa5, 0x3e, 0xe8, 0xdd, 0x09, 0x3e, 0x08, 0xbb, 0x90, 0xbd,
  0x8b, 0x92, 0xa0, 0x3c, 0x4d, 0x34, 0xdd, 0xbd, 0xbe, 0x1a, 0x97, 0xbd,
  0xab, 0xa6, 0xdb, 0x3c, 0x18, 0x26, 0x92, 0x3c, 0xe1, 0x51, 0x5d, 0x3e,
  0x81, 0x8e, 0xef, 0x3e, 0x52, 0xe8, 0xb3, 0x3e, 0x36, 0xe7, 0xa0, 0x3e,
  0x44, 0x66, 0x29, 0x3e, 0x8a, 0xb2, 0x3a, 0x3d, 0x5f, 0x4e, 0x1c, 0x3c,
  0x18, 0x0f, 0xb0, 0xbd, 0xb1, 0x36, 0x89, 0xbe, 0x74, 0x64, 0x95, 0xbd,
  0x7e, 0xdb, 0x8e, 0xbe, 0x1c, 0x1d, 0x7f, 0xbd, 0xa6, 0x35, 0x08, 0xbd,
  0x8d, 0x9f, 0x3e, 0x3e, 0x13, 0xf2, 0x13, 0x3d, 0xb2, 0x9d, 0x1f, 0x3d,
  0xb3, 0xc8, 0x67, 0x3d, 0xe8, 0xbd, 0x17, 0xbe, 0xb1, 0x05, 0xf2, 0xbd,
  0xba, 0xae, 0xcd, 0xbd, 0x1e, 0x62, 0x92, 0xbd, 0x18, 0x75, 0x6d, 0x3d,
  0xfd, 0x42, 0xaf, 0xbd, 0xcf, 0xdf, 0xcf, 0xbe, 0x27, 0xe5, 0xb2, 0xbd,
  0xd6, 0x6c, 0xb1, 0xbe, 0x3b, 0x1c, 0x99, 0xbe, 0xcf, 0x63, 0xf7, 0xbc,
  0x8e, 0x56, 0x5d, 0xbe, 0x6b, 0x05, 0x16, 0xbe, 0x46, 0x7f, 0xb6, 0xbd,
  0xcb, 0xfd, 0x98, 0x3d, 0xd8, 0x36, 0xbf, 0xbd, 0x79, 0x4a, 0xd5, 0xbc,
  0xd0, 0x34, 0x96, 0xbe, 0xcb, 0x2b, 0x0e, 0xbe, 0x3d, 0xfa, 0xa5, 0x3d,
  0xad, 0xc0, 0x96, 0xbb, 0xd2, 0x6c, 0xfa, 0x3c, 0x45, 0x5c, 0x0b, 0xbe,
  0x45, 0xbc, 0xad, 0x3c, 0x90, 0x2d, 0x00, 0xbe, 0x75, 0x34, 0x34, 0xbe,
  0xc0, 0xbc, 0x6f, 0xbd, 0x28, 0x06, 0x22, 0xbd, 0x5d, 0x4a, 0xb9, 0x3d,
  0x15, 0x00, 0x14, 0xbe, 0xfe, 0x9a, 0x2d, 0x3d, 0xae, 0x0f, 0x0a, 0xbd,
  0x9d, 0x3f, 0xb4, 0x3d, 0x50, 0x3f, 0xb5, 0xbc, 0xba, 0xca, 0xbf, 0x3d,
  0x4c, 0x6d, 0x45, 0x3d, 0xf3, 0x2d, 0xe0, 0xbd, 0xfb, 0xa3, 0xfc, 0x3a,
  0xe1, 0xc4, 0x0f, 0x3c, 0x76, 0xdf, 0xf9, 0xbd, 0xcc, 0x3b, 0xe7, 0xbd,
  0xbb, 0x5f, 0x78, 0xbd, 0x40, 0x46, 0x25, 0xbc, 0xb2, 0xf9, 0x69, 0xbc,
  0x5c, 0x9d, 0x26, 0x3e, 0x7b, 0x22, 0x06, 0xbd, 0xba, 0xc4, 0x69, 0x3d,
  0x4e, 0x41, 0x9f, 0xbc, 0xd9, 0x84, 0x0b, 0xbe, 0x04, 0x4f, 0xb3, 0x3d,
  0x86, 0x47, 0x32, 0x3b, 0x7d, 0x2e, 0x4b, 0xbe, 0x36, 0xd2, 0x06, 0xbd,
  0x40, 0x0e, 0x81, 0xbd, 0xdc, 0x67, 0x00, 0x3c, 0x24, 0xd0, 0x20, 0xbc,
  0xcc, 0x63, 0x65, 0xbe, 0x57, 0x70, 0x8d, 0xbe, 0x41, 0x55, 0x4a, 0xbd,
  0xd0, 0x9e, 0x7c, 0xbe, 0xb6, 0xcb, 0x47, 0x3d, 0x23, 0x81, 0x33, 0x3d,
  0x91, 0x4a, 0x25, 0xbd, 0x33, 0x68, 0x27, 0xbe, 0x7e, 0xe5, 0x18, 0xbe,
  0x19, 0xac, 0xc0, 0x3d, 0x39, 0x87, 0x5d, 0xbe, 0x8c, 0x42, 0x4f, 0xbe,
  0x98, 0x0f, 0x8a, 0xbd, 0x81, 0x17, 0x8f, 0x3d, 0x02, 0x2c, 0xbe, 0x3d,
  0x3e, 0xa6, 0x92, 0xbd, 0x62, 0xf5, 0x38, 0xbd, 0x53, 0xa2, 0x74, 0xbe,
  0x5d, 0xcd, 0x46, 0xbd, 0x65, 0xa2, 0xe6, 0xbd, 0x68, 0xf6, 0x27, 0x3d,
  0x7c, 0x81, 0x8e, 0xbc, 0x2c, 0xa2, 0x44, 0xbe, 0xad, 0x58, 0x4e, 0x3b,
  0x56, 0xce, 0xc6, 0xbb, 0xe5, 0x74, 0x25, 0x3d, 0xf3, 0x4b, 0xc7, 0xbd,
  0xb0, 0x2a, 0x65, 0x3e, 0xe8, 0xc7, 0xca, 0xbc, 0x5b, 0x9f, 0x43, 0xbd,
  0x6b, 0x6c, 0x23, 0xbe, 0x7c, 0x03, 0x61, 0xbe, 0xc9, 0xbc, 0xab, 0xbd,
  0x01, 0x37, 0x2a, 0xbe, 0x2c, 0x8a, 0x9e, 0xbe, 0x65, 0xd7, 0xf8, 0xbd,
  0xc1, 0x46, 0xc5, 0xbd, 0x43, 0xaf, 0x60, 0x3c, 0x6d, 0x3a, 0x60, 0xbe,
  0xbd, 0x32, 0x6d, 0x3a, 0xdf, 0xd4, 0x02, 0xbe, 0xfb, 0xdf, 0xcd, 0x3d,
  0x74, 0xd7, 0x9c, 0xbd, 0x7c, 0x44, 0x44, 0xbb, 0x8b, 0x28, 0x0a, 0xbe,
  0x00, 0xd1, 0xf6, 0xbb, 0x11, 0x34, 0xb2, 0xbd, 0xf5, 0xcb, 0xa1, 0xbc,
  0xfe, 0x1e, 0xa0, 0xbc, 0x9a, 0x46, 0x77, 0x3e, 0xc7, 0xba, 0x51, 0x3c,
  0xfd, 0x6d, 0x07, 0xbd, 0xec, 0xfe, 0x5b, 0xbe, 0x61, 0x67, 0x48, 0xbe,
  0x6f, 0xd0, 0xa9, 0x3c, 0x14, 0xa0, 0x22, 0xbd, 0x56, 0x07, 0x83, 0x3c,
  0xec, 0x9d, 0xf1, 0x3d, 0x73, 0x43, 0x83, 0x3d, 0x7b, 0xc4, 0xcd, 0xbd,
  0x63, 0xf9, 0x9f, 0x3d, 0x1e, 0x00, 0x94, 0xbd, 0x7a, 0xde, 0xe5, 0x3d,
  0x50, 0x54, 0x10, 0xbd, 0x46, 0x8a, 0x29, 0xbe, 0xdb, 0xe9, 0x0d, 0x3e,
  0x88, 0xe7, 0x03, 0xbe, 0xd2, 0x43, 0xd8, 0x3d, 0x10, 0x0d, 0x00, 0xbe,
  0x8b, 0x58, 0x1a, 0xbe, 0xcf, 0x33, 0xf3, 0xbd, 0x80, 0xa4, 0xe1, 0xbc,
  0x23, 0x99, 0x1f, 0xbe, 0xbb, 0xfd, 0x69, 0xbc, 0xb3, 0x99, 0xa9, 0x3d,
  0x25, 0x72, 0x5f, 0xbe, 0x23, 0x20, 0x54, 0xbd, 0x2c, 0xfb, 0x3d, 0xbe,
  0xaa, 0x64, 0x32, 0x3e, 0x81, 0xfb, 0x15, 0x3e, 0x82, 0xc0, 0xcd, 0x3c,
  0x4e, 0xc9, 0x1a, 0xbe, 0x85, 0xbf, 0x48, 0xbe, 0x5c, 0x1d, 0xde, 0x3d,
  0xc6, 0xe8, 0x0d, 0x3c, 0xd7, 0x8a, 0x14, 0x3d, 0x82, 0xd6, 0x25, 0xbe,
  0xae, 0x4a, 0x97, 0xbd, 0xf5, 0x36, 0x33, 0x3e, 0x0a, 0xe3, 0x17, 0x3e,
  0x9f, 0x31, 0xd1, 0xbd, 0xd8, 0x35, 0x5f, 0xbe, 0xb0, 0x1e, 0xf1, 0xbc,
  0x13, 0x21, 0x3d, 0xbe, 0x1f, 0x64, 0x4d, 0xbe, 0x84, 0x62, 0x48, 0xbe,
  0xe3, 0xb7, 0x4b, 0x3c, 0xd9, 0xa9, 0x73, 0x3d, 0x4f, 0xa3, 0x0e, 0xbe,
  0x59, 0x82, 0x5d, 0xbe, 0xed, 0xdd, 0x3c, 0x3e, 0xb2, 0x1b, 0xff, 0xbd,
  0x35, 0xe5, 0x70, 0xbe, 0x5e, 0x3e, 0x15, 0xbe, 0x29, 0xa7, 0x31, 0x3e,
  0x78, 0x13, 0x42, 0xbe, 0xf0, 0x1e, 0x2a, 0xbe, 0x5f, 0xef, 0x3e, 0xbe,
  0xa6, 0xaa, 0xee, 0xbd, 0xa6, 0xa1, 0x9b, 0xbd, 0xc0, 0x52, 0x7b, 0xbc,
  0x01, 0xb0, 0x48, 0xbe, 0x1c, 0x83, 0x11, 0xbe, 0x3d, 0x54, 0x47, 0x3e,
  0x17, 0x07, 0xd1, 0x3c, 0x8c, 0x69, 0x58, 0xbe, 0x95, 0x93, 0x49, 0x3d,
  0x7f, 0x50, 0x00, 0x3c, 0x7f, 0x54, 0x42, 0xba, 0xd5, 0x67, 0x2d, 0xbd,
  0x88, 0x21, 0x13, 0xbe, 0x4c, 0x30, 0x27, 0x3e, 0x25, 0x3c, 0xc8, 0xbd,
  0x5e, 0xda, 0x43, 0xbe, 0x14, 0xe6, 0x85, 0xbe, 0xbc, 0x51, 0xa3, 0xbe,
  0x4b, 0x72, 0xd0, 0x3d, 0x01, 0x32, 0x68, 0x3d, 0x18, 0x81, 0x2f, 0xbe,
  0x6f, 0x00, 0x70, 0xbd, 0x90, 0x3b, 0x25, 0x3d, 0x8d, 0xfb, 0xf1, 0x3d,
  0x35, 0x76, 0xf4, 0xbd, 0x1d, 0xd4, 0x4f, 0xbe, 0xb0, 0xbc, 0x13, 0xbe,
  0x16, 0x9c, 0xda, 0xbc, 0x33, 0x23, 0x23, 0xbe, 0xc9, 0x02, 0x1e, 0x3e,
  0x6f, 0x44, 0xf8, 0x3d, 0x2f, 0x60, 0x4d, 0x3d, 0x44, 0xcd, 0x87, 0xbc,
  0x93, 0x39, 0x62, 0xbe, 0x62, 0xfd, 0xff, 0xff, 0x10, 0x00, 0x00, 0x00,
  0x07, 0x00, 0x00, 0x00, 0x14, 0x00, 0x00, 0x00, 0x2c, 0x00, 0x00, 0x00,
  0x02, 0x00, 0x00, 0x00, 0x10, 0x00, 0x00, 0x00, 0x70, 0x00, 0x00, 0x00,
  0x17, 0x00, 0x00, 0x00, 0x73, 0x65, 0x71, 0x75, 0x65, 0x6e, 0x74, 0x69,
  0x61, 0x6c, 0x2f, 0x64, 0x65, 0x6e, 0x73, 0x65, 0x2f, 0x4d, 0x61, 0x74,
  0x4d, 0x75, 0x6c, 0x00, 0xcc, 0xfc, 0xff, 0xff, 0xd6, 0xfd, 0xff, 0xff,
  0x04, 0x00, 0x00, 0x00, 0x08, 0x00, 0x00, 0x00, 0xff, 0xff, 0xff, 0xff,
  0x70, 0x00, 0x00, 0x00, 0x00, 0x00, 0x0e, 0x00, 0x18, 0x00, 0x08, 0x00,
  0x07, 0x00, 0x0c, 0x00, 0x10, 0x00, 0x14, 0x00, 0x0e, 0x00, 0x00, 0x00,
  0x00, 0x00, 0x00, 0x02, 0x10, 0x00, 0x00, 0x00, 0x06, 0x00, 0x00, 0x00,
  0x10, 0x00, 0x00, 0x00, 0x2c, 0x00, 0x00, 0x00, 0x01, 0x00, 0x00, 0x00,
  0x02, 0x00, 0x00, 0x00, 0x18, 0x00, 0x00, 0x00, 0x73, 0x65, 0x71, 0x75,
  0x65, 0x6e, 0x74, 0x69, 0x61, 0x6c, 0x2f, 0x66, 0x6c, 0x61, 0x74, 0x74,
  0x65, 0x6e, 0x2f, 0x43, 0x6f, 0x6e, 0x73, 0x74, 0x00, 0x00, 0x00, 0x00,
  0x34, 0xfd, 0xff, 0xff, 0x3e, 0xfe, 0xff, 0xff, 0x04, 0x00, 0x00, 0x00,
  0x10, 0x00, 0x00, 0x00, 0xc4, 0xa6, 0x28, 0xbf, 0xdd, 0x6f, 0x09, 0xc0,
  0xf8, 0x46, 0x4b, 0x3f, 0xaa, 0xf3, 0xcb, 0x3e, 0x26, 0xfe, 0xff, 0xff,
  0x10, 0x00, 0x00, 0x00, 0x05, 0x00, 0x00, 0x00, 0x10, 0x00, 0x00, 0x00,
  0x44, 0x00, 0x00, 0x00, 0x01, 0x00, 0x00, 0x00, 0x04, 0x00, 0x00, 0x00,
  0x32, 0x00, 0x00, 0x00, 0x73, 0x65, 0x71, 0x75, 0x65, 0x6e, 0x74, 0x69,
  0x61, 0x6c, 0x2f, 0x64, 0x65, 0x6e, 0x73, 0x65, 0x5f, 0x31, 0x2f, 0x42,
  0x69, 0x61, 0x73, 0x41, 0x64, 0x64, 0x2f, 0x52, 0x65, 0x61, 0x64, 0x56,
  0x61, 0x72, 0x69, 0x61, 0x62, 0x6c, 0x65, 0x4f, 0x70, 0x2f, 0x72, 0x65,
  0x73, 0x6f, 0x75, 0x72, 0x63, 0x65, 0x00, 0x00, 0xa8, 0xfd, 0xff, 0xff,
  0xb2, 0xfe, 0xff, 0xff, 0x04, 0x00, 0x00, 0x00, 0x40, 0x00, 0x00, 0x00,
  0x8d, 0x94, 0x16, 0x40, 0x22, 0xa9, 0xdb, 0xbd, 0x2d, 0xae, 0xd3, 0x3e,
  0x93, 0x10, 0x29, 0x3f, 0xa0, 0x46, 0x11, 0xbe, 0x1f, 0x8a, 0x15, 0xbf,
  0xe2, 0xde, 0x5c, 0x3f, 0x72, 0xe9, 0xe5, 0xbd, 0xf0, 0x3e, 0x59, 0xbe,
  0x3f, 0x38, 0xf7, 0x3e, 0x82, 0x2e, 0x07, 0xbe, 0x6d, 0xe4, 0xc6, 0xbe,
  0x25, 0xc3, 0x63, 0xbe, 0x7f, 0xe3, 0x28, 0xbe, 0x51, 0xca, 0xd8, 0xbe,
  0xd1, 0xe1, 0x3f, 0xbe, 0xca, 0xfe, 0xff, 0xff, 0x10, 0x00, 0x00, 0x00,
  0x04, 0x00, 0x00, 0x00, 0x10, 0x00, 0x00, 0x00, 0x44, 0x00, 0x00, 0x00,
  0x01, 0x00, 0x00, 0x00, 0x10, 0x00, 0x00, 0x00, 0x30, 0x00, 0x00, 0x00,
  0x73, 0x65, 0x71, 0x75, 0x65, 0x6e, 0x74, 0x69, 0x61, 0x6c, 0x2f, 0x64,
  0x65, 0x6e, 0x73, 0x65, 0x2f, 0x42, 0x69, 0x61, 0x73, 0x41, 0x64, 0x64,
  0x2f, 0x52, 0x65, 0x61, 0x64, 0x56, 0x61, 0x72, 0x69, 0x61, 0x62, 0x6c,
  0x65, 0x4f, 0x70, 0x2f, 0x72, 0x65, 0x73, 0x6f, 0x75, 0x72, 0x63, 0x65,
  0x00, 0x00, 0x00, 0x00, 0x4c, 0xfe, 0xff, 0xff, 0x56, 0xff, 0xff, 0xff,
  0x04, 0x00, 0x00, 0x00, 0x40, 0x00, 0x00, 0x00, 0x6f, 0xa7, 0xb7, 0xbe,
  0x8d, 0xea, 0x7d, 0x3e, 0x56, 0x39, 0xc2, 0xbe, 0x52, 0x0e, 0x88, 0x3f,
  0x96, 0xa5, 0xc2, 0xbe, 0x32, 0x29, 0x37, 0xbe, 0x51, 0x15, 0x50, 0xbe,
  0xff, 0x9b, 0x9d, 0xbf, 0x0b, 0x68, 0x96, 0xbf, 0x52, 0x10, 0x36, 0x40,
  0x67, 0x91, 0xbd, 0xbe, 0xb4, 0xc5, 0xc0, 0xbd, 0xf1, 0xf2, 0x7d, 0x3e,
  0xa8, 0x01, 0xfe, 0xbe, 0x98, 0xae, 0x0d, 0x3f, 0x8e, 0xb1, 0x4b, 0xbf,
  0x6e, 0xff, 0xff, 0xff, 0x10, 0x00, 0x00, 0x00, 0x03, 0x00, 0x00, 0x00,
  0x10, 0x00, 0x00, 0x00, 0x48, 0x00, 0x00, 0x00, 0x01, 0x00, 0x00, 0x00,
  0x10, 0x00, 0x00, 0x00, 0x33, 0x00, 0x00, 0x00, 0x73, 0x65, 0x71, 0x75,
  0x65, 0x6e, 0x74, 0x69, 0x61, 0x6c, 0x2f, 0x63, 0x6f, 0x6e, 0x76, 0x32,
  0x64, 0x5f, 0x31, 0x2f, 0x42, 0x69, 0x61, 0x73, 0x41, 0x64, 0x64, 0x2f,
  0x52, 0x65, 0x61, 0x64, 0x56, 0x61, 0x72, 0x69, 0x61, 0x62, 0x6c, 0x65,
  0x4f, 0x70, 0x2f, 0x72, 0x65, 0x73, 0x6f, 0x75, 0x72, 0x63, 0x65, 0x00,
  0x04, 0x00, 0x06, 0x00, 0x04, 0x00, 0x00, 0x00, 0x00, 0x00, 0x06, 0x00,
  0x08, 0x00, 0x04, 0x00, 0x06, 0x00, 0x00, 0x00, 0x04, 0x00, 0x00, 0x00,
  0x20, 0x00, 0x00, 0x00, 0x32, 0xb0, 0x97, 0xbf, 0x83, 0x32, 0xa5, 0xbf,
  0xf0, 0x11, 0xa9, 0xbd, 0x7f, 0xc8, 0x95, 0x3e, 0x1c, 0x6e, 0x01, 0xbf,
  0x7c, 0x82, 0x39, 0xbf, 0x1f, 0x05, 0x7c, 0xbf, 0xaa, 0x24, 0xe5, 0xbd,
  0x00, 0x00, 0x0e, 0x00, 0x14, 0x00, 0x04, 0x00, 0x00, 0x00, 0x08, 0x00,
  0x0c, 0x00, 0x10, 0x00, 0x0e, 0x00, 0x00, 0x00, 0x10, 0x00, 0x00, 0x00,
  0x02, 0x00, 0x00, 0x00, 0x10, 0x00, 0x00, 0x00, 0x44, 0x00, 0x00, 0x00,
  0x01, 0x00, 0x00, 0x00, 0x08, 0x00, 0x00, 0x00, 0x31, 0x00, 0x00, 0x00,
  0x73, 0x65, 0x71, 0x75, 0x65, 0x6e, 0x74, 0x69, 0x61, 0x6c, 0x2f, 0x63,
  0x6f, 0x6e, 0x76, 0x32, 0x64, 0x2f, 0x42, 0x69, 0x61, 0x73, 0x41, 0x64,
  0x64, 0x2f, 0x52, 0x65, 0x61, 0x64, 0x56, 0x61, 0x72, 0x69, 0x61, 0x62,
  0x6c, 0x65, 0x4f, 0x70, 0x2f, 0x72, 0x65, 0x73, 0x6f, 0x75, 0x72, 0x63,
  0x65, 0x00, 0x00, 0x00, 0x90, 0xff, 0xff, 0xff, 0x14, 0x00, 0x18, 0x00,
  0x04, 0x00, 0x00, 0x00, 0x08, 0x00, 0x0c, 0x00, 0x10, 0x00, 0x00, 0x00,
  0x00, 0x00, 0x14, 0x00, 0x14, 0x00, 0x00, 0x00, 0x14, 0x00, 0x00, 0x00,
  0x01, 0x00, 0x00, 0x00, 0x20, 0x00, 0x00, 0x00, 0x44, 0x00, 0x00, 0x00,
  0x2c, 0x00, 0x00, 0x00, 0x04, 0x00, 0x00, 0x00, 0x01, 0x00, 0x00, 0x00,
  0x40, 0x00, 0x00, 0x00, 0x03, 0x00, 0x00, 0x00, 0x01, 0x00, 0x00, 0x00,
  0x0c, 0x00, 0x00, 0x00, 0x63, 0x6f, 0x6e, 0x76, 0x32, 0x64, 0x5f, 0x69,
  0x6e, 0x70, 0x75, 0x74, 0x00, 0x00, 0x00, 0x00, 0x04, 0x00, 0x00, 0x00,
  0xff, 0xff, 0xff, 0xff, 0x40, 0x00, 0x00, 0x00, 0x03, 0x00, 0x00, 0x00,
  0x01, 0x00, 0x00, 0x00, 0xfc, 0xff, 0xff, 0xff, 0x04, 0x00, 0x04, 0x00,
  0x04, 0x00, 0x00, 0x00
};

unsigned int model_tflite_len = 13120;// Fill the int in `src/model.cc` here
