#include "magic_wand_model_data.h"

// We need to keep the data array aligned on some architectures.
#ifdef __has_attribute
#define HAVE_ATTRIBUTE(x) __has_attribute(x)
#else
#define HAVE_ATTRIBUTE(x) 0
#endif
#if HAVE_ATTRIBUTE(aligned) || (defined(__GNUC__) && !defined(__clang__))
#define DATA_ALIGN_ATTRIBUTE __attribute__((aligned(4)))
#else
#define DATA_ALIGN_ATTRIBUTE
#endif

// Paste the data of the char array in `src/model.cc` here
const unsigned char g_magic_wand_model_data[] DATA_ALIGN_ATTRIBUTE = {
0x1c, 0x00, 0x00, 0x00, 0x54, 0x46, 0x4c, 0x33, 0x14, 0x00, 0x20, 0x00,
  0x04, 0x00, 0x08, 0x00, 0x0c, 0x00, 0x10, 0x00, 0x14, 0x00, 0x00, 0x00,
  0x18, 0x00, 0x1c, 0x00, 0x14, 0x00, 0x00, 0x00, 0x03, 0x00, 0x00, 0x00,
  0x18, 0x00, 0x00, 0x00, 0x2c, 0x00, 0x00, 0x00, 0xd8, 0x00, 0x00, 0x00,
  0x2c, 0x00, 0x00, 0x00, 0x80, 0x00, 0x00, 0x00, 0x78, 0x00, 0x00, 0x00,
  0x05, 0x00, 0x00, 0x00, 0x28, 0x07, 0x00, 0x00, 0x44, 0x06, 0x00, 0x00,
  0xbc, 0x03, 0x00, 0x00, 0xf8, 0x02, 0x00, 0x00, 0xac, 0x01, 0x00, 0x00,
  0x01, 0x00, 0x00, 0x00, 0xd0, 0x00, 0x00, 0x00, 0x14, 0x00, 0x00, 0x00,
  0x98, 0x32, 0x00, 0x00, 0x94, 0x32, 0x00, 0x00, 0x8c, 0x31, 0x00, 0x00,
  0xd8, 0x30, 0x00, 0x00, 0x30, 0x30, 0x00, 0x00, 0xbc, 0x2f, 0x00, 0x00,
  0x50, 0x2f, 0x00, 0x00, 0x00, 0x13, 0x00, 0x00, 0xec, 0x11, 0x00, 0x00,
  0x10, 0x10, 0x00, 0x00, 0xb4, 0x07, 0x00, 0x00, 0x6c, 0x32, 0x00, 0x00,
  0x68, 0x32, 0x00, 0x00, 0x64, 0x32, 0x00, 0x00, 0x60, 0x32, 0x00, 0x00,
  0x5c, 0x32, 0x00, 0x00, 0x58, 0x32, 0x00, 0x00, 0x54, 0x32, 0x00, 0x00,
  0x50, 0x32, 0x00, 0x00, 0x3c, 0x00, 0x00, 0x00, 0x00, 0x00, 0x00, 0x00,
  0x01, 0x00, 0x00, 0x00, 0x0c, 0x00, 0x00, 0x00, 0x08, 0x00, 0x0c, 0x00,
  0x04, 0x00, 0x08, 0x00, 0x08, 0x00, 0x00, 0x00, 0x08, 0x00, 0x00, 0x00,
  0x13, 0x00, 0x00, 0x00, 0x13, 0x00, 0x00, 0x00, 0x6d, 0x69, 0x6e, 0x5f,
  0x72, 0x75, 0x6e, 0x74, 0x69, 0x6d, 0x65, 0x5f, 0x76, 0x65, 0x72, 0x73,
  0x69, 0x6f, 0x6e, 0x00, 0xfa, 0xce, 0xff, 0xff, 0x04, 0x00, 0x00, 0x00,
  0x10, 0x00, 0x00, 0x00, 0x31, 0x2e, 0x35, 0x2e, 0x30, 0x00, 0x00, 0x00,
  0x00, 0x00, 0x00, 0x00, 0x00, 0x00, 0x00, 0x00, 0x0f, 0x00, 0x00, 0x00,
  0x4d, 0x4c, 0x49, 0x52, 0x20, 0x43, 0x6f, 0x6e, 0x76, 0x65, 0x72, 0x74,
  0x65, 0x64, 0x2e, 0x00, 0x00, 0x00, 0x0e, 0x00, 0x18, 0x00, 0x04, 0x00,
  0x08, 0x00, 0x0c, 0x00, 0x10, 0x00, 0x14, 0x00, 0x0e, 0x00, 0x00, 0x00,
  0x14, 0x00, 0x00, 0x00, 0x5c, 0x00, 0x00, 0x00, 0x60, 0x00, 0x00, 0x00,
  0x64, 0x00, 0x00, 0x00, 0x84, 0x00, 0x00, 0x00, 0x12, 0x00, 0x00, 0x00,
  0x58, 0x31, 0x00, 0x00, 0xe8, 0x30, 0x00, 0x00, 0x44, 0x30, 0x00, 0x00,
  0x9c, 0x2f, 0x00, 0x00, 0xf4, 0x2e, 0x00, 0x00, 0x94, 0x2e, 0x00, 0x00,
  0x2c, 0x2e, 0x00, 0x00, 0xd8, 0x11, 0x00, 0x00, 0xbc, 0x10, 0x00, 0x00,
  0xe0, 0x0e, 0x00, 0x00, 0x0c, 0x06, 0x00, 0x00, 0x28, 0x05, 0x00, 0x00,
  0xe8, 0x03, 0x00, 0x00, 0x3c, 0x03, 0x00, 0x00, 0x98, 0x02, 0x00, 0x00,
  0xd4, 0x01, 0x00, 0x00, 0x10, 0x01, 0x00, 0x00, 0x84, 0x00, 0x00, 0x00,
  0x01, 0x00, 0x00, 0x00, 0x00, 0x00, 0x00, 0x00, 0x01, 0x00, 0x00, 0x00,
  0x11, 0x00, 0x00, 0x00, 0x08, 0x00, 0x00, 0x00, 0x74, 0x05, 0x00, 0x00,
  0x94, 0x04, 0x00, 0x00, 0x78, 0x03, 0x00, 0x00, 0xbc, 0x02, 0x00, 0x00,
  0x30, 0x02, 0x00, 0x00, 0x50, 0x01, 0x00, 0x00, 0xa8, 0x00, 0x00, 0x00,
  0x10, 0x00, 0x00, 0x00, 0x04, 0x00, 0x00, 0x00, 0x6d, 0x61, 0x69, 0x6e,
  0x00, 0x00, 0x00, 0x00, 0x7a, 0xff, 0xff, 0xff, 0x00, 0x00, 0x00, 0x09,
  0x04, 0x00, 0x00, 0x00, 0x1c, 0x00, 0x00, 0x00, 0x10, 0x00, 0x00, 0x00,
  0x04, 0x00, 0x00, 0x00, 0xf6, 0xcf, 0xff, 0xff, 0x00, 0x00, 0x80, 0x3f,
  0x01, 0x00, 0x00, 0x00, 0x11, 0x00, 0x00, 0x00, 0x01, 0x00, 0x00, 0x00,
  0x10, 0x00, 0x00, 0x00, 0xa0, 0xfa, 0xff, 0xff, 0x19, 0x00, 0x00, 0x00,
  0x00, 0x00, 0x00, 0x19, 0x01, 0x00, 0x00, 0x00, 0x84, 0xcf, 0xff, 0xff,
  0x14, 0x00, 0x00, 0x00, 0x12, 0x00, 0x00, 0x00, 0x18, 0x00, 0x00, 0x00,
  0x30, 0x00, 0x00, 0x00, 0x20, 0x00, 0x00, 0x00, 0x02, 0x00, 0x00, 0x00,
  0x01, 0x00, 0x00, 0x00, 0x03, 0x00, 0x00, 0x00, 0x08, 0x00, 0x00, 0x00,
  0x49, 0x64, 0x65, 0x6e, 0x74, 0x69, 0x74, 0x79, 0x00, 0x00, 0x00, 0x00,
  0x02, 0x00, 0x00, 0x00, 0xff, 0xff, 0xff, 0xff, 0x03, 0x00, 0x00, 0x00,
  0x68, 0xd0, 0xff, 0xff, 0x00, 0x00, 0x0e, 0x00, 0x18, 0x00, 0x08, 0x00,
  0x0c, 0x00, 0x10, 0x00, 0x07, 0x00, 0x14, 0x00, 0x0e, 0x00, 0x00, 0x00,
  0x00, 0x00, 0x00, 0x08, 0x03, 0x00, 0x00, 0x00, 0x18, 0x00, 0x00, 0x00,
  0x0c, 0x00, 0x00, 0x00, 0x04, 0x00, 0x00, 0x00, 0x84, 0xcf, 0xff, 0xff,
  0x01, 0x00, 0x00, 0x00, 0x10, 0x00, 0x00, 0x00, 0x03, 0x00, 0x00, 0x00,
  0x0f, 0x00, 0x00, 0x00, 0x07, 0x00, 0x00, 0x00, 0x04, 0x00, 0x00, 0x00,
  0x0c, 0xd0, 0xff, 0xff, 0x14, 0x00, 0x00, 0x00, 0x11, 0x00, 0x00, 0x00,
  0x18, 0x00, 0x00, 0x00, 0x5c, 0x00, 0x00, 0x00, 0x4c, 0x00, 0x00, 0x00,
  0x02, 0x00, 0x00, 0x00, 0x01, 0x00, 0x00, 0x00, 0x03, 0x00, 0x00, 0x00,
  0x34, 0x00, 0x00, 0x00, 0x73, 0x65, 0x71, 0x75, 0x65, 0x6e, 0x74, 0x69,
  0x61, 0x6c, 0x2f, 0x64, 0x65, 0x6e, 0x73, 0x65, 0x5f, 0x31, 0x2f, 0x4d,
  0x61, 0x74, 0x4d, 0x75, 0x6c, 0x3b, 0x73, 0x65, 0x71, 0x75, 0x65, 0x6e,
  0x74, 0x69, 0x61, 0x6c, 0x2f, 0x64, 0x65, 0x6e, 0x73, 0x65, 0x5f, 0x31,
  0x2f, 0x42, 0x69, 0x61, 0x73, 0x41, 0x64, 0x64, 0x00, 0x00, 0x00, 0x00,
  0x02, 0x00, 0x00, 0x00, 0xff, 0xff, 0xff, 0xff, 0x03, 0x00, 0x00, 0x00,
  0x0c, 0xd0, 0xff, 0xff, 0xda, 0xfc, 0xff, 0xff, 0x00, 0x00, 0x00, 0x08,
  0x03, 0x00, 0x00, 0x00, 0x24, 0x00, 0x00, 0x00, 0x18, 0x00, 0x00, 0x00,
  0x0c, 0x00, 0x00, 0x00, 0x00, 0x00, 0x06, 0x00, 0x08, 0x00, 0x07, 0x00,
  0x06, 0x00, 0x00, 0x00, 0x00, 0x00, 0x00, 0x01, 0x01, 0x00, 0x00, 0x00,
  0x0f, 0x00, 0x00, 0x00, 0x03, 0x00, 0x00, 0x00, 0x0e, 0x00, 0x00, 0x00,
  0x06, 0x00, 0x00, 0x00, 0x03, 0x00, 0x00, 0x00, 0xe8, 0xfb, 0xff, 0xff,
  0x09, 0x00, 0x00, 0x00, 0x00, 0x00, 0x00, 0x09, 0x01, 0x00, 0x00, 0x00,
  0xcc, 0xd0, 0xff, 0xff, 0x14, 0x00, 0x00, 0x00, 0x10, 0x00, 0x00, 0x00,
  0x18, 0x00, 0x00, 0x00, 0x6c, 0x00, 0x00, 0x00, 0x5c, 0x00, 0x00, 0x00,
  0x02, 0x00, 0x00, 0x00, 0x01, 0x00, 0x00, 0x00, 0x10, 0x00, 0x00, 0x00,
  0x46, 0x00, 0x00, 0x00, 0x73, 0x65, 0x71, 0x75, 0x65, 0x6e, 0x74, 0x69,
  0x61, 0x6c, 0x2f, 0x64, 0x65, 0x6e, 0x73, 0x65, 0x2f, 0x4d, 0x61, 0x74,
  0x4d, 0x75, 0x6c, 0x3b, 0x73, 0x65, 0x71, 0x75, 0x65, 0x6e, 0x74, 0x69,
  0x61, 0x6c, 0x2f, 0x64, 0x65, 0x6e, 0x73, 0x65, 0x2f, 0x52, 0x65, 0x6c,
  0x75, 0x3b, 0x73, 0x65, 0x71, 0x75, 0x65, 0x6e, 0x74, 0x69, 0x61, 0x6c,
  0x2f, 0x64, 0x65, 0x6e, 0x73, 0x65, 0x2f, 0x42, 0x69, 0x61, 0x73, 0x41,
  0x64, 0x64, 0x00, 0x00, 0x02, 0x00, 0x00, 0x00, 0xff, 0xff, 0xff, 0xff,
  0x10, 0x00, 0x00, 0x00, 0xec, 0xd1, 0xff, 0xff, 0x00, 0x00, 0x0a, 0x00,
  0x10, 0x00, 0x04, 0x00, 0x08, 0x00, 0x0c, 0x00, 0x0a, 0x00, 0x00, 0x00,
  0x02, 0x00, 0x00, 0x00, 0x10, 0x00, 0x00, 0x00, 0x04, 0x00, 0x00, 0x00,
  0x01, 0x00, 0x00, 0x00, 0x0e, 0x00, 0x00, 0x00, 0x02, 0x00, 0x00, 0x00,
  0x0d, 0x00, 0x00, 0x00, 0x05, 0x00, 0x00, 0x00, 0xa8, 0xfc, 0xff, 0xff,
  0x16, 0x00, 0x00, 0x00, 0x00, 0x00, 0x00, 0x16, 0x01, 0x00, 0x00, 0x00,
  0x8c, 0xd1, 0xff, 0xff, 0x14, 0x00, 0x00, 0x00, 0x0f, 0x00, 0x00, 0x00,
  0x18, 0x00, 0x00, 0x00, 0x40, 0x00, 0x00, 0x00, 0x30, 0x00, 0x00, 0x00,
  0x02, 0x00, 0x00, 0x00, 0x01, 0x00, 0x00, 0x00, 0x70, 0x00, 0x00, 0x00,
  0x1a, 0x00, 0x00, 0x00, 0x73, 0x65, 0x71, 0x75, 0x65, 0x6e, 0x74, 0x69,
  0x61, 0x6c, 0x2f, 0x66, 0x6c, 0x61, 0x74, 0x74, 0x65, 0x6e, 0x2f, 0x52,
  0x65, 0x73, 0x68, 0x61, 0x70, 0x65, 0x00, 0x00, 0x02, 0x00, 0x00, 0x00,
  0xff, 0xff, 0xff, 0xff, 0x70, 0x00, 0x00, 0x00, 0x70, 0xd1, 0xff, 0xff,
  0x3e, 0xfe, 0xff, 0xff, 0x00, 0x00, 0x00, 0x05, 0x01, 0x00, 0x00, 0x00,
  0x38, 0x00, 0x00, 0x00, 0x2c, 0x00, 0x00, 0x00, 0x14, 0x00, 0x00, 0x00,
  0x00, 0x00, 0x0e, 0x00, 0x14, 0x00, 0x00, 0x00, 0x10, 0x00, 0x0c, 0x00,
  0x08, 0x00, 0x04, 0x00, 0x0e, 0x00, 0x00, 0x00, 0x03, 0x00, 0x00, 0x00,
  0x01, 0x00, 0x00, 0x00, 0x03, 0x00, 0x00, 0x00, 0x01, 0x00, 0x00, 0x00,
  0x01, 0x00, 0x00, 0x00, 0x0d, 0x00, 0x00, 0x00, 0x01, 0x00, 0x00, 0x00,
  0x0c, 0x00, 0x00, 0x00, 0x2c, 0xd2, 0xff, 0xff, 0x14, 0x00, 0x00, 0x00,
  0x0e, 0x00, 0x00, 0x00, 0x20, 0x00, 0x00, 0x00, 0x58, 0x00, 0x00, 0x00,
  0x40, 0x00, 0x00, 0x00, 0x04, 0x00, 0x00, 0x00, 0x01, 0x00, 0x00, 0x00,
  0x07, 0x00, 0x00, 0x00, 0x01, 0x00, 0x00, 0x00, 0x10, 0x00, 0x00, 0x00,
  0x22, 0x00, 0x00, 0x00, 0x73, 0x65, 0x71, 0x75, 0x65, 0x6e, 0x74, 0x69,
  0x61, 0x6c, 0x2f, 0x6d, 0x61, 0x78, 0x5f, 0x70, 0x6f, 0x6f, 0x6c, 0x69,
  0x6e, 0x67, 0x32, 0x64, 0x5f, 0x31, 0x2f, 0x4d, 0x61, 0x78, 0x50, 0x6f,
  0x6f, 0x6c, 0x00, 0x00, 0x04, 0x00, 0x00, 0x00, 0xff, 0xff, 0xff, 0xff,
  0x07, 0x00, 0x00, 0x00, 0x01, 0x00, 0x00, 0x00, 0x10, 0x00, 0x00, 0x00,
  0x28, 0xd2, 0xff, 0xff, 0x1a, 0xfe, 0xff, 0xff, 0x00, 0x00, 0x00, 0x01,
  0x24, 0x00, 0x00, 0x00, 0x18, 0x00, 0x00, 0x00, 0x04, 0x00, 0x00, 0x00,
  0x0c, 0xfe, 0xff, 0xff, 0x01, 0x00, 0x00, 0x00, 0x01, 0x00, 0x00, 0x00,
  0x00, 0x00, 0x00, 0x01, 0x01, 0x00, 0x00, 0x00, 0x0c, 0x00, 0x00, 0x00,
  0x03, 0x00, 0x00, 0x00, 0x0b, 0x00, 0x00, 0x00, 0x09, 0x00, 0x00, 0x00,
  0x02, 0x00, 0x00, 0x00, 0xd4, 0xd2, 0xff, 0xff, 0x14, 0x00, 0x00, 0x00,
  0x0d, 0x00, 0x00, 0x00, 0x20, 0x00, 0x00, 0x00, 0xb8, 0x00, 0x00, 0x00,
  0xa0, 0x00, 0x00, 0x00, 0x04, 0x00, 0x00, 0x00, 0x01, 0x00, 0x00, 0x00,
  0x15, 0x00, 0x00, 0x00, 0x01, 0x00, 0x00, 0x00, 0x10, 0x00, 0x00, 0x00,
  0x83, 0x00, 0x00, 0x00, 0x73, 0x65, 0x71, 0x75, 0x65, 0x6e, 0x74, 0x69,
  0x61, 0x6c, 0x2f, 0x63, 0x6f, 0x6e, 0x76, 0x32, 0x64, 0x5f, 0x31, 0x2f,
  0x52, 0x65, 0x6c, 0x75, 0x3b, 0x73, 0x65, 0x71, 0x75, 0x65, 0x6e, 0x74,
  0x69, 0x61, 0x6c, 0x2f, 0x63, 0x6f, 0x6e, 0x76, 0x32, 0x64, 0x5f, 0x31,
  0x2f, 0x42, 0x69, 0x61, 0x73, 0x41, 0x64, 0x64, 0x3b, 0x73, 0x65, 0x71,
  0x75, 0x65, 0x6e, 0x74, 0x69, 0x61, 0x6c, 0x2f, 0x63, 0x6f, 0x6e, 0x76,
  0x32, 0x64, 0x5f, 0x31, 0x2f, 0x43, 0x6f, 0x6e, 0x76, 0x32, 0x44, 0x3b,
  0x73, 0x65, 0x71, 0x75, 0x65, 0x6e, 0x74, 0x69, 0x61, 0x6c, 0x2f, 0x63,
  0x6f, 0x6e, 0x76, 0x32, 0x64, 0x5f, 0x31, 0x2f, 0x42, 0x69, 0x61, 0x73,
  0x41, 0x64, 0x64, 0x2f, 0x52, 0x65, 0x61, 0x64, 0x56, 0x61, 0x72, 0x69,
  0x61, 0x62, 0x6c, 0x65, 0x4f, 0x70, 0x2f, 0x72, 0x65, 0x73, 0x6f, 0x75,
  0x72, 0x63, 0x65, 0x00, 0x04, 0x00, 0x00, 0x00, 0xff, 0xff, 0xff, 0xff,
  0x15, 0x00, 0x00, 0x00, 0x01, 0x00, 0x00, 0x00, 0x10, 0x00, 0x00, 0x00,
  0x40, 0xd4, 0xff, 0xff, 0x00, 0x00, 0x0e, 0x00, 0x1a, 0x00, 0x08, 0x00,
  0x0c, 0x00, 0x10, 0x00, 0x07, 0x00, 0x14, 0x00, 0x0e, 0x00, 0x00, 0x00,
  0x00, 0x00, 0x00, 0x05, 0x01, 0x00, 0x00, 0x00, 0x3c, 0x00, 0x00, 0x00,
  0x30, 0x00, 0x00, 0x00, 0x14, 0x00, 0x00, 0x00, 0x00, 0x00, 0x0e, 0x00,
  0x18, 0x00, 0x17, 0x00, 0x10, 0x00, 0x0c, 0x00, 0x08, 0x00, 0x04, 0x00,
  0x0e, 0x00, 0x00, 0x00, 0x03, 0x00, 0x00, 0x00, 0x03, 0x00, 0x00, 0x00,
  0x03, 0x00, 0x00, 0x00, 0x03, 0x00, 0x00, 0x00, 0x00, 0x00, 0x00, 0x01,
  0x01, 0x00, 0x00, 0x00, 0x0b, 0x00, 0x00, 0x00, 0x01, 0x00, 0x00, 0x00,
  0x0a, 0x00, 0x00, 0x00, 0x2c, 0xff, 0xff, 0xff, 0x11, 0x00, 0x00, 0x00,
  0x00, 0x00, 0x00, 0x11, 0x01, 0x00, 0x00, 0x00, 0x10, 0xd4, 0xff, 0xff,
  0x14, 0x00, 0x00, 0x00, 0x0c, 0x00, 0x00, 0x00, 0x20, 0x00, 0x00, 0x00,
  0x58, 0x00, 0x00, 0x00, 0x40, 0x00, 0x00, 0x00, 0x04, 0x00, 0x00, 0x00,
  0x01, 0x00, 0x00, 0x00, 0x15, 0x00, 0x00, 0x00, 0x01, 0x00, 0x00, 0x00,
  0x08, 0x00, 0x00, 0x00, 0x20, 0x00, 0x00, 0x00, 0x73, 0x65, 0x71, 0x75,
  0x65, 0x6e, 0x74, 0x69, 0x61, 0x6c, 0x2f, 0x6d, 0x61, 0x78, 0x5f, 0x70,
  0x6f, 0x6f, 0x6c, 0x69, 0x6e, 0x67, 0x32, 0x64, 0x2f, 0x4d, 0x61, 0x78,
  0x50, 0x6f, 0x6f, 0x6c, 0x00, 0x00, 0x00, 0x00, 0x04, 0x00, 0x00, 0x00,
  0xff, 0xff, 0xff, 0xff, 0x15, 0x00, 0x00, 0x00, 0x01, 0x00, 0x00, 0x00,
  0x08, 0x00, 0x00, 0x00, 0x1c, 0xd5, 0xff, 0xff, 0x00, 0x00, 0x0e, 0x00,
  0x14, 0x00, 0x00, 0x00, 0x08, 0x00, 0x0c, 0x00, 0x07, 0x00, 0x10, 0x00,
  0x0e, 0x00, 0x00, 0x00, 0x00, 0x00, 0x00, 0x01, 0x30, 0x00, 0x00, 0x00,
  0x24, 0x00, 0x00, 0x00, 0x10, 0x00, 0x00, 0x00, 0x0c, 0x00, 0x10, 0x00,
  0x00, 0x00, 0x04, 0x00, 0x08, 0x00, 0x0f, 0x00, 0x0c, 0x00, 0x00, 0x00,
  0x01, 0x00, 0x00, 0x00, 0x01, 0x00, 0x00, 0x00, 0x00, 0x00, 0x00, 0x01,
  0x01, 0x00, 0x00, 0x00, 0x0a, 0x00, 0x00, 0x00, 0x03, 0x00, 0x00, 0x00,
  0x00, 0x00, 0x00, 0x00, 0x08, 0x00, 0x00, 0x00, 0x01, 0x00, 0x00, 0x00,
  0x0c, 0x00, 0x10, 0x00, 0x0b, 0x00, 0x00, 0x00, 0x0c, 0x00, 0x04, 0x00,
  0x0c, 0x00, 0x00, 0x00, 0x03, 0x00, 0x00, 0x00, 0x00, 0x00, 0x00, 0x03,
  0x01, 0x00, 0x00, 0x00, 0xf0, 0xd4, 0xff, 0xff, 0x14, 0x00, 0x00, 0x00,
  0x0b, 0x00, 0x00, 0x00, 0x20, 0x00, 0x00, 0x00, 0xb0, 0x00, 0x00, 0x00,
  0x98, 0x00, 0x00, 0x00, 0x04, 0x00, 0x00, 0x00, 0x01, 0x00, 0x00, 0x00,
  0x40, 0x00, 0x00, 0x00, 0x03, 0x00, 0x00, 0x00, 0x08, 0x00, 0x00, 0x00,
  0x7b, 0x00, 0x00, 0x00, 0x73, 0x65, 0x71, 0x75, 0x65, 0x6e, 0x74, 0x69,
  0x61, 0x6c, 0x2f, 0x63, 0x6f, 0x6e, 0x76, 0x32, 0x64, 0x2f, 0x52, 0x65,
  0x6c, 0x75, 0x3b, 0x73, 0x65, 0x71, 0x75, 0x65, 0x6e, 0x74, 0x69, 0x61,
  0x6c, 0x2f, 0x63, 0x6f, 0x6e, 0x76, 0x32, 0x64, 0x2f, 0x42, 0x69, 0x61,
  0x73, 0x41, 0x64, 0x64, 0x3b, 0x73, 0x65, 0x71, 0x75, 0x65, 0x6e, 0x74,
  0x69, 0x61, 0x6c, 0x2f, 0x63, 0x6f, 0x6e, 0x76, 0x32, 0x64, 0x2f, 0x43,
  0x6f, 0x6e, 0x76, 0x32, 0x44, 0x3b, 0x73, 0x65, 0x71, 0x75, 0x65, 0x6e,
  0x74, 0x69, 0x61, 0x6c, 0x2f, 0x63, 0x6f, 0x6e, 0x76, 0x32, 0x64, 0x2f,
  0x42, 0x69, 0x61, 0x73, 0x41, 0x64, 0x64, 0x2f, 0x52, 0x65, 0x61, 0x64,
  0x56, 0x61, 0x72, 0x69, 0x61, 0x62, 0x6c, 0x65, 0x4f, 0x70, 0x2f, 0x72,
  0x65, 0x73, 0x6f, 0x75, 0x72, 0x63, 0x65, 0x00, 0x04, 0x00, 0x00, 0x00,
  0xff, 0xff, 0xff, 0xff, 0x40, 0x00, 0x00, 0x00, 0x03, 0x00, 0x00, 0x00,
  0x08, 0x00, 0x00, 0x00, 0x44, 0xd5, 0xff, 0xff, 0x4e, 0xd6, 0xff, 0xff,
  0x04, 0x00, 0x00, 0x00, 0x00, 0x08, 0x00, 0x00, 0xa7, 0xd9, 0x16, 0x3f,
  0x8b, 0x28, 0x02, 0x3e, 0xba, 0xcf, 0x49, 0xba, 0xae, 0x56, 0x14, 0x3f,
  0xc9, 0xc6, 0x12, 0xbe, 0x04, 0xd6, 0xc2, 0x3d, 0x32, 0x26, 0xe5, 0xbe,
  0xfa, 0x02, 0x74, 0x3d, 0xca, 0xb3, 0x35, 0xbe, 0xdd, 0x03, 0x16, 0x3d,
  0x58, 0x42, 0x32, 0x3e, 0x70, 0x3a, 0x89, 0xbc, 0x41, 0xeb, 0xae, 0xbd,
  0xe1, 0xdb, 0xe2, 0xbc, 0x8d, 0xab, 0x35, 0xbe, 0xdb, 0x65, 0x56, 0xbe,
  0x52, 0xf9, 0xae, 0x3d, 0x4e, 0x32, 0xa0, 0xbd, 0x29, 0x92, 0xeb, 0xbd,
  0x8d, 0x07, 0xad, 0xbb, 0xd8, 0x3f, 0x93, 0xbd, 0x41, 0x39, 0x32, 0xbe,
  0x50, 0x8c, 0xd8, 0xbc, 0x22, 0xb5, 0x37, 0xbe, 0xff, 0x43, 0xb5, 0x3d,
  0x4c, 0x63, 0x3c, 0xbe, 0x80, 0x77, 0x3a, 0xbd, 0xd2, 0x34, 0xec, 0xbd,
  0xc0, 0x4c, 0x09, 0xbc, 0x6a, 0xaa, 0x41, 0xbe, 0x1b, 0xa1, 0xbc, 0x3d,
  0x60, 0x09, 0xcd, 0xbd, 0x9f, 0x20, 0xc7, 0xbd, 0xfa, 0x76, 0x99, 0x3e,
  0xe3, 0xb8, 0x1e, 0xbf, 0x2a, 0x3f, 0xab, 0x3d, 0x98, 0xe9, 0x55, 0x3e,
  0xc9, 0xc1, 0x79, 0xbe, 0x0a, 0xec, 0x9b, 0xbc, 0x37, 0x30, 0x85, 0x3e,
  0x05, 0x61, 0x19, 0xbe, 0xca, 0x15, 0x9b, 0x3d, 0x47, 0x52, 0x9a, 0xbe,
  0x77, 0xbf, 0x03, 0x3e, 0xb9, 0xbe, 0x86, 0x3d, 0x9b, 0x7d, 0x1d, 0xbe,
  0x90, 0xc7, 0xb8, 0x3d, 0x09, 0x20, 0x04, 0xbe, 0x26, 0x14, 0xb1, 0xbe,
  0xcd, 0xf9, 0x8d, 0x3d, 0xd2, 0x7a, 0x89, 0xbe, 0x91, 0x8c, 0xd5, 0xbd,
  0xce, 0xa6, 0x27, 0x3e, 0x21, 0x46, 0x69, 0x3d, 0x5b, 0xd7, 0x8a, 0xbd,
  0x46, 0xbc, 0x39, 0xbe, 0x60, 0xeb, 0xe7, 0xbc, 0xf5, 0x92, 0xf9, 0x3d,
  0xf8, 0xe2, 0x59, 0xbe, 0xf0, 0xbd, 0xf7, 0xbd, 0xc1, 0x63, 0xab, 0x3e,
  0x84, 0x2b, 0x82, 0xbe, 0x28, 0xda, 0x60, 0xbe, 0x9e, 0x09, 0x9f, 0xbe,
  0x1c, 0x05, 0x22, 0x3e, 0x8a, 0xc7, 0x6a, 0x3e, 0xe6, 0xde, 0x87, 0xbd,
  0x90, 0xc0, 0x8c, 0x3e, 0xce, 0x1e, 0xcc, 0x3d, 0xe2, 0xdc, 0xc9, 0x3d,
  0xe3, 0xdb, 0x48, 0xbe, 0x88, 0x4b, 0x81, 0x3e, 0x84, 0x18, 0x0b, 0xbf,
  0x87, 0xe9, 0x84, 0x3e, 0xca, 0x90, 0x06, 0xbe, 0x30, 0xa1, 0x03, 0x3d,
  0x56, 0xe6, 0x8b, 0x3d, 0x0d, 0x96, 0x06, 0xbe, 0x62, 0xd5, 0x3f, 0xbe,
  0x39, 0x17, 0x65, 0xbe, 0x09, 0x76, 0x1d, 0x3e, 0x02, 0x34, 0x57, 0xbd,
  0x45, 0x24, 0x56, 0x3e, 0x0a, 0x1c, 0xad, 0xbe, 0xfc, 0xf0, 0x85, 0x3c,
  0x18, 0x99, 0xaa, 0xbe, 0xe4, 0x73, 0x99, 0xbd, 0xca, 0x9b, 0x51, 0xbe,
  0xc2, 0x8a, 0xaf, 0x3b, 0xd3, 0x2f, 0x01, 0xbf, 0x81, 0xac, 0x62, 0x3c,
  0x85, 0x0f, 0x46, 0xbe, 0x8f, 0x9e, 0xba, 0x3d, 0xf4, 0x1a, 0xa2, 0xbd,
  0xe0, 0xfb, 0xeb, 0xbb, 0xed, 0xdd, 0x8e, 0xbe, 0x4e, 0xff, 0x82, 0xbe,
  0xbd, 0x9b, 0x1b, 0xbe, 0xf7, 0x37, 0xb6, 0xbe, 0x82, 0x7e, 0x1d, 0xbe,
  0xc4, 0xf7, 0x01, 0xbe, 0x86, 0x84, 0x8c, 0xbe, 0x1f, 0x31, 0xb7, 0xbe,
  0x1b, 0x9b, 0xfe, 0x3c, 0x18, 0x13, 0xbc, 0x3c, 0x2e, 0xfe, 0x82, 0x3d,
  0x70, 0xbc, 0x01, 0x3e, 0x68, 0xbf, 0x34, 0x3e, 0xcf, 0xdf, 0x8c, 0xbe,
  0xd0, 0x0e, 0xd8, 0x3e, 0xd3, 0x83, 0x65, 0xbe, 0xe9, 0xd7, 0xb4, 0xbd,
  0x31, 0x32, 0x6a, 0xbe, 0x17, 0x22, 0x56, 0xbd, 0x19, 0x3d, 0x91, 0x3e,
  0x21, 0x60, 0x80, 0xbc, 0x28, 0x9f, 0xcc, 0xbd, 0x0a, 0x94, 0x75, 0x3e,
  0xc2, 0xe1, 0x11, 0xbe, 0x24, 0xdc, 0x1a, 0xbe, 0x6f, 0xf7, 0xe2, 0xbd,
  0xe1, 0xc7, 0x25, 0xbd, 0xdb, 0x30, 0xf7, 0xbc, 0x8f, 0x58, 0x60, 0x3d,
  0x1e, 0xc7, 0x4a, 0x3d, 0x84, 0x46, 0xfb, 0x3c, 0xaf, 0xac, 0x1d, 0xbe,
  0x15, 0x4f, 0xa8, 0xbd, 0xff, 0x7a, 0x59, 0xbf, 0x9c, 0x03, 0x87, 0xbe,
  0xe2, 0x8e, 0xe7, 0xbe, 0xaa, 0x78, 0x0a, 0xbf, 0xa9, 0x47, 0xf6, 0xbe,
  0x86, 0xb3, 0xb9, 0xbe, 0xa0, 0x0b, 0x06, 0xbf, 0xf2, 0x66, 0x3a, 0xbf,
  0x92, 0xc6, 0x90, 0x3e, 0x2b, 0x5a, 0xad, 0xbd, 0xb6, 0x13, 0xd6, 0x3e,
  0xe5, 0x9f, 0xa8, 0x3d, 0x60, 0x72, 0x26, 0xbd, 0xd6, 0xf5, 0x90, 0x3e,
  0xf5, 0x1c, 0x89, 0xbe, 0xee, 0xdd, 0x8c, 0xbc, 0xc4, 0x31, 0x55, 0x3e,
  0x5a, 0x06, 0x98, 0x3a, 0x4b, 0xaf, 0x73, 0x3e, 0x29, 0x11, 0xae, 0xbd,
  0x5e, 0xae, 0xe0, 0x3a, 0xb9, 0x8f, 0x90, 0x3e, 0xc1, 0xaa, 0xff, 0xbd,
  0x76, 0x3f, 0x68, 0xbd, 0xa8, 0x7b, 0x1d, 0xbc, 0x90, 0x28, 0xb8, 0xbd,
  0x06, 0x57, 0xde, 0x3b, 0xde, 0xc0, 0x2c, 0x3d, 0xcf, 0xd2, 0x9c, 0xbe,
  0x22, 0x12, 0x2c, 0xbe, 0x92, 0xb5, 0x47, 0xbe, 0xa0, 0x3d, 0x15, 0xbc,
  0x94, 0x5d, 0xf3, 0xbd, 0xab, 0xdb, 0x17, 0xbe, 0x98, 0xcf, 0x4d, 0xbe,
  0x87, 0x15, 0x0f, 0xbc, 0xbc, 0x49, 0xb2, 0xbe, 0xa0, 0xce, 0x75, 0xbd,
  0x88, 0x9d, 0x60, 0xbe, 0xbd, 0x0f, 0x56, 0x3e, 0x3f, 0x93, 0x5d, 0x3e,
  0xf4, 0x6e, 0xdc, 0x3e, 0xc9, 0x92, 0x07, 0xbe, 0x70, 0x82, 0x3c, 0x3e,
  0x47, 0x93, 0x4f, 0xbe, 0xae, 0x78, 0x4b, 0x3d, 0xcf, 0x0c, 0x4a, 0xbe,
  0xc7, 0xa9, 0x95, 0x3e, 0x81, 0xff, 0xa6, 0x3d, 0x47, 0xad, 0x1d, 0xbd,
  0xf2, 0x1b, 0x8f, 0xbc, 0x7a, 0xbf, 0x13, 0xbc, 0xf0, 0xdc, 0x6f, 0x3d,
  0x8a, 0xf9, 0xdf, 0xbc, 0x34, 0x9e, 0x13, 0xbd, 0xcf, 0xbd, 0xbc, 0x3c,
  0x99, 0x3c, 0x54, 0xbe, 0x91, 0xfc, 0x52, 0xbe, 0xa9, 0x3d, 0x98, 0x3d,
  0x34, 0x46, 0xf4, 0xbd, 0x4a, 0xdc, 0xa7, 0x3d, 0x47, 0x18, 0x32, 0xbe,
  0xc2, 0xdc, 0x09, 0x3e, 0x91, 0xf0, 0x6e, 0xbd, 0xb6, 0xa9, 0xa4, 0xbe,
  0x48, 0xab, 0x48, 0xbe, 0x23, 0xd5, 0x9b, 0x3c, 0x36, 0x30, 0x8d, 0xbe,
  0xa2, 0x7c, 0x04, 0xbe, 0xd3, 0x6d, 0x58, 0x3e, 0x1f, 0x13, 0x4f, 0xbe,
  0x2f, 0xd6, 0xcf, 0xbe, 0xdb, 0xeb, 0x24, 0xbe, 0x60, 0xf8, 0x64, 0xbe,
  0x3e, 0x1f, 0x81, 0xbc, 0xaa, 0xf1, 0x5d, 0xbe, 0xe8, 0x0f, 0x26, 0xbc,
  0x1c, 0x46, 0x80, 0xbd, 0x72, 0x00, 0x0f, 0xbe, 0x60, 0xc6, 0x9a, 0xbe,
  0x64, 0x50, 0xd0, 0x3d, 0x3f, 0x25, 0x2b, 0xbd, 0xdc, 0xbe, 0x2b, 0x3d,
  0x8c, 0x36, 0x5e, 0xbd, 0x66, 0x09, 0x1c, 0xbd, 0x29, 0xa0, 0x62, 0xbd,
  0x62, 0x8b, 0x37, 0xbe, 0x42, 0xb7, 0x0f, 0x3d, 0x9b, 0x0e, 0xdc, 0x3b,
  0x04, 0x7d, 0x00, 0x3e, 0x82, 0x8d, 0x06, 0x3c, 0xbe, 0x09, 0x97, 0x3e,
  0x35, 0x86, 0x0e, 0x3d, 0x1b, 0xaf, 0x73, 0x3d, 0x5c, 0xbf, 0x0f, 0xbe,
  0x94, 0x89, 0x9d, 0x3e, 0x5c, 0x74, 0xb6, 0xbd, 0xaa, 0x38, 0x68, 0xbe,
  0x52, 0x6b, 0xae, 0xbe, 0x57, 0xfd, 0x57, 0x3d, 0xcc, 0x2c, 0xbe, 0x3d,
  0xeb, 0x70, 0xb5, 0xbe, 0x6c, 0x43, 0x36, 0xbd, 0xc9, 0x24, 0x5e, 0x3d,
  0xed, 0x64, 0xe5, 0xbd, 0x02, 0xba, 0x2c, 0x3e, 0x2b, 0x8f, 0x07, 0xbf,
  0x34, 0xde, 0xd6, 0xbc, 0xe9, 0xed, 0x75, 0x3e, 0x03, 0x2a, 0x93, 0xbe,
  0x51, 0xb1, 0x7d, 0xbc, 0xaa, 0x06, 0x02, 0xbe, 0xe6, 0x00, 0x27, 0xbe,
  0xbe, 0x63, 0x15, 0x3d, 0x28, 0xd3, 0x08, 0xbf, 0x1b, 0x3d, 0x0a, 0x3e,
  0x15, 0xfc, 0xcd, 0x3d, 0xbc, 0xbd, 0x1a, 0xbe, 0x66, 0xcb, 0xd4, 0x3d,
  0x90, 0xab, 0x7c, 0x3e, 0xaa, 0x41, 0xc4, 0xbe, 0x0a, 0xd9, 0x42, 0x3c,
  0x46, 0x8c, 0x95, 0xbe, 0x38, 0xc9, 0x82, 0x3d, 0x0e, 0x6d, 0xae, 0x3d,
  0x51, 0x81, 0xb6, 0x3d, 0xdc, 0x07, 0x32, 0xbd, 0xbc, 0x3a, 0x1b, 0x3e,
  0x0d, 0xda, 0x31, 0xbe, 0xcc, 0x66, 0x0c, 0xbe, 0xbc, 0x75, 0x65, 0xbe,
  0x6b, 0x14, 0x19, 0x3d, 0x79, 0x2f, 0xad, 0xbe, 0xc9, 0x64, 0x71, 0xbd,
  0x9d, 0x48, 0x91, 0xbe, 0x02, 0x37, 0x40, 0xbe, 0x69, 0xa5, 0x90, 0x3e,
  0x7e, 0xbd, 0x95, 0x3e, 0xd3, 0x20, 0x2f, 0xbe, 0x72, 0x50, 0x0c, 0x3e,
  0x78, 0x02, 0x22, 0xbe, 0x8a, 0x66, 0xd8, 0x3d, 0x32, 0xc3, 0x91, 0xbe,
  0x96, 0xb6, 0xa9, 0x3e, 0xfe, 0xce, 0xe9, 0x3c, 0xc2, 0xec, 0xff, 0xbd,
  0xce, 0x99, 0x10, 0x3e, 0x14, 0xa5, 0x75, 0x3d, 0x94, 0xe5, 0x1f, 0x3c,
  0xc1, 0x22, 0x96, 0xbe, 0xf8, 0x56, 0x20, 0xbe, 0x20, 0xc7, 0x3a, 0xbe,
  0x24, 0xa1, 0xb6, 0x3d, 0xdb, 0x50, 0x0a, 0x3d, 0xd5, 0x80, 0xea, 0x3d,
  0xf2, 0xe5, 0x64, 0x3c, 0x7c, 0x04, 0x73, 0x3d, 0xe8, 0xe7, 0x11, 0xbe,
  0xce, 0x7b, 0x53, 0xbd, 0x3b, 0x95, 0xb5, 0xbd, 0x9a, 0xa4, 0x84, 0x3e,
  0xcf, 0x3c, 0xce, 0xbe, 0x5a, 0xbe, 0x15, 0xbe, 0x49, 0xcd, 0xab, 0xbe,
  0x9d, 0x74, 0x6a, 0x3e, 0xfe, 0x45, 0x1b, 0xbe, 0xd1, 0x6c, 0x68, 0xbe,
  0xaf, 0x6a, 0xaf, 0xbd, 0xd9, 0xf1, 0x95, 0x3c, 0xc6, 0xb8, 0xce, 0xbe,
  0x76, 0x77, 0xc9, 0x3d, 0x38, 0xf8, 0x30, 0xbe, 0xe0, 0x9a, 0x34, 0xbd,
  0xf6, 0x62, 0xa6, 0xbd, 0x11, 0xd5, 0x9d, 0x3d, 0x16, 0x3d, 0x1e, 0xbe,
  0x6f, 0xdb, 0x78, 0x3c, 0x18, 0xa2, 0x96, 0xbe, 0xac, 0x97, 0xfe, 0x3c,
  0xb9, 0x86, 0xab, 0xbe, 0xcd, 0xeb, 0x8c, 0x3e, 0x79, 0x3f, 0x39, 0x39,
  0xe3, 0x17, 0x42, 0x3e, 0x8c, 0xa1, 0xb5, 0x3e, 0x23, 0x7a, 0x2b, 0x3d,
  0x9d, 0xcc, 0x07, 0xbe, 0x09, 0x8b, 0x0a, 0x3d, 0xb2, 0xb5, 0x16, 0xbe,
  0x37, 0x53, 0x9b, 0xbe, 0xee, 0x0c, 0xcf, 0xbd, 0xd8, 0x68, 0xff, 0xbc,
  0x44, 0x8d, 0x69, 0x3e, 0x8c, 0x42, 0x37, 0xbd, 0xff, 0x47, 0x69, 0xbc,
  0xf4, 0x1a, 0x2e, 0x3e, 0xa9, 0x06, 0x62, 0x3c, 0x07, 0x44, 0xfc, 0xbd,
  0x42, 0xf9, 0x59, 0x3d, 0x03, 0x22, 0x84, 0x3c, 0x9d, 0x96, 0x38, 0xbe,
  0xe6, 0xb0, 0xa8, 0x3d, 0x6c, 0x91, 0x14, 0x3e, 0xb8, 0x96, 0x0b, 0x3e,
  0xba, 0x0a, 0x5b, 0x3d, 0xe3, 0x17, 0x8e, 0x3c, 0xb9, 0x92, 0x12, 0x3e,
  0xa5, 0xe9, 0x2c, 0x3e, 0x11, 0x8e, 0xe1, 0x3d, 0x48, 0x4c, 0x7c, 0xbe,
  0x8f, 0xbb, 0x47, 0x3c, 0x50, 0x8a, 0xe7, 0x3d, 0x3a, 0x57, 0xe3, 0xbc,
  0x97, 0x8b, 0xf4, 0x3d, 0x75, 0x78, 0xe0, 0xbc, 0xa2, 0x30, 0x80, 0x3e,
  0x20, 0x61, 0x26, 0x3e, 0xed, 0x11, 0xef, 0x3d, 0xd3, 0x44, 0x09, 0xbe,
  0xc7, 0x7e, 0x0f, 0xbe, 0x47, 0x33, 0xfd, 0xbd, 0x01, 0x43, 0x39, 0xbe,
  0x23, 0x6c, 0x06, 0xbe, 0x24, 0xa2, 0x0c, 0x3c, 0x69, 0xef, 0x74, 0x3a,
  0x1f, 0x50, 0x91, 0x3c, 0x48, 0xe2, 0x6f, 0xbe, 0x40, 0xd1, 0x4e, 0xbd,
  0x03, 0x4f, 0xc2, 0xbd, 0x59, 0xb9, 0x04, 0xbe, 0xdc, 0xc0, 0x91, 0xbd,
  0x68, 0xf5, 0xa7, 0xbe, 0x25, 0xfb, 0xe9, 0xbd, 0x61, 0x52, 0x1e, 0x3f,
  0x03, 0x23, 0x0d, 0x3e, 0xfe, 0x56, 0x1d, 0x3d, 0xb6, 0x8c, 0xc2, 0x3d,
  0x9d, 0xbf, 0x85, 0xbe, 0xaf, 0x10, 0xc3, 0x3d, 0x64, 0x8d, 0xb8, 0xbe,
  0x18, 0x4c, 0x66, 0x3e, 0x8c, 0x7c, 0x5c, 0xbe, 0xa5, 0x58, 0x91, 0x3e,
  0x1c, 0x70, 0x07, 0xbd, 0xe4, 0x61, 0x73, 0xbe, 0xc6, 0x02, 0x2f, 0xbd,
  0xdb, 0x7a, 0x0f, 0x3d, 0x06, 0x9d, 0x90, 0xbe, 0xde, 0x3e, 0x10, 0x3d,
  0xe1, 0x2d, 0xf1, 0x3d, 0xd2, 0x74, 0x31, 0xbd, 0x21, 0xa8, 0x2d, 0x3e,
  0x12, 0x60, 0x33, 0xbe, 0x90, 0x45, 0xaf, 0x3c, 0xaa, 0x4b, 0xe0, 0xbd,
  0x37, 0xb4, 0x1b, 0x3d, 0xd8, 0xa6, 0x91, 0xbe, 0xc9, 0x44, 0x08, 0xbe,
  0xb7, 0x88, 0x8e, 0xbd, 0xb3, 0x9b, 0x5a, 0xbc, 0xfc, 0xee, 0x6d, 0xbe,
  0xde, 0x85, 0x04, 0x3f, 0x21, 0xe4, 0xf4, 0x3d, 0x5d, 0xfb, 0xf2, 0x3d,
  0xde, 0x07, 0x7d, 0x3e, 0xf8, 0x84, 0x41, 0xbd, 0xfd, 0x27, 0x4f, 0xbc,
  0xa6, 0xb6, 0x85, 0xbd, 0x92, 0xf8, 0x87, 0xbe, 0xd4, 0xc8, 0xbc, 0x3e,
  0xbf, 0xdf, 0xa1, 0xbe, 0xe6, 0xea, 0x26, 0xbe, 0xd2, 0xb1, 0x8e, 0x3d,
  0x17, 0xf3, 0xcb, 0x3d, 0xf7, 0xb5, 0x01, 0x3e, 0xef, 0x84, 0x5a, 0xbd,
  0x94, 0xac, 0x3d, 0xbe, 0x5e, 0x02, 0x87, 0xbe, 0x34, 0x91, 0x4a, 0xbe,
  0xe7, 0x2c, 0x42, 0xbe, 0x1f, 0x3e, 0x26, 0x3e, 0x37, 0xce, 0x6c, 0x3e,
  0xe9, 0xd8, 0xc2, 0x3d, 0x41, 0xf9, 0x6e, 0xbd, 0x67, 0x24, 0x8a, 0xbd,
  0xd1, 0x99, 0x94, 0xbe, 0x72, 0x12, 0x01, 0x3d, 0x01, 0x97, 0x68, 0xbe,
  0xc8, 0xc5, 0x03, 0xbe, 0x05, 0xb3, 0x86, 0x3d, 0x0f, 0xdd, 0xf0, 0xbb,
  0x5e, 0x22, 0xec, 0xbd, 0x4d, 0xf3, 0x0f, 0xbe, 0x8a, 0xba, 0x3f, 0x3f,
  0xa6, 0x42, 0x17, 0xbc, 0x88, 0x2c, 0xb9, 0x3c, 0xe4, 0xff, 0xa1, 0xbd,
  0x05, 0x45, 0x15, 0x3e, 0x20, 0xaa, 0x26, 0x3e, 0x6c, 0xee, 0x87, 0xbe,
  0x10, 0x35, 0x96, 0xbb, 0x2a, 0xe3, 0x3c, 0x3e, 0xc6, 0xcc, 0x3b, 0xbe,
  0xb3, 0xe4, 0xd8, 0xbb, 0x3b, 0x02, 0xc2, 0x3e, 0x5d, 0x8e, 0x4d, 0x3d,
  0xe7, 0x44, 0x5b, 0xbb, 0x46, 0xa3, 0x73, 0xbe, 0xc6, 0x4d, 0x95, 0xbd,
  0x73, 0x74, 0x8e, 0x3d, 0xc1, 0x30, 0x75, 0xbe, 0x8d, 0xc0, 0xde, 0xbd,
  0xca, 0x82, 0x01, 0x3e, 0x72, 0x06, 0x67, 0x3d, 0x1b, 0xb4, 0x31, 0xbd,
  0xba, 0x02, 0x48, 0xbe, 0x2a, 0x17, 0x95, 0x3d, 0x83, 0x44, 0x4e, 0xbe,
  0x58, 0x48, 0x27, 0x3e, 0xd3, 0xbf, 0x93, 0xbe, 0x80, 0x58, 0xa2, 0xbd,
  0xbc, 0xa2, 0xe9, 0xbc, 0xd4, 0x82, 0x3d, 0x3e, 0xd0, 0x1c, 0x00, 0xbf,
  0xe9, 0xeb, 0xbb, 0xbc, 0xd7, 0xee, 0x28, 0xbd, 0xca, 0xb0, 0x92, 0xbe,
  0x50, 0x4d, 0x9a, 0x3d, 0x75, 0xa9, 0x62, 0x3e, 0xe3, 0x05, 0xcd, 0xbd,
  0x1e, 0xec, 0xa9, 0x3e, 0xf6, 0xee, 0xcd, 0xbe, 0xf7, 0x34, 0x32, 0x3d,
  0x87, 0x02, 0xf6, 0xbd, 0x54, 0x5b, 0x4e, 0xbe, 0x10, 0xfe, 0xa4, 0x3d,
  0xe3, 0xec, 0xa3, 0x3d, 0x28, 0x1d, 0x8b, 0xbc, 0x24, 0xd6, 0xd9, 0xbd,
  0x90, 0x1c, 0x96, 0xbe, 0x49, 0x4c, 0xa6, 0x3e, 0xe8, 0x9f, 0xdd, 0xbd,
  0x3b, 0x37, 0x6b, 0xbc, 0x14, 0x33, 0x1f, 0x3d, 0xcb, 0x21, 0x20, 0x3e,
  0xfb, 0xac, 0x98, 0x3d, 0xa4, 0xb4, 0x04, 0x3e, 0x5d, 0x05, 0x50, 0xbc,
  0x07, 0xb7, 0x67, 0xbe, 0x08, 0x49, 0x18, 0x3d, 0xeb, 0x1b, 0x53, 0xbe,
  0xa1, 0x27, 0x95, 0xbd, 0x69, 0x0d, 0x12, 0xbd, 0xa1, 0x00, 0xc2, 0x3e,
  0x3a, 0x9b, 0xde, 0xbe, 0x5c, 0x32, 0x10, 0xbd, 0xad, 0xf7, 0x9f, 0xbe,
  0x40, 0x54, 0xc9, 0xbe, 0x71, 0x01, 0xae, 0xbe, 0x95, 0x80, 0x1b, 0xbd,
  0x29, 0xb7, 0xd1, 0x3d, 0x10, 0xe1, 0xe9, 0x3d, 0x19, 0x41, 0xad, 0xbe,
  0xe9, 0xc6, 0x33, 0xbc, 0xdf, 0x92, 0x2e, 0xbe, 0x31, 0xae, 0xea, 0x3d,
  0x19, 0x71, 0x88, 0xbe, 0x9e, 0x11, 0xa1, 0x3c, 0x15, 0x1c, 0x75, 0xbe,
  0x39, 0xeb, 0x39, 0xbd, 0xbc, 0xef, 0x63, 0xbe, 0xb2, 0x16, 0x7d, 0xbd,
  0x44, 0xf5, 0xfa, 0xbd, 0x18, 0xfd, 0x98, 0x3e, 0x1f, 0x0b, 0x02, 0x3e,
  0xf6, 0x47, 0x97, 0x3e, 0xfc, 0x9b, 0xbb, 0x3d, 0x04, 0x65, 0xd1, 0xbd,
  0x8b, 0xc7, 0xbf, 0xbd, 0x4b, 0xa3, 0x37, 0xbe, 0x04, 0xa9, 0x44, 0xbe,
  0xf8, 0x02, 0x34, 0x3e, 0x99, 0x16, 0xec, 0x3d, 0x73, 0xd9, 0x1d, 0x3c,
  0x66, 0x2d, 0x3a, 0x3e, 0x26, 0xde, 0xff, 0xff, 0x10, 0x00, 0x00, 0x00,
  0x0a, 0x00, 0x00, 0x00, 0x1c, 0x00, 0x00, 0x00, 0x38, 0x00, 0x00, 0x00,
  0x04, 0x00, 0x00, 0x00, 0x10, 0x00, 0x00, 0x00, 0x04, 0x00, 0x00, 0x00,
  0x01, 0x00, 0x00, 0x00, 0x08, 0x00, 0x00, 0x00, 0x1a, 0x00, 0x00, 0x00,
  0x73, 0x65, 0x71, 0x75, 0x65, 0x6e, 0x74, 0x69, 0x61, 0x6c, 0x2f, 0x63,
  0x6f, 0x6e, 0x76, 0x32, 0x64, 0x5f, 0x31, 0x2f, 0x43, 0x6f, 0x6e, 0x76,
  0x32, 0x44, 0x00, 0x00, 0x9c, 0xdd, 0xff, 0xff, 0xa6, 0xde, 0xff, 0xff,
  0x04, 0x00, 0x00, 0x00, 0x80, 0x01, 0x00, 0x00, 0x1d, 0x25, 0xab, 0xbc,
  0x18, 0x87, 0x90, 0xbd, 0x0f, 0x72, 0xfc, 0xbd, 0x3d, 0xae, 0x58, 0xbd,
  0x9b, 0x85, 0x93, 0xbe, 0x07, 0x1c, 0x99, 0xbe, 0x29, 0x95, 0xee, 0x3c,
  0x9b, 0x02, 0xec, 0xbc, 0x14, 0xbb, 0xa1, 0x3d, 0x70, 0x19, 0xa7, 0x3e,
  0xc6, 0x3c, 0xc6, 0x3e, 0x54, 0xdc, 0x87, 0x3e, 0x6d, 0x4a, 0xc8, 0x3e,
  0xe0, 0x0b, 0x4b, 0x3e, 0xdf, 0x8d, 0x9d, 0x3c, 0xfe, 0xb6, 0xa9, 0x3e,
  0x35, 0xac, 0x2a, 0x3e, 0xbc, 0x65, 0xde, 0x3c, 0x48, 0x79, 0xb0, 0xbd,
  0x4e, 0x0e, 0x17, 0x3e, 0xe1, 0x92, 0xea, 0x3d, 0xb3, 0x31, 0xe5, 0x3c,
  0x8f, 0x6f, 0xb1, 0xbc, 0x7b, 0xf1, 0xb0, 0x3c, 0x74, 0x83, 0xdf, 0x3e,
  0x0c, 0x84, 0xd2, 0xbd, 0x1b, 0xef, 0xf9, 0x3d, 0x21, 0xe8, 0xd7, 0x3e,
  0xd3, 0x3d, 0x2d, 0xbe, 0x16, 0x3e, 0xb9, 0xbc, 0xd2, 0x33, 0x28, 0x3e,
  0xf4, 0x03, 0xfd, 0x3c, 0xfa, 0xbc, 0x75, 0xbe, 0x05, 0x92, 0x9f, 0xbb,
  0x59, 0xe1, 0x4b, 0x3d, 0x8b, 0x9d, 0x9d, 0xbd, 0xdf, 0x51, 0x5b, 0x3d,
  0x5d, 0x8f, 0x03, 0xbd, 0x12, 0x10, 0x18, 0xbe, 0xba, 0xc2, 0x62, 0x3d,
  0xdb, 0x02, 0xa8, 0xbd, 0xf6, 0x20, 0x5d, 0xbd, 0x39, 0xff, 0xec, 0x3d,
  0x37, 0x45, 0xbc, 0x3d, 0x33, 0xb7, 0xb7, 0xbd, 0xe9, 0x99, 0x7c, 0x3e,
  0x77, 0x73, 0x55, 0x3e, 0x24, 0xa1, 0x9f, 0x3e, 0x62, 0x41, 0x6d, 0xbe,
  0xf5, 0xec, 0xc2, 0x3e, 0x86, 0x3b, 0x07, 0xbf, 0x47, 0xe2, 0x88, 0x3d,
  0xa9, 0x92, 0x36, 0xbe, 0x2a, 0xd5, 0xb4, 0x3d, 0x66, 0x2a, 0x16, 0x3d,
  0xde, 0xf1, 0x03, 0xbe, 0x2a, 0xae, 0x84, 0x3d, 0xe4, 0xf9, 0x0c, 0x3d,
  0xc9, 0x26, 0x6d, 0xbe, 0x4f, 0x4b, 0xf6, 0x3d, 0xfa, 0xe1, 0xd4, 0x3e,
  0xa0, 0x2e, 0x07, 0xbd, 0x68, 0xcd, 0x58, 0xbd, 0x2b, 0xb4, 0xf0, 0x3e,
  0x96, 0xab, 0x76, 0xbd, 0x13, 0xf5, 0x5f, 0x3d, 0x10, 0xed, 0x7e, 0x3d,
  0x84, 0x67, 0x32, 0xbc, 0xd9, 0x97, 0xc0, 0x3d, 0x31, 0xea, 0xd3, 0xbc,
  0x96, 0x74, 0x4f, 0xbc, 0xbe, 0xe4, 0xb9, 0xbd, 0x60, 0xe6, 0xa3, 0xbd,
  0x99, 0x33, 0x88, 0xbd, 0x7c, 0x39, 0xb5, 0x3d, 0xd7, 0x35, 0x2e, 0xbe,
  0xb4, 0x57, 0x17, 0x3e, 0x7b, 0x69, 0xcc, 0x3c, 0x7e, 0x7c, 0x48, 0xbc,
  0x37, 0xa5, 0x35, 0x3c, 0x5d, 0xbd, 0xb4, 0xbd, 0x1a, 0xb0, 0xda, 0xbd,
  0xfe, 0x44, 0x37, 0x3e, 0x65, 0x80, 0xee, 0xbd, 0x08, 0x4c, 0x38, 0xbe,
  0x3d, 0xa6, 0x89, 0x3d, 0x2b, 0x17, 0x40, 0xbe, 0x48, 0x8d, 0x37, 0x3d,
  0x1e, 0x43, 0x3f, 0x3d, 0xb5, 0x50, 0xdd, 0xbc, 0x33, 0xed, 0xba, 0x3d,
  0x99, 0x4d, 0x34, 0x3e, 0x05, 0xb3, 0x24, 0x3e, 0xa3, 0x53, 0x17, 0x3e,
  0x89, 0xae, 0xd3, 0x3b, 0x3d, 0xae, 0x53, 0x3e, 0xfe, 0xdf, 0xff, 0xff,
  0x10, 0x00, 0x00, 0x00, 0x09, 0x00, 0x00, 0x00, 0x1c, 0x00, 0x00, 0x00,
  0x38, 0x00, 0x00, 0x00, 0x04, 0x00, 0x00, 0x00, 0x08, 0x00, 0x00, 0x00,
  0x04, 0x00, 0x00, 0x00, 0x03, 0x00, 0x00, 0x00, 0x01, 0x00, 0x00, 0x00,
  0x18, 0x00, 0x00, 0x00, 0x73, 0x65, 0x71, 0x75, 0x65, 0x6e, 0x74, 0x69,
  0x61, 0x6c, 0x2f, 0x63, 0x6f, 0x6e, 0x76, 0x32, 0x64, 0x2f, 0x43, 0x6f,
  0x6e, 0x76, 0x32, 0x44, 0x00, 0x00, 0x00, 0x00, 0x74, 0xdf, 0xff, 0xff,
  0x7e, 0xe0, 0xff, 0xff, 0x04, 0x00, 0x00, 0x00, 0xc0, 0x00, 0x00, 0x00,
  0xdb, 0x63, 0xba, 0x3e, 0x7b, 0xf5, 0x9a, 0xba, 0xa1, 0x5f, 0x29, 0xbe,
  0x6b, 0xd6, 0x94, 0xbe, 0x90, 0x45, 0xd7, 0x3d, 0x6f, 0xd8, 0xbf, 0x3e,
  0xaf, 0x25, 0xfd, 0xbe, 0xf6, 0x66, 0xd4, 0x3e, 0x13, 0xf2, 0xcb, 0x3e,
  0x24, 0x9e, 0x1e, 0x3b, 0xff, 0x2c, 0x94, 0x3e, 0x16, 0xfe, 0xf7, 0x3e,
  0xcd, 0xf9, 0xc3, 0x3e, 0xba, 0xe8, 0x50, 0xbe, 0xa3, 0x1b, 0x6d, 0xbe,
  0xdc, 0xfe, 0xf2, 0xbc, 0xea, 0x26, 0xde, 0x3e, 0x03, 0xb0, 0x32, 0xbd,
  0x0b, 0x84, 0x56, 0xbe, 0x82, 0x28, 0x9a, 0xbe, 0xc1, 0x50, 0x29, 0xbf,
  0x83, 0xb5, 0xc1, 0x3e, 0xd8, 0xad, 0xe1, 0xbe, 0xde, 0xce, 0xf7, 0x3e,
  0x02, 0x3f, 0xbb, 0x3e, 0xe8, 0xb2, 0xb4, 0xbd, 0xa7, 0x34, 0xb1, 0x3e,
  0xd2, 0x00, 0x2e, 0xbf, 0x92, 0xf7, 0xd5, 0x3e, 0x9f, 0xb9, 0x02, 0xbd,
  0xd4, 0xca, 0x61, 0x3d, 0x5d, 0xcb, 0xdf, 0x3e, 0x7f, 0xed, 0xb5, 0x3e,
  0x05, 0x52, 0xc6, 0xbd, 0xdd, 0xd0, 0x7e, 0xbe, 0xb4, 0x44, 0x7c, 0xbe,
  0x25, 0x27, 0xdd, 0xbe, 0x8c, 0x94, 0xe2, 0x3e, 0x74, 0xc3, 0x37, 0xbe,
  0x70, 0x9b, 0xd2, 0x3e, 0xe4, 0xa7, 0xa6, 0x3e, 0xe7, 0x59, 0x0c, 0x3d,
  0x21, 0x72, 0xa9, 0x3e, 0x4c, 0xa1, 0x20, 0xbf, 0xed, 0xb6, 0xf2, 0x3e,
  0xda, 0x7d, 0x9b, 0x3e, 0xbf, 0xd9, 0x1a, 0x3e, 0x64, 0xa3, 0xa3, 0xbe,
  0x16, 0xe1, 0xff, 0xff, 0x10, 0x00, 0x00, 0x00, 0x08, 0x00, 0x00, 0x00,
  0x14, 0x00, 0x00, 0x00, 0x30, 0x00, 0x00, 0x00, 0x02, 0x00, 0x00, 0x00,
  0x03, 0x00, 0x00, 0x00, 0x10, 0x00, 0x00, 0x00, 0x19, 0x00, 0x00, 0x00,
  0x73, 0x65, 0x71, 0x75, 0x65, 0x6e, 0x74, 0x69, 0x61, 0x6c, 0x2f, 0x64,
  0x65, 0x6e, 0x73, 0x65, 0x5f, 0x31, 0x2f, 0x4d, 0x61, 0x74, 0x4d, 0x75,
  0x6c, 0x00, 0x00, 0x00, 0x84, 0xe0, 0xff, 0xff, 0x8e, 0xe1, 0xff, 0xff,
  0x04, 0x00, 0x00, 0x00, 0x00, 0x1c, 0x00, 0x00, 0xbe, 0x05, 0xa1, 0x3e,
  0x46, 0x16, 0x0a, 0xbf, 0x42, 0xf7, 0x20, 0x3e, 0xe5, 0xb0, 0x0a, 0x3e,
  0x0d, 0x2b, 0x35, 0x3d, 0xa8, 0x15, 0x6d, 0xbd, 0x5d, 0x37, 0x4e, 0x3d,
  0x64, 0xa8, 0xc3, 0xbe, 0x88, 0xf5, 0x95, 0x3d, 0x5d, 0x9b, 0xd2, 0xbe,
  0x06, 0xf5, 0xa2, 0xbc, 0x25, 0x4f, 0xa9, 0x3e, 0x4e, 0xd3, 0xf0, 0xbe,
  0x93, 0xd2, 0x11, 0xbf, 0x98, 0x22, 0x94, 0xbe, 0x08, 0xf0, 0xcc, 0xbe,
  0x7e, 0x88, 0x9e, 0x3d, 0xd7, 0xc3, 0xc8, 0xbe, 0x27, 0xb0, 0x95, 0xbd,
  0xdc, 0xa9, 0x13, 0x3d, 0x97, 0xc2, 0x54, 0xbc, 0x2b, 0x4f, 0x1f, 0xbd,
  0x0b, 0x6d, 0x30, 0xbd, 0x5f, 0xfd, 0xa3, 0xbe, 0xbd, 0x96, 0xa4, 0x3d,
  0x98, 0xc9, 0x22, 0x3e, 0x6f, 0x14, 0x64, 0xbd, 0x15, 0x22, 0x38, 0xbe,
  0xac, 0x12, 0x4a, 0xbe, 0x34, 0x37, 0x37, 0xbe, 0x89, 0xe3, 0x85, 0xbe,
  0x1b, 0x6f, 0x80, 0x3e, 0x27, 0x4a, 0x9f, 0xbd, 0x24, 0xcb, 0xcb, 0xbd,
  0x8d, 0x9f, 0x79, 0xbe, 0x5d, 0xe0, 0x81, 0x3d, 0xf9, 0x0f, 0xa9, 0x3c,
  0x38, 0xb5, 0x43, 0xbd, 0xc3, 0x21, 0xe2, 0xbd, 0x9a, 0xce, 0xe9, 0xbd,
  0x3f, 0xc6, 0x83, 0x3c, 0x97, 0x03, 0xc1, 0xbc, 0x62, 0xf6, 0xde, 0xbc,
  0x63, 0xa4, 0x39, 0x3e, 0x5c, 0x96, 0xd1, 0xbe, 0xc6, 0xbd, 0xb1, 0x3c,
  0x24, 0x9a, 0xa3, 0xbe, 0x92, 0x32, 0xa3, 0x3c, 0xa4, 0xda, 0x46, 0xbe,
  0x3c, 0x09, 0x0f, 0xbe, 0x76, 0x31, 0xee, 0xbd, 0x6a, 0x3d, 0x7c, 0xbd,
  0xc5, 0x6d, 0xc5, 0x3d, 0xbc, 0x32, 0xf8, 0xbd, 0x1c, 0x0c, 0x80, 0x3e,
  0x27, 0x53, 0x98, 0xbe, 0x75, 0x99, 0x45, 0xbd, 0x71, 0x06, 0x0c, 0xbe,
  0x2f, 0xd8, 0x1a, 0xbd, 0x28, 0x4f, 0xce, 0xbc, 0x11, 0xb0, 0x83, 0xbe,
  0xb9, 0x31, 0xc0, 0xbe, 0xf9, 0xf4, 0x95, 0xbe, 0xb4, 0x9c, 0xd2, 0xbd,
  0x62, 0xec, 0xc1, 0x3d, 0x4c, 0x4d, 0xa8, 0xbe, 0xf8, 0x13, 0xa1, 0x3d,
  0xff, 0xcc, 0x41, 0x3d, 0x24, 0xf1, 0xb3, 0x3d, 0x67, 0x19, 0x79, 0x3d,
  0x39, 0x8c, 0x0b, 0x3f, 0xd7, 0xc3, 0x07, 0xbd, 0xf8, 0xb4, 0x87, 0x3c,
  0x8f, 0xc8, 0xa3, 0xbc, 0xcc, 0x86, 0x82, 0xbd, 0x0b, 0xce, 0x70, 0x3e,
  0xf2, 0x6b, 0xc7, 0xbe, 0xd0, 0x60, 0xb0, 0xbe, 0x14, 0x80, 0x1c, 0xbe,
  0xfd, 0xd9, 0xe8, 0xbd, 0x9b, 0x9f, 0x19, 0x3e, 0xc7, 0x61, 0x49, 0xbe,
  0x6c, 0x80, 0xa5, 0x3e, 0xd5, 0xc7, 0xca, 0x3c, 0xe9, 0x23, 0x72, 0xbc,
  0x61, 0x46, 0x3e, 0x3e, 0x00, 0xd0, 0x96, 0x3e, 0xef, 0xef, 0xd1, 0xbc,
  0xc2, 0xdf, 0x10, 0x3e, 0xb4, 0x2e, 0x36, 0x3d, 0x6c, 0x47, 0xda, 0xbc,
  0x34, 0x73, 0x65, 0x3e, 0xdb, 0x4d, 0x2e, 0xbe, 0xd1, 0xff, 0xc3, 0xbe,
  0xe4, 0xc6, 0x08, 0xbd, 0x0f, 0x11, 0x81, 0xbc, 0xa0, 0x24, 0x3a, 0x3d,
  0xa4, 0x7e, 0x5b, 0xbe, 0x42, 0x70, 0x28, 0x3e, 0xc0, 0xaf, 0xcc, 0xbd,
  0xb8, 0xc8, 0xd7, 0x3d, 0xfb, 0x50, 0x24, 0x3e, 0xd0, 0xeb, 0xde, 0x3d,
  0xbf, 0xd0, 0xc3, 0xbd, 0x28, 0x31, 0xeb, 0x3d, 0xa4, 0xe4, 0xb1, 0x3c,
  0xf5, 0x24, 0x9a, 0x3d, 0x9d, 0xe0, 0x69, 0x3e, 0xe9, 0xfa, 0x14, 0xbe,
  0x55, 0x26, 0x6a, 0xbd, 0x56, 0x13, 0xff, 0xbb, 0x45, 0x5f, 0x6d, 0x3d,
  0x61, 0x56, 0xa7, 0xbe, 0x4a, 0x93, 0xaf, 0xbe, 0x51, 0xfe, 0x77, 0xbe,
  0x72, 0x7b, 0x9a, 0xbe, 0x07, 0x09, 0x03, 0xbe, 0xfa, 0x87, 0xd5, 0xbe,
  0x89, 0xb5, 0xe7, 0x3e, 0x88, 0xed, 0x56, 0xbe, 0xf6, 0x72, 0x0e, 0xbf,
  0xf2, 0x94, 0x46, 0x3e, 0xb8, 0xbf, 0x00, 0x3b, 0xf3, 0xf0, 0xf2, 0xbe,
  0x9b, 0xa1, 0x9c, 0x3e, 0x5c, 0x66, 0x37, 0x3d, 0xe0, 0x1a, 0xdd, 0xbe,
  0x89, 0xcb, 0x87, 0x3e, 0x23, 0x38, 0x8d, 0xbe, 0xe3, 0xb9, 0xae, 0xbd,
  0x07, 0x34, 0x87, 0xbd, 0xeb, 0x92, 0x0d, 0xbe, 0xe7, 0x8f, 0xb0, 0xbd,
  0x09, 0x30, 0x4a, 0xbd, 0x56, 0x28, 0x6e, 0x3e, 0xd6, 0xff, 0xb8, 0xbd,
  0x78, 0x9b, 0x8c, 0xbd, 0x88, 0x38, 0xf5, 0xbc, 0xa0, 0x53, 0x5f, 0xbc,
  0x4b, 0x04, 0x8a, 0xbd, 0x12, 0x35, 0x84, 0x3e, 0x32, 0x6a, 0xd6, 0x3d,
  0xb0, 0x0f, 0xfe, 0xbd, 0x19, 0x09, 0xfe, 0x3d, 0xe7, 0xf7, 0x47, 0x39,
  0xf7, 0x02, 0x09, 0xbc, 0x6a, 0xcc, 0x4d, 0x3d, 0xc1, 0xe6, 0xcd, 0x3d,
  0xf8, 0x7c, 0x0a, 0xbe, 0xfd, 0x24, 0x16, 0xbd, 0x66, 0xee, 0x89, 0x3d,
  0x53, 0x2d, 0xb7, 0x3d, 0x11, 0xfe, 0x87, 0x3d, 0x40, 0x39, 0x9f, 0x3c,
  0x16, 0xd9, 0xaf, 0xbd, 0x17, 0x31, 0x27, 0x3e, 0x66, 0x45, 0xcc, 0x3e,
  0x56, 0x6b, 0xfa, 0x3d, 0xd8, 0x64, 0xbc, 0x3c, 0x27, 0x69, 0xe2, 0x3d,
  0xc8, 0xfd, 0x34, 0x3e, 0xc7, 0x6f, 0xdb, 0xbc, 0x11, 0x87, 0x9d, 0x3e,
  0xff, 0x43, 0xe0, 0x3d, 0x6f, 0x02, 0x10, 0x3e, 0xbc, 0x6e, 0xa2, 0x3e,
  0x83, 0x1d, 0x87, 0x3d, 0xac, 0x83, 0x31, 0xbe, 0x38, 0xa7, 0x52, 0x3d,
  0x7a, 0xd5, 0xd2, 0x3d, 0x40, 0x7e, 0x6e, 0xbc, 0x26, 0x95, 0xf0, 0x3e,
  0x67, 0xe4, 0x13, 0x3f, 0x09, 0x1f, 0x7c, 0x3e, 0x49, 0x13, 0xa6, 0x3d,
  0xed, 0x9b, 0xc9, 0xbd, 0xb4, 0x8e, 0x1c, 0x3c, 0x4f, 0xef, 0x3b, 0xbd,
  0x39, 0x7f, 0x18, 0x3e, 0xc8, 0x55, 0x79, 0x3a, 0x71, 0xa5, 0x48, 0xbd,
  0xee, 0x81, 0x29, 0xbe, 0x20, 0xfa, 0xd1, 0xbe, 0xb1, 0xc5, 0x0b, 0xbc,
  0x03, 0x1e, 0x4c, 0xbe, 0xe4, 0xb2, 0x0a, 0x3e, 0x3e, 0xaf, 0xd9, 0x3d,
  0x0a, 0xe0, 0x41, 0xbe, 0x72, 0xd9, 0x0a, 0x3f, 0x16, 0xb1, 0x7f, 0x3e,
  0xb7, 0x93, 0x8c, 0xbe, 0xff, 0x6d, 0xca, 0xbb, 0xef, 0x47, 0x8f, 0xbe,
  0x50, 0x03, 0x0d, 0x3e, 0xcb, 0x1c, 0x55, 0xbe, 0x34, 0x1d, 0xc9, 0x3d,
  0x47, 0x8b, 0x04, 0x3e, 0x25, 0xda, 0x36, 0xbe, 0x82, 0xfd, 0xa3, 0xbe,
  0x40, 0xc2, 0x15, 0x3e, 0x7c, 0x28, 0x59, 0xbd, 0x1c, 0xae, 0xdd, 0x3d,
  0x30, 0x4f, 0x5f, 0xbd, 0x60, 0x33, 0x66, 0xbe, 0x29, 0x71, 0xe6, 0x3d,
  0x65, 0xdb, 0x06, 0x3e, 0xb1, 0x23, 0x89, 0xbe, 0x32, 0x57, 0x0c, 0xbc,
  0xb7, 0x4c, 0x04, 0xbe, 0xe4, 0x23, 0x31, 0xbe, 0x19, 0xbb, 0x41, 0xbe,
  0xc8, 0x53, 0x08, 0x3e, 0x40, 0xfa, 0x09, 0xbb, 0x3f, 0x66, 0x26, 0xbe,
  0xa5, 0x5c, 0x20, 0xbe, 0x0e, 0x0d, 0xa8, 0x3d, 0xcb, 0xe9, 0x04, 0xbe,
  0x08, 0x08, 0x78, 0x3c, 0xa7, 0x0a, 0x13, 0x3d, 0x46, 0xee, 0x1f, 0xbe,
  0xf4, 0x41, 0x15, 0x3e, 0xc9, 0x27, 0x61, 0xbc, 0xb1, 0xbe, 0x54, 0xbe,
  0xf9, 0x0c, 0x71, 0x3d, 0xf4, 0xbd, 0x12, 0xbe, 0xb6, 0x7f, 0x89, 0xbe,
  0x12, 0xc3, 0x81, 0xbe, 0xcc, 0xd9, 0xac, 0xbe, 0x10, 0x4d, 0x3b, 0xbd,
  0x96, 0x46, 0xa9, 0xbe, 0x04, 0x4a, 0x8f, 0x3c, 0xa0, 0xd0, 0x6d, 0xbe,
  0xe3, 0xa3, 0x17, 0xbf, 0x9f, 0x73, 0xac, 0x3e, 0x5b, 0x14, 0xd6, 0xbd,
  0xd3, 0xf4, 0xe6, 0xbe, 0x75, 0xe2, 0x41, 0x3e, 0x97, 0x74, 0x66, 0x3e,
  0x8b, 0x60, 0x07, 0xbf, 0x03, 0xf8, 0x65, 0x3e, 0x61, 0x1a, 0xe7, 0xbd,
  0x49, 0x0b, 0x84, 0x3d, 0xf6, 0x38, 0x85, 0xbd, 0x4a, 0x0b, 0x4b, 0xbd,
  0xfa, 0xcf, 0x38, 0x3d, 0xf6, 0xda, 0xaf, 0xbc, 0x2c, 0xd8, 0x2d, 0x3e,
  0x1f, 0x85, 0x9c, 0x3d, 0x38, 0xe5, 0x61, 0xbe, 0x4d, 0xcf, 0xe4, 0x3c,
  0x6c, 0x5c, 0xc6, 0xbc, 0x40, 0xb6, 0x63, 0x3e, 0xca, 0xfc, 0xf9, 0x3e,
  0xa3, 0xcd, 0xeb, 0x3d, 0x65, 0xe6, 0x30, 0x3c, 0xe3, 0xa2, 0x4e, 0xbc,
  0xd3, 0x2c, 0x2b, 0x3e, 0x08, 0xe9, 0x1e, 0xbe, 0x26, 0xd0, 0x07, 0x3e,
  0x7a, 0x9d, 0xd4, 0x3d, 0xe5, 0x24, 0x75, 0x3d, 0xc3, 0xc8, 0x9a, 0x3e,
  0x9e, 0x1a, 0x84, 0x3d, 0x0f, 0xb9, 0x08, 0x3e, 0x00, 0xdd, 0xb4, 0x3d,
  0x1b, 0xe7, 0x34, 0xbe, 0x83, 0x51, 0x30, 0x3d, 0x60, 0x48, 0xf5, 0x3b,
  0x5a, 0xbe, 0xe7, 0x3e, 0xe5, 0xf7, 0x04, 0xbe, 0x5f, 0x18, 0x4a, 0xbe,
  0xb1, 0x59, 0xf9, 0xbd, 0x04, 0xf9, 0xd5, 0x3d, 0x8f, 0xef, 0x27, 0x3d,
  0x64, 0x5c, 0x95, 0x3e, 0x4f, 0x7a, 0x59, 0x3e, 0x56, 0xdc, 0x4b, 0x3e,
  0x23, 0x4b, 0xd2, 0xbb, 0x2f, 0x60, 0x73, 0x3d, 0x5a, 0x8b, 0xd7, 0xbd,
  0x4b, 0xad, 0x8f, 0x3c, 0x7a, 0x1b, 0x50, 0x3e, 0x42, 0x4a, 0x4c, 0x3d,
  0x61, 0x80, 0xb7, 0x3e, 0x9a, 0x17, 0x20, 0x3f, 0x13, 0xab, 0xfc, 0x3d,
  0x0b, 0xea, 0x91, 0x3d, 0x95, 0x9e, 0x55, 0x3e, 0x7c, 0xea, 0xb6, 0x3c,
  0x1d, 0x59, 0x76, 0x3d, 0x10, 0xe2, 0x06, 0xbd, 0xa1, 0xc6, 0x36, 0x3d,
  0xc8, 0x72, 0x0d, 0x3d, 0x09, 0xdb, 0xda, 0xbc, 0xdc, 0xca, 0x01, 0xbf,
  0xd8, 0x12, 0xcc, 0x3b, 0x3f, 0xfc, 0xb1, 0xbd, 0xa7, 0x22, 0x32, 0x3e,
  0x09, 0xbc, 0x6a, 0xbd, 0xf2, 0x78, 0xea, 0xbd, 0xb1, 0x1a, 0x06, 0x3f,
  0x20, 0xb6, 0x4c, 0x3e, 0x81, 0x75, 0x0b, 0xbd, 0x97, 0x64, 0x32, 0x3e,
  0xd3, 0xbc, 0x17, 0xbe, 0x70, 0xad, 0x03, 0x3d, 0x80, 0xd5, 0x5e, 0xbe,
  0x30, 0x16, 0xa7, 0x3d, 0xb0, 0x41, 0x54, 0x3c, 0xb7, 0xc4, 0xeb, 0xbd,
  0xa3, 0xa7, 0xc5, 0xbe, 0x89, 0xfa, 0x92, 0x3d, 0xc8, 0x09, 0x3e, 0xbe,
  0x26, 0x75, 0x99, 0x3d, 0x18, 0x26, 0x35, 0x3d, 0xf1, 0x36, 0xbc, 0xbd,
  0x7f, 0xb8, 0xcb, 0x3e, 0x0f, 0x83, 0x92, 0x3e, 0x9e, 0x99, 0x25, 0xbe,
  0xb4, 0xfa, 0x98, 0x3e, 0x2e, 0x6e, 0xc8, 0x3a, 0x76, 0x07, 0xa6, 0xbd,
  0x41, 0x39, 0x98, 0xbe, 0xa2, 0x23, 0x59, 0x3c, 0x3c, 0x24, 0xf7, 0xbb,
  0x2a, 0x00, 0x68, 0xbe, 0x7b, 0xf1, 0xa4, 0xbe, 0x19, 0x18, 0x4b, 0xbd,
  0x57, 0x69, 0xae, 0xbd, 0xa9, 0x34, 0x1c, 0x3c, 0x45, 0xe6, 0x81, 0x3d,
  0xbd, 0x29, 0x8e, 0xbd, 0x3c, 0xf1, 0x56, 0x3d, 0xa7, 0xf1, 0x88, 0xbd,
  0x00, 0x6d, 0x31, 0xbe, 0xeb, 0x3d, 0x13, 0xbe, 0x68, 0x09, 0x82, 0xbe,
  0xfb, 0x1b, 0xb0, 0x3e, 0x0e, 0xf4, 0x29, 0x3e, 0x27, 0x61, 0xf8, 0xbe,
  0x87, 0x8d, 0x4e, 0xbf, 0xd8, 0x12, 0xe1, 0x3d, 0xe4, 0x78, 0x02, 0x3e,
  0x1f, 0x74, 0xe3, 0x3e, 0x42, 0x05, 0x4c, 0x3d, 0xdb, 0x82, 0xb9, 0xbe,
  0xcd, 0x88, 0x19, 0xbc, 0xd2, 0x76, 0xa5, 0xbe, 0x5e, 0x4a, 0x8f, 0x3e,
  0xef, 0xf1, 0x82, 0x3d, 0xfd, 0xe5, 0xc3, 0x3e, 0x71, 0xf3, 0xe7, 0xbe,
  0xc2, 0x17, 0x84, 0x3e, 0x2a, 0x8a, 0x2f, 0x3e, 0xe5, 0x69, 0x7f, 0x3e,
  0x8a, 0x54, 0x49, 0xbd, 0xc6, 0x82, 0xca, 0x3d, 0xa9, 0x0b, 0x1f, 0x3e,
  0xb0, 0xc3, 0xaa, 0x3e, 0x35, 0x47, 0x7a, 0xbc, 0x0c, 0x40, 0x96, 0xbd,
  0x82, 0x6d, 0x5c, 0xbe, 0x92, 0xdc, 0x89, 0xbd, 0x8b, 0x4b, 0x6f, 0x3e,
  0x6f, 0x4f, 0x1c, 0x3e, 0xd6, 0x38, 0x7a, 0xbc, 0x1f, 0x05, 0x2a, 0x3e,
  0xe2, 0x41, 0xd5, 0xbe, 0xd7, 0xe2, 0x8c, 0x3e, 0x9e, 0xac, 0x2d, 0x3e,
  0x83, 0x86, 0x34, 0x3e, 0xd7, 0x18, 0xdd, 0xbd, 0xe2, 0x7b, 0xe1, 0x3d,
  0x01, 0x52, 0x91, 0x3d, 0xd3, 0xc3, 0xb8, 0x3e, 0xe9, 0x4a, 0x21, 0x3c,
  0x26, 0xca, 0x96, 0x3d, 0x98, 0xe5, 0x35, 0xbe, 0x89, 0x3f, 0x0b, 0xbe,
  0x18, 0x10, 0xbc, 0x3e, 0xbf, 0x4a, 0x99, 0x3e, 0x4b, 0xec, 0x27, 0x3e,
  0xca, 0x1b, 0xb8, 0xbd, 0x09, 0xee, 0x92, 0xbe, 0x62, 0xc4, 0xbf, 0x3d,
  0xc3, 0x71, 0x0f, 0x3d, 0xce, 0xe6, 0xac, 0x3e, 0x35, 0xf1, 0x2a, 0xbc,
  0x71, 0x69, 0x24, 0x3e, 0x6a, 0xe1, 0xfc, 0x3d, 0xba, 0x41, 0x73, 0x3e,
  0x54, 0x4f, 0x59, 0x3d, 0x7b, 0x97, 0x3e, 0x3e, 0xe6, 0x24, 0x3e, 0xbe,
  0x69, 0x75, 0x23, 0xbe, 0x84, 0x19, 0x64, 0x3e, 0x05, 0xc0, 0xa0, 0xbd,
  0x5d, 0x75, 0x42, 0x3e, 0xe0, 0x0b, 0xbc, 0x3d, 0xae, 0x26, 0x84, 0x3d,
  0x9a, 0x40, 0x9e, 0x3c, 0x54, 0x2d, 0x90, 0x3d, 0x05, 0xd8, 0x50, 0x3e,
  0xa5, 0x1c, 0xc2, 0x3d, 0xf4, 0x95, 0x0b, 0x3e, 0x3b, 0x04, 0x8f, 0x3d,
  0xd8, 0x23, 0x5b, 0xbe, 0x05, 0x1c, 0xd1, 0x3c, 0x83, 0x18, 0xb3, 0x3d,
  0x49, 0x5d, 0xc9, 0xbd, 0x70, 0x44, 0x1b, 0xbe, 0x7f, 0xf0, 0x60, 0xbe,
  0x96, 0x82, 0xc5, 0xbd, 0x04, 0x54, 0x39, 0x3e, 0x87, 0xd3, 0xae, 0x3b,
  0xe1, 0x42, 0xf0, 0xbc, 0x0c, 0x7a, 0xff, 0xbd, 0x85, 0x26, 0xbd, 0x3d,
  0xfc, 0xbe, 0x88, 0x3e, 0xfc, 0x2f, 0x2f, 0x3c, 0x4e, 0x39, 0x6b, 0x3e,
  0xe1, 0xf4, 0x44, 0x3c, 0x23, 0xab, 0xc8, 0x3e, 0x20, 0xcc, 0x91, 0x3c,
  0xba, 0xdf, 0xb2, 0xbc, 0x23, 0xd6, 0x61, 0xbe, 0xa1, 0x2b, 0xbf, 0xbd,
  0x0c, 0x20, 0xe5, 0x3c, 0xc2, 0xd5, 0x6a, 0x3e, 0x63, 0xe9, 0xba, 0x3c,
  0x1f, 0x11, 0x46, 0x3c, 0x87, 0x82, 0x2a, 0xbe, 0x2c, 0x15, 0xd0, 0xbd,
  0x8e, 0x52, 0xd2, 0x3d, 0x49, 0x54, 0xad, 0x3d, 0xaf, 0xe2, 0xab, 0x3c,
  0x72, 0x0a, 0xd5, 0xbc, 0x73, 0x53, 0x26, 0xbe, 0x66, 0xe0, 0xb0, 0x3e,
  0xdb, 0xf2, 0x13, 0xbe, 0x9b, 0x6a, 0x62, 0x3c, 0x9b, 0x1a, 0x98, 0x3d,
  0x8e, 0x68, 0x27, 0xbe, 0x5b, 0x5f, 0x81, 0x3d, 0x92, 0x17, 0x3a, 0x3c,
  0x37, 0x90, 0x1c, 0xbd, 0xfc, 0x78, 0x9c, 0x3d, 0xb2, 0xcd, 0x79, 0x3d,
  0x49, 0x87, 0x10, 0xbe, 0xae, 0xa3, 0x81, 0xbe, 0x0e, 0x06, 0x1b, 0xbe,
  0x91, 0x72, 0x46, 0xbe, 0xd4, 0xe6, 0xcd, 0xbd, 0xfc, 0x11, 0xaa, 0xbe,
  0x23, 0xec, 0x24, 0x3e, 0x94, 0xc7, 0xde, 0x3a, 0x58, 0x22, 0x54, 0xbe,
  0x77, 0x42, 0x38, 0xbd, 0xcd, 0x81, 0x3f, 0xbe, 0xe5, 0xe4, 0x09, 0x3d,
  0xb6, 0x9f, 0x77, 0x3d, 0x19, 0x55, 0x9c, 0xbe, 0x2e, 0x30, 0xaf, 0xbe,
  0xb0, 0x71, 0xce, 0x3d, 0xcf, 0xcc, 0xd2, 0xbd, 0xf8, 0x12, 0x57, 0x3b,
  0x8b, 0x1a, 0x26, 0xbd, 0xae, 0xb5, 0x37, 0xbe, 0x7c, 0x5c, 0x52, 0xbd,
  0xf8, 0xe2, 0x29, 0xbe, 0xfc, 0x3d, 0xc8, 0x3e, 0x89, 0x98, 0xcb, 0xbc,
  0xd3, 0xe7, 0x18, 0xbe, 0x65, 0x52, 0x06, 0xbd, 0xb0, 0x1d, 0x9a, 0xbe,
  0xea, 0xf2, 0xb4, 0x3d, 0x76, 0x89, 0xaf, 0x3d, 0x64, 0x08, 0x5f, 0xbe,
  0x9e, 0xfc, 0x86, 0x3d, 0xae, 0xbe, 0xbe, 0x3e, 0xa7, 0x1e, 0x43, 0xbe,
  0x0d, 0xe1, 0xbc, 0x3e, 0xfd, 0xca, 0x33, 0xbe, 0xc1, 0xbe, 0x77, 0xbe,
  0x6c, 0xee, 0x61, 0xbe, 0x26, 0x7b, 0xab, 0xbd, 0x13, 0x4b, 0x5f, 0x3f,
  0x2b, 0xcc, 0x8b, 0x3e, 0x40, 0xad, 0x82, 0x3c, 0x3c, 0xd8, 0x9e, 0xbe,
  0xf4, 0x31, 0x25, 0xbe, 0x7a, 0x2a, 0xcd, 0x3d, 0x27, 0x11, 0x1e, 0x3f,
  0x67, 0xcc, 0x28, 0xbe, 0x7a, 0x88, 0x66, 0xbd, 0x6a, 0xe6, 0x8e, 0x3e,
  0xff, 0x90, 0x3f, 0x3c, 0x1f, 0xb8, 0x0e, 0x3d, 0x99, 0xb2, 0xd5, 0xbd,
  0x3d, 0xa8, 0x3e, 0xbe, 0x08, 0x1d, 0x82, 0x3d, 0xd3, 0x85, 0x3a, 0xbe,
  0xc4, 0xc3, 0x64, 0x3b, 0x9f, 0x01, 0x2b, 0x3a, 0xe9, 0x2c, 0x6c, 0xbd,
  0x09, 0x83, 0xc0, 0x3d, 0x05, 0x0d, 0x8d, 0xbe, 0x2e, 0xe5, 0x3e, 0xbc,
  0x6f, 0x2f, 0x09, 0x3e, 0xd3, 0xba, 0x00, 0xbe, 0x1d, 0x38, 0x49, 0xbe,
  0x32, 0x01, 0x2b, 0x3d, 0x2f, 0x5e, 0x05, 0xbe, 0xaa, 0x43, 0x6b, 0xbe,
  0x69, 0xbc, 0x71, 0x3d, 0x12, 0x34, 0x10, 0xbe, 0xd5, 0xd6, 0x24, 0x3d,
  0x56, 0xc2, 0x4d, 0xbe, 0x7f, 0x35, 0xee, 0xbc, 0x96, 0x0a, 0xaf, 0x3e,
  0x36, 0xe4, 0x4a, 0xbe, 0xa0, 0xc6, 0x8c, 0xbe, 0xea, 0x71, 0x92, 0xbe,
  0x1a, 0x72, 0xe2, 0xbd, 0x66, 0x57, 0x15, 0x3f, 0x9e, 0xff, 0xf4, 0x3d,
  0x52, 0xf2, 0x2d, 0xbe, 0xe5, 0x7d, 0xb8, 0x3e, 0xef, 0xb9, 0x93, 0xbe,
  0x17, 0x58, 0xa4, 0x3e, 0x55, 0xce, 0x8c, 0x3c, 0x14, 0xc5, 0xfa, 0xbd,
  0x91, 0xae, 0x18, 0xbe, 0xa4, 0x3d, 0x56, 0xbe, 0x48, 0x56, 0xcf, 0x3e,
  0x8a, 0xea, 0x4d, 0xbc, 0x01, 0x29, 0x16, 0xbe, 0xf9, 0xb0, 0x88, 0x3d,
  0xf4, 0x5d, 0x1e, 0xbe, 0x39, 0x24, 0x90, 0x3d, 0xa9, 0xf6, 0x2d, 0x3e,
  0x66, 0x57, 0x0a, 0xbe, 0xe2, 0xbb, 0x7f, 0xbe, 0xbe, 0x11, 0xac, 0x3e,
  0x32, 0xfa, 0x5b, 0xbe, 0x6f, 0x42, 0xb1, 0x3d, 0x64, 0x96, 0x00, 0xbd,
  0xc1, 0x15, 0x18, 0x3c, 0xa6, 0x1f, 0x57, 0xbe, 0xc6, 0xc8, 0x6d, 0xbb,
  0x01, 0x91, 0xb5, 0xbc, 0x91, 0x2d, 0xf3, 0x3d, 0x80, 0x5f, 0x3a, 0xbd,
  0x31, 0x51, 0xa5, 0x3e, 0x9a, 0x43, 0x80, 0xbe, 0x3e, 0xb0, 0x6e, 0xbe,
  0x05, 0x0f, 0xd9, 0x3d, 0x83, 0xcf, 0x9f, 0xbe, 0x87, 0x9e, 0x9a, 0xbd,
  0x7e, 0x60, 0x5b, 0x3e, 0xf5, 0x35, 0x0a, 0xbf, 0x81, 0x6b, 0x6f, 0x3e,
  0x80, 0xc4, 0xa9, 0xbc, 0xba, 0xa4, 0xf9, 0xbe, 0xee, 0xd1, 0x39, 0xbf,
  0xf2, 0x51, 0xbe, 0xbd, 0xf2, 0xa3, 0x88, 0x3e, 0xf8, 0x9d, 0xde, 0x3e,
  0xe0, 0xc9, 0x3d, 0x3d, 0x16, 0xb0, 0xad, 0xbe, 0xa2, 0x40, 0x18, 0xbe,
  0xec, 0x0b, 0xc4, 0xbe, 0xb7, 0x3d, 0x22, 0xbe, 0xaa, 0x9a, 0xb2, 0xbc,
  0x50, 0x5e, 0x99, 0x3e, 0xd2, 0x0d, 0xb5, 0xbe, 0x29, 0x9b, 0x3e, 0x3e,
  0x64, 0x83, 0xc1, 0xbc, 0x07, 0x94, 0x3d, 0x3e, 0x1a, 0xc7, 0x3d, 0xbe,
  0x79, 0x9a, 0x3e, 0x3e, 0xc5, 0x38, 0xe9, 0x3d, 0xea, 0x8a, 0xf4, 0x3e,
  0xc9, 0x2b, 0x7f, 0x3d, 0x63, 0x6d, 0x6e, 0x3e, 0xd9, 0xec, 0xb2, 0xbd,
  0x37, 0x1a, 0x43, 0x3c, 0x50, 0x7b, 0xa0, 0x3d, 0x4e, 0x2b, 0x0a, 0xbe,
  0xb6, 0xc4, 0x16, 0x3d, 0x2b, 0x64, 0xa9, 0xbc, 0x3c, 0xdc, 0xde, 0xbe,
  0x81, 0x0e, 0x76, 0xbd, 0xa8, 0xf0, 0xdd, 0x3d, 0x07, 0x17, 0x9e, 0x3e,
  0x2b, 0x12, 0xd8, 0xbb, 0x67, 0xcc, 0x37, 0x3b, 0x74, 0x09, 0x18, 0x3e,
  0x1d, 0x33, 0xb4, 0x3e, 0x3f, 0x0c, 0x84, 0xbd, 0xcb, 0x19, 0x8c, 0xbc,
  0x6e, 0xb0, 0x49, 0xbe, 0x71, 0x10, 0xc4, 0xbd, 0x4d, 0x43, 0x2e, 0x3e,
  0xe1, 0xd6, 0xbc, 0x3c, 0x88, 0x64, 0x7c, 0x3e, 0x66, 0xdb, 0xbd, 0x3d,
  0xa8, 0x90, 0x8f, 0xbe, 0x12, 0x0f, 0xab, 0x3c, 0xdb, 0xa9, 0x2b, 0x3e,
  0xb4, 0x78, 0x1b, 0xbe, 0x44, 0xe7, 0xd5, 0x3d, 0xb0, 0x8b, 0xeb, 0xbd,
  0x2b, 0x70, 0x12, 0x3c, 0xa8, 0x56, 0x06, 0x3e, 0xf6, 0xd0, 0xcb, 0x3d,
  0x76, 0xef, 0x98, 0x3d, 0x7e, 0x6a, 0xbd, 0x3d, 0x82, 0x96, 0xaf, 0xbd,
  0x96, 0xe6, 0x01, 0x3e, 0xf9, 0x57, 0x60, 0x3d, 0x66, 0x11, 0xc9, 0xbd,
  0xef, 0x02, 0x09, 0x3e, 0x82, 0xf5, 0x81, 0xbe, 0xd4, 0x2e, 0x71, 0xbb,
  0x22, 0x77, 0x28, 0x3e, 0x00, 0x9d, 0x4b, 0x3e, 0x69, 0x81, 0xff, 0x3d,
  0x56, 0xf5, 0x07, 0x3e, 0xfb, 0x40, 0x82, 0x3c, 0x09, 0x50, 0x9c, 0xbd,
  0x85, 0x5b, 0x13, 0xbd, 0x60, 0xc1, 0x5f, 0x3d, 0x18, 0x6a, 0x66, 0x3c,
  0x93, 0x62, 0xa7, 0xbd, 0x7f, 0x18, 0xb3, 0xbd, 0xa2, 0xf4, 0x09, 0xbe,
  0xa9, 0xe0, 0x58, 0x3d, 0x8e, 0x6c, 0x20, 0x3d, 0xff, 0x36, 0xe3, 0x3c,
  0xc4, 0x7b, 0x2d, 0xbd, 0x09, 0x85, 0x97, 0x3e, 0x34, 0x61, 0x0f, 0x3e,
  0x6c, 0xed, 0x0e, 0xbe, 0x42, 0x72, 0x5e, 0x3d, 0x91, 0xc6, 0x9a, 0xbc,
  0x0b, 0xc5, 0x84, 0x3d, 0xdc, 0x03, 0x0f, 0x3e, 0xb1, 0x04, 0x8f, 0xbd,
  0x20, 0x5c, 0xf4, 0xbd, 0xeb, 0x1b, 0x22, 0xbe, 0x1d, 0x8b, 0xf2, 0x3b,
  0x4a, 0xdf, 0x4a, 0xbe, 0x91, 0x91, 0xb7, 0x3d, 0x62, 0x7f, 0x95, 0xbd,
  0x9d, 0x1e, 0x55, 0x3b, 0x96, 0x7f, 0xed, 0xbc, 0xc9, 0x6d, 0x91, 0x3d,
  0x6e, 0x68, 0x5c, 0xbb, 0x4e, 0x34, 0x4a, 0xbd, 0x05, 0xcd, 0xe0, 0xbc,
  0x63, 0xc2, 0xc5, 0xbd, 0x1a, 0xae, 0xed, 0x3d, 0xa4, 0x61, 0x31, 0x3e,
  0xdb, 0x6b, 0xf4, 0xbd, 0x44, 0x15, 0xa5, 0xbd, 0xf5, 0x39, 0xeb, 0xbd,
  0x56, 0x63, 0x28, 0x3e, 0x9b, 0x2f, 0x44, 0xbe, 0x4c, 0x6d, 0x30, 0xbd,
  0x68, 0x1c, 0x3d, 0xbd, 0xaa, 0x27, 0x2a, 0xbe, 0x9a, 0xb8, 0x81, 0xbd,
  0x6d, 0x3d, 0x1e, 0xbe, 0x9d, 0x37, 0x8f, 0xbe, 0x3d, 0x8e, 0x2e, 0xbd,
  0xc8, 0x39, 0x64, 0xbe, 0x22, 0xae, 0x83, 0xbd, 0xc4, 0xf9, 0x9b, 0xbd,
  0xd5, 0x72, 0x0f, 0xbe, 0xdf, 0x1d, 0xcf, 0x3d, 0xee, 0xff, 0xd8, 0xbc,
  0x6e, 0x10, 0x44, 0xbc, 0x8a, 0x09, 0x0b, 0xbe, 0x7d, 0xdf, 0x18, 0x3c,
  0xbb, 0x45, 0x4d, 0xbe, 0x26, 0x9d, 0xd7, 0x3d, 0x7f, 0xc3, 0x45, 0xbe,
  0x92, 0xb8, 0xaa, 0x3d, 0x25, 0x3a, 0x3a, 0xbe, 0x20, 0xa4, 0x84, 0x3c,
  0x3b, 0x32, 0x9c, 0xbd, 0x42, 0xe8, 0xa9, 0x3a, 0x7f, 0x28, 0x90, 0xbd,
  0x50, 0x76, 0x33, 0x3e, 0x99, 0x5f, 0xb7, 0x3c, 0x89, 0x7e, 0xdd, 0xbd,
  0x4d, 0x17, 0xb9, 0x3d, 0xbf, 0x5e, 0x3d, 0xbe, 0xa6, 0xdb, 0x20, 0xbe,
  0x65, 0x91, 0x2c, 0xbd, 0xed, 0x8f, 0xac, 0xbd, 0x3d, 0x43, 0x56, 0xbe,
  0xcb, 0x41, 0xd8, 0xbd, 0x96, 0xa0, 0x8c, 0x3c, 0x94, 0x02, 0x2d, 0xbe,
  0x1e, 0x87, 0x10, 0x3e, 0xf8, 0x01, 0x7c, 0xbd, 0xc5, 0x37, 0x02, 0xbe,
  0x13, 0xcd, 0xa2, 0xbd, 0x20, 0x58, 0xed, 0x3d, 0x5e, 0xe9, 0x16, 0x3e,
  0x19, 0xfa, 0x5c, 0xbe, 0x82, 0x20, 0xff, 0xbc, 0x77, 0x4a, 0x2d, 0xbe,
  0x4f, 0xb1, 0x21, 0xbe, 0xbf, 0x17, 0xec, 0xbd, 0xef, 0x90, 0x12, 0xbe,
  0x4c, 0x6f, 0xf3, 0xbd, 0x0f, 0x49, 0x92, 0x3c, 0x9e, 0x30, 0xf2, 0x3d,
  0xb6, 0x2a, 0x2e, 0x3e, 0x20, 0x75, 0x39, 0xbb, 0xe6, 0xc6, 0xf0, 0x3d,
  0x1a, 0xbf, 0xa2, 0xbc, 0xb5, 0xb2, 0xb8, 0xbd, 0x75, 0xeb, 0x1e, 0xbe,
  0x18, 0xd2, 0x13, 0xbd, 0xbe, 0x9b, 0x59, 0xbe, 0xa6, 0xe1, 0x94, 0xbe,
  0x0d, 0x1d, 0x58, 0xbd, 0xcc, 0x91, 0x33, 0x3e, 0xb9, 0xe0, 0xe4, 0xbb,
  0x27, 0xe8, 0x16, 0x3d, 0x26, 0xf2, 0x26, 0xbe, 0x35, 0x28, 0xd2, 0xbd,
  0x01, 0x56, 0x0e, 0x3e, 0x80, 0x1d, 0x79, 0xbd, 0xe4, 0x28, 0xd7, 0xbd,
  0x2f, 0xc1, 0xf4, 0xbd, 0xff, 0x49, 0x79, 0x3d, 0x0c, 0xcd, 0x75, 0xbd,
  0x20, 0xa9, 0x08, 0xbe, 0xcc, 0xe3, 0x02, 0xbe, 0xbb, 0x5d, 0x7d, 0x3d,
  0xbd, 0x3b, 0xd7, 0x3d, 0x6a, 0xc8, 0x68, 0xbe, 0xfc, 0x94, 0x65, 0xbe,
  0xae, 0xe9, 0x8b, 0x3d, 0xe3, 0xa5, 0xc7, 0xbc, 0xd2, 0x4f, 0x31, 0xbd,
  0xb3, 0xd6, 0x81, 0xbd, 0x70, 0x20, 0xe7, 0x3c, 0xea, 0xca, 0x01, 0x3b,
  0x1b, 0x5f, 0xcc, 0x3c, 0xff, 0x38, 0x21, 0xbe, 0xc1, 0xbc, 0xd0, 0xbd,
  0xa8, 0x8d, 0x55, 0xbe, 0x9f, 0x15, 0x68, 0x3d, 0x45, 0xb4, 0x4f, 0xbe,
  0xaa, 0x7e, 0x03, 0xbe, 0x54, 0xd6, 0x8d, 0x3d, 0x1e, 0xb9, 0x2a, 0xbe,
  0x48, 0x4d, 0xde, 0xbb, 0x75, 0xaf, 0x0c, 0xbd, 0x22, 0x10, 0x77, 0xbe,
  0xb4, 0xc1, 0xe4, 0x3d, 0xf1, 0xdd, 0xee, 0xbd, 0xe2, 0x51, 0x10, 0xbe,
  0x7b, 0x95, 0x1e, 0xbe, 0xf9, 0x0b, 0x06, 0xbe, 0xb6, 0xa9, 0x90, 0x3d,
  0xe0, 0x6a, 0xc9, 0x3d, 0x79, 0xf4, 0x0a, 0xbd, 0x18, 0x06, 0x25, 0xbe,
  0xe6, 0x57, 0x3a, 0xbe, 0x1b, 0x68, 0x87, 0xbe, 0x5c, 0x08, 0xed, 0xbc,
  0x32, 0x6d, 0x2e, 0xbd, 0x61, 0x65, 0x00, 0x3e, 0xdb, 0x70, 0xcd, 0xbd,
  0x04, 0x7f, 0x13, 0xbe, 0x17, 0x82, 0xb7, 0xbb, 0xeb, 0x69, 0xdf, 0xbc,
  0x30, 0x18, 0x81, 0x3e, 0x6e, 0x0d, 0x02, 0xbf, 0x92, 0x0d, 0x45, 0x3e,
  0x3c, 0xdd, 0x8d, 0x3d, 0x80, 0x81, 0x12, 0x3e, 0xe1, 0x88, 0x07, 0x3e,
  0x83, 0x61, 0x16, 0x3e, 0x79, 0x0b, 0x12, 0xbf, 0x11, 0x56, 0x02, 0x3e,
  0x4a, 0x7f, 0xb3, 0xbe, 0x06, 0x34, 0xa4, 0x3c, 0x5b, 0x34, 0x5d, 0x3e,
  0xbf, 0xd9, 0xbc, 0xbe, 0x38, 0xb9, 0x21, 0xbf, 0x77, 0x72, 0xaf, 0xbe,
  0xe1, 0x04, 0xd1, 0xbe, 0xbc, 0x0e, 0x19, 0x3e, 0xcc, 0xc0, 0x2e, 0xbe,
  0x5c, 0xf8, 0x4c, 0x3e, 0x88, 0x2f, 0x3b, 0x3d, 0x9e, 0xff, 0x81, 0xbd,
  0x1f, 0xef, 0x36, 0xbd, 0x16, 0x24, 0x7a, 0xbe, 0x6d, 0x36, 0x83, 0x3d,
  0xd6, 0xf6, 0x05, 0xba, 0x83, 0x66, 0x53, 0x3e, 0xdf, 0xb6, 0x23, 0xbd,
  0x88, 0xff, 0x3b, 0xbe, 0x7e, 0x40, 0x36, 0xbe, 0xc4, 0x5a, 0xfe, 0xbd,
  0xca, 0xd5, 0x81, 0xbe, 0xa0, 0x2f, 0x37, 0x3e, 0xa5, 0xe8, 0x9f, 0xbd,
  0xec, 0xac, 0x3d, 0xbd, 0xc4, 0x14, 0x21, 0xbe, 0x00, 0x8f, 0x82, 0xbd,
  0x6f, 0x5a, 0x03, 0x3e, 0x4d, 0x75, 0x2a, 0xbe, 0x31, 0x84, 0xfb, 0xbd,
  0x77, 0xb6, 0x62, 0x3d, 0x02, 0x03, 0x34, 0xbe, 0xdc, 0xd4, 0xc6, 0x3d,
  0x21, 0x48, 0x1c, 0xbd, 0x2c, 0xa1, 0x20, 0x3e, 0xc3, 0x8a, 0x90, 0xbe,
  0xca, 0x87, 0x56, 0xbd, 0x6b, 0xa0, 0x00, 0x3d, 0x49, 0x46, 0x23, 0x3e,
  0x39, 0x3e, 0x6b, 0xbe, 0x15, 0xfe, 0xd8, 0x3d, 0x3c, 0x95, 0x4a, 0xbe,
  0x27, 0xe5, 0x39, 0xbc, 0x6c, 0xd9, 0x71, 0x3d, 0x60, 0x86, 0x1c, 0xbe,
  0x78, 0xb0, 0xc2, 0xbb, 0xf9, 0xcf, 0xc6, 0x3d, 0x15, 0xa6, 0x1c, 0xbe,
  0x2e, 0x59, 0x3e, 0xbd, 0x1d, 0x42, 0xa2, 0xbc, 0xff, 0x44, 0x4b, 0xbd,
  0x14, 0xdc, 0xd6, 0xbe, 0xac, 0xeb, 0x24, 0xbe, 0x35, 0x03, 0xb5, 0xbd,
  0x79, 0xe1, 0x7b, 0xbc, 0xf2, 0x18, 0x9e, 0x3c, 0xf0, 0xae, 0x62, 0xbe,
  0xf7, 0x0b, 0x28, 0x3d, 0xad, 0x06, 0x87, 0x3d, 0x91, 0x55, 0x54, 0xbb,
  0xed, 0xb8, 0xa9, 0xbd, 0x94, 0xa0, 0x00, 0x3f, 0xa6, 0xb6, 0x05, 0x3c,
  0xb1, 0xb2, 0x06, 0xbc, 0x18, 0x82, 0x15, 0x36, 0x39, 0x1f, 0x41, 0xbd,
  0x14, 0x8c, 0xa7, 0x3e, 0x8f, 0xa2, 0xbd, 0xbe, 0x22, 0xd5, 0xb0, 0xbe,
  0x38, 0x9d, 0x40, 0xbe, 0x3b, 0x8b, 0x12, 0xbe, 0x78, 0x7f, 0x8f, 0x3e,
  0x70, 0x27, 0xe1, 0xbd, 0x02, 0x5f, 0x6e, 0x3e, 0x90, 0xf9, 0x29, 0x3d,
  0xd0, 0x2a, 0xdc, 0xbd, 0xcd, 0x8c, 0x90, 0x3d, 0x02, 0xb9, 0xb3, 0x3e,
  0xd3, 0xf9, 0xa3, 0x3e, 0xa6, 0xa9, 0x25, 0x3d, 0xa3, 0xcf, 0x91, 0xbd,
  0x3e, 0xe3, 0xda, 0xbd, 0xaa, 0x88, 0xb0, 0x3e, 0x6b, 0x87, 0xd1, 0xbe,
  0xea, 0x4a, 0x81, 0xbe, 0xa4, 0xf3, 0xba, 0xbc, 0xd2, 0xce, 0x4f, 0xbd,
  0xc3, 0x34, 0xa0, 0x3d, 0x92, 0xe2, 0x90, 0xbc, 0xbc, 0x82, 0xce, 0x3d,
  0x8a, 0xa2, 0x67, 0xbd, 0x3f, 0x07, 0x44, 0x3d, 0xfa, 0xfa, 0x8e, 0xbc,
  0x17, 0xfe, 0xd2, 0x3d, 0x05, 0x54, 0x01, 0x3c, 0x4b, 0xe8, 0x8d, 0x3d,
  0x8b, 0x43, 0x09, 0xbc, 0xd8, 0xb0, 0xa4, 0xbb, 0x39, 0x5f, 0x26, 0x3e,
  0xf8, 0x2b, 0x40, 0xbe, 0x3d, 0x33, 0xdb, 0xbd, 0xcb, 0x09, 0xad, 0xba,
  0x93, 0xd5, 0x67, 0x3d, 0x2e, 0x0f, 0x90, 0xbe, 0x2d, 0x37, 0x64, 0xbe,
  0x25, 0xc9, 0xbe, 0xbe, 0x7e, 0xa3, 0x32, 0xbe, 0x4c, 0x3f, 0x7d, 0xbd,
  0xb2, 0xbd, 0xa0, 0xbe, 0x5c, 0xfb, 0xe2, 0x3e, 0x86, 0x85, 0x4b, 0xbe,
  0x62, 0x86, 0xa7, 0xbe, 0x93, 0x46, 0x52, 0x3e, 0x8e, 0x22, 0x01, 0xbd,
  0x4d, 0xf9, 0x84, 0xbe, 0x02, 0x56, 0x46, 0x3e, 0x66, 0x98, 0xa3, 0x3e,
  0x06, 0xa6, 0xbe, 0xbe, 0x40, 0x17, 0x83, 0x3e, 0x7c, 0xf6, 0x59, 0x3d,
  0x03, 0x64, 0x0e, 0xbe, 0x76, 0x4a, 0x26, 0xbe, 0x21, 0x5c, 0x27, 0x3e,
  0x21, 0xc7, 0x6a, 0xba, 0x8f, 0xed, 0xc7, 0x3c, 0xce, 0x46, 0x3e, 0x3e,
  0x2d, 0xd4, 0x3b, 0xbe, 0x25, 0xb9, 0x3d, 0xbe, 0x9a, 0xdf, 0xa9, 0xbe,
  0xf8, 0x63, 0x12, 0xbd, 0x7d, 0x49, 0x04, 0x3e, 0xe1, 0x37, 0xc1, 0x3e,
  0x44, 0xd6, 0xf6, 0x3d, 0x71, 0xac, 0x25, 0x3e, 0x5c, 0x18, 0xc0, 0xbc,
  0x41, 0x88, 0x8d, 0x3d, 0x79, 0x4a, 0x20, 0xbe, 0x44, 0xf7, 0x85, 0x3e,
  0x04, 0x11, 0x27, 0x3e, 0xbf, 0x08, 0x45, 0x3e, 0x5d, 0x0c, 0x14, 0x3e,
  0x09, 0xcf, 0xda, 0x3d, 0x55, 0x03, 0x41, 0xbe, 0x36, 0x13, 0x65, 0xbd,
  0x05, 0xd9, 0x83, 0xbd, 0x97, 0xae, 0x26, 0x3d, 0x0f, 0xbb, 0xa0, 0x3d,
  0xf7, 0x15, 0xe8, 0x3d, 0xee, 0xcb, 0x83, 0xbe, 0x4c, 0x2c, 0x18, 0xbe,
  0x0d, 0xa0, 0xf8, 0xbd, 0x56, 0x24, 0xa5, 0x3e, 0x69, 0xcf, 0x73, 0xbe,
  0xa3, 0x66, 0x35, 0x3e, 0x44, 0x5e, 0xdf, 0x3d, 0x3b, 0x2f, 0xb7, 0x3d,
  0x84, 0x0d, 0x7c, 0x3e, 0x18, 0xcb, 0x31, 0x3e, 0xe6, 0x6a, 0x23, 0x3d,
  0xe1, 0x45, 0xbb, 0x3d, 0x76, 0x7e, 0x45, 0x3e, 0x3d, 0x62, 0xfc, 0x3d,
  0x14, 0x3c, 0x25, 0x3e, 0xaf, 0x75, 0xc8, 0x3e, 0xd4, 0xdb, 0x79, 0x3d,
  0x9e, 0x7e, 0x0e, 0x3d, 0x4e, 0x47, 0x04, 0xbd, 0x75, 0xc4, 0x80, 0xbd,
  0x88, 0xd8, 0xc1, 0xbc, 0x3f, 0x9a, 0xae, 0xbc, 0x99, 0xd2, 0x8d, 0xbe,
  0xc9, 0x5c, 0x19, 0xbe, 0xba, 0xd8, 0x78, 0xbe, 0x0e, 0x54, 0x59, 0xbe,
  0x9e, 0x6c, 0x8d, 0x3d, 0x24, 0x47, 0x05, 0xbd, 0x79, 0xba, 0x3f, 0x3e,
  0xed, 0x81, 0xea, 0x3c, 0xec, 0x59, 0xbf, 0xbe, 0x74, 0x4d, 0x00, 0x3f,
  0x65, 0x16, 0x1f, 0x3e, 0x8e, 0x64, 0x35, 0x3d, 0xa1, 0xdb, 0xaa, 0x3c,
  0xe9, 0x6b, 0xb7, 0xbe, 0xe6, 0x91, 0x34, 0xbe, 0xe1, 0xfd, 0x8d, 0xbe,
  0xd5, 0x46, 0x65, 0x3d, 0xd5, 0x02, 0x8b, 0x3c, 0xf5, 0x79, 0x91, 0xbd,
  0x56, 0x28, 0x0e, 0xbe, 0x42, 0x07, 0x50, 0xbd, 0x5a, 0x94, 0x2e, 0xbe,
  0x2a, 0xc3, 0xd3, 0x3d, 0x7b, 0x52, 0x27, 0xbd, 0xd9, 0xc1, 0x9e, 0xbe,
  0xb7, 0xbe, 0xdb, 0x3e, 0xae, 0x83, 0x6b, 0x3e, 0xd5, 0x92, 0x62, 0x3c,
  0x3d, 0x6c, 0x77, 0x3e, 0x92, 0xa5, 0x86, 0xbd, 0xcd, 0x04, 0x8d, 0x3d,
  0xe8, 0xb5, 0x8f, 0xbe, 0xa9, 0xf5, 0x8a, 0x3e, 0xa6, 0xa7, 0x01, 0xbe,
  0xca, 0xa2, 0x3f, 0xbe, 0x3e, 0x74, 0xc4, 0xbd, 0x5a, 0xcd, 0x65, 0xbe,
  0x1a, 0x12, 0x6a, 0xbe, 0xce, 0xf4, 0x1c, 0x3d, 0x46, 0xeb, 0x8b, 0xbc,
  0x5c, 0x73, 0x64, 0xbe, 0xd6, 0x2a, 0x08, 0x3e, 0xe7, 0xe2, 0x1e, 0x3d,
  0x4b, 0x61, 0xb7, 0xbd, 0x12, 0x04, 0x2e, 0x3d, 0x1d, 0x58, 0x73, 0xbe,
  0x14, 0xfa, 0x3b, 0x3e, 0x13, 0xbd, 0x8f, 0xbe, 0x98, 0x61, 0xe2, 0xbd,
  0xa5, 0x6a, 0xa0, 0xbe, 0x16, 0xbc, 0x13, 0x3c, 0x5d, 0xc2, 0x8a, 0x3e,
  0x74, 0x93, 0x06, 0x3f, 0xa0, 0xd5, 0x49, 0xbd, 0x71, 0x69, 0xdf, 0xbd,
  0x5e, 0xf5, 0x82, 0xbe, 0xc9, 0x49, 0xb6, 0xbd, 0xb3, 0x4b, 0xff, 0x3e,
  0xbb, 0x8d, 0xcc, 0x3b, 0x77, 0x44, 0xb9, 0x3e, 0xbc, 0xaf, 0xed, 0xbd,
  0xbc, 0x24, 0x2d, 0x3e, 0xeb, 0x05, 0x83, 0x3e, 0x10, 0x1d, 0x01, 0x3d,
  0x90, 0xb6, 0x5e, 0x3e, 0x02, 0x17, 0x54, 0xbe, 0x5d, 0x6b, 0x86, 0x3e,
  0x7a, 0x9f, 0x27, 0x3f, 0x84, 0x2e, 0x1b, 0x3d, 0x1b, 0xb8, 0x0c, 0xbe,
  0xef, 0xe3, 0xa0, 0xbd, 0xcc, 0xe4, 0x50, 0xbe, 0x6f, 0xe9, 0xbd, 0xbd,
  0x67, 0xfa, 0x80, 0x3e, 0x6c, 0x95, 0x27, 0x3e, 0x36, 0x6d, 0x48, 0x3e,
  0x84, 0xe2, 0xc4, 0x3e, 0xcd, 0x60, 0x59, 0x3e, 0x84, 0xd1, 0x42, 0x3e,
  0x0b, 0x31, 0xfe, 0x3e, 0x44, 0x1c, 0x0e, 0xbe, 0x4f, 0xd7, 0x93, 0x3e,
  0xd6, 0x02, 0x54, 0xbd, 0xc9, 0x5b, 0x95, 0x3e, 0x59, 0x91, 0x5b, 0x3d,
  0x9c, 0x03, 0xad, 0x3d, 0x8d, 0xf7, 0x89, 0x3d, 0xbf, 0xad, 0x52, 0xbe,
  0x5b, 0xfa, 0x68, 0x3e, 0x85, 0x85, 0x2e, 0x3f, 0x99, 0x32, 0xe0, 0x3d,
  0x6d, 0x14, 0xc1, 0xbc, 0x2d, 0xde, 0xab, 0x3d, 0x3c, 0x09, 0x70, 0x3e,
  0xd3, 0xea, 0xb8, 0x3c, 0x4d, 0xda, 0x1b, 0x3e, 0x44, 0x9c, 0x62, 0x3e,
  0xf7, 0x64, 0x5f, 0x3d, 0xb6, 0xc3, 0xb9, 0x3d, 0xe4, 0xd5, 0x88, 0x3e,
  0x40, 0xbd, 0xd4, 0x3d, 0x49, 0xc0, 0x80, 0x3e, 0xdb, 0xfc, 0x85, 0xbe,
  0x4a, 0xdd, 0x00, 0xbd, 0x1f, 0xf3, 0x2f, 0x3e, 0x9d, 0xc9, 0x48, 0x3e,
  0xdb, 0x8e, 0x8c, 0x3e, 0x82, 0x29, 0x1d, 0xbe, 0x23, 0x91, 0x39, 0xbe,
  0x20, 0xd9, 0x2f, 0xbe, 0xbe, 0x11, 0x29, 0x3e, 0x80, 0x5c, 0xa8, 0x3d,
  0xe6, 0x6b, 0xd8, 0x3c, 0x88, 0xbd, 0x0f, 0xbe, 0x96, 0x16, 0x5f, 0xbe,
  0x1e, 0x51, 0xfc, 0xbc, 0x19, 0xbe, 0x10, 0x3e, 0xaa, 0x58, 0xd9, 0xbd,
  0x91, 0xfb, 0x22, 0x3d, 0x78, 0x74, 0x9a, 0xbe, 0x5f, 0xf0, 0x99, 0x3d,
  0xf3, 0xd8, 0xcc, 0x3e, 0xb9, 0xa4, 0x40, 0xbd, 0xbf, 0x53, 0x3e, 0x3e,
  0x49, 0x82, 0x05, 0x3e, 0x86, 0x65, 0x0e, 0x3e, 0x06, 0x6a, 0x81, 0x3e,
  0xcf, 0x99, 0x97, 0x3d, 0x2d, 0x3e, 0x01, 0x3e, 0x42, 0x71, 0x19, 0xbe,
  0x37, 0x75, 0xce, 0xbd, 0xb0, 0xbb, 0x20, 0x3e, 0xd8, 0x31, 0xc3, 0x3d,
  0x41, 0x43, 0x10, 0xbd, 0x96, 0x90, 0xa2, 0xbc, 0x30, 0x28, 0x85, 0xbe,
  0xad, 0x7b, 0x24, 0xbe, 0xbd, 0x82, 0x50, 0x3e, 0xd0, 0xf7, 0x65, 0x3d,
  0x2c, 0x14, 0xf2, 0xbd, 0xfa, 0x3a, 0x92, 0x3d, 0xab, 0x71, 0xcf, 0x3c,
  0x34, 0x16, 0xc6, 0xbd, 0x98, 0x68, 0x97, 0xbd, 0x22, 0x2d, 0x0b, 0x3c,
  0x79, 0x7d, 0x91, 0xbd, 0x48, 0x91, 0x27, 0xbc, 0x87, 0x40, 0x13, 0x3e,
  0x50, 0xd8, 0xd6, 0x3d, 0x83, 0x9c, 0x46, 0xbe, 0x0c, 0x9a, 0x47, 0xbe,
  0xb6, 0x88, 0x19, 0xbe, 0x7a, 0x06, 0xdd, 0x3d, 0xa7, 0x47, 0x9d, 0x3d,
  0x10, 0x27, 0xa6, 0xbd, 0xc6, 0xf2, 0xf5, 0xbc, 0xc1, 0x65, 0x06, 0x3e,
  0xd4, 0xdc, 0x4b, 0x3e, 0x3d, 0xbc, 0xc8, 0xbe, 0xb6, 0x66, 0x90, 0x3d,
  0x26, 0x76, 0x57, 0x3e, 0xb8, 0xc6, 0x7e, 0x3d, 0x6a, 0xa4, 0x81, 0x3e,
  0x42, 0xd4, 0x9a, 0xbd, 0xae, 0x93, 0xb4, 0xbe, 0x91, 0xc3, 0x01, 0x3e,
  0x4a, 0x0a, 0x16, 0xbd, 0xd6, 0xde, 0x57, 0xbd, 0xb8, 0xd3, 0xfe, 0x3d,
  0x7b, 0x7b, 0x9c, 0xbe, 0x9f, 0xf4, 0xd8, 0xbe, 0x5b, 0x53, 0x41, 0xbd,
  0xdf, 0x39, 0x89, 0xbe, 0x20, 0xb2, 0x92, 0x3d, 0x50, 0xdd, 0x22, 0xbe,
  0x02, 0x90, 0xf3, 0xbd, 0x98, 0x43, 0x09, 0x3e, 0x1f, 0x6b, 0xaa, 0x3d,
  0x04, 0x90, 0xa3, 0xbd, 0xcb, 0xaf, 0xe0, 0xbc, 0x1a, 0x9f, 0x7e, 0x3e,
  0xcc, 0x0a, 0x8c, 0x3d, 0x01, 0x42, 0x02, 0x3e, 0xd2, 0xe6, 0x7b, 0xbd,
  0x54, 0x7f, 0x32, 0xbe, 0x74, 0x82, 0x16, 0xbe, 0x42, 0x3c, 0x5c, 0xbd,
  0x1b, 0x25, 0xaa, 0xbd, 0x87, 0x32, 0x90, 0x3e, 0x84, 0xb8, 0x9a, 0xbe,
  0xc6, 0x1e, 0xfb, 0x3d, 0xa5, 0xa0, 0xeb, 0xbd, 0xc6, 0xe2, 0xbe, 0xbd,
  0xae, 0x14, 0x9f, 0x3d, 0x80, 0xe0, 0xa3, 0xbe, 0xd8, 0xb6, 0x8a, 0xbe,
  0x0f, 0x7c, 0x29, 0x3c, 0xd7, 0x5a, 0x32, 0xbe, 0x43, 0x76, 0xa6, 0x3d,
  0x0f, 0x41, 0xa0, 0xbd, 0xf6, 0x9d, 0x3a, 0x3d, 0xe5, 0x44, 0x4e, 0xbe,
  0x6f, 0xb8, 0xe2, 0xbd, 0xd2, 0x71, 0x74, 0x3d, 0xca, 0xba, 0x27, 0x3c,
  0x4d, 0xd5, 0x1c, 0xbf, 0xf6, 0x90, 0x88, 0x3d, 0xc3, 0x86, 0xe4, 0xbe,
  0x5c, 0x16, 0x73, 0xbd, 0xce, 0xe3, 0x34, 0xba, 0x55, 0xee, 0x08, 0x3d,
  0x0a, 0x77, 0xe0, 0xbd, 0xc7, 0x0f, 0x4d, 0xbe, 0x8c, 0xd6, 0xac, 0xbd,
  0x57, 0x85, 0x30, 0xbd, 0xf0, 0xe8, 0xad, 0xbd, 0xa4, 0xbf, 0x15, 0xbe,
  0x0e, 0x27, 0x8d, 0xbe, 0xa4, 0x25, 0xdf, 0xbd, 0x64, 0xd8, 0x99, 0xbd,
  0xa1, 0xde, 0xee, 0xbd, 0x79, 0x10, 0x68, 0xbe, 0xc3, 0xb6, 0xd6, 0xbc,
  0xd0, 0x05, 0x9e, 0xbe, 0x46, 0xee, 0x3f, 0xbd, 0x35, 0x77, 0x86, 0xbd,
  0x71, 0xe3, 0x3e, 0x3d, 0xe7, 0x50, 0xc8, 0x3e, 0xf7, 0x24, 0x49, 0x3b,
  0xef, 0x69, 0x75, 0x3c, 0xfd, 0x52, 0x99, 0xbd, 0xde, 0x4b, 0x55, 0xbd,
  0xc1, 0x91, 0x76, 0xbe, 0x47, 0xb0, 0xfa, 0xbd, 0x0f, 0x6b, 0x38, 0xbe,
  0x9e, 0x05, 0x40, 0xbe, 0x91, 0x9f, 0xca, 0xbd, 0x6c, 0x40, 0x5d, 0x3e,
  0x03, 0x82, 0x92, 0xbd, 0x47, 0xcc, 0xa9, 0xbd, 0x15, 0x77, 0xd8, 0xbd,
  0x7f, 0x61, 0x8a, 0xbb, 0xab, 0xaf, 0x16, 0x3e, 0x88, 0xef, 0x08, 0x3e,
  0xe8, 0x79, 0xef, 0x3d, 0xd6, 0xfa, 0xcb, 0x3d, 0x62, 0xde, 0xa0, 0x3b,
  0xd4, 0x34, 0x10, 0xbd, 0x4c, 0x1b, 0x98, 0x3e, 0x28, 0x70, 0x82, 0xbe,
  0x0a, 0xd1, 0x7b, 0xbe, 0xc8, 0x16, 0xeb, 0x3d, 0xc9, 0x8c, 0x3b, 0xbd,
  0x38, 0x5c, 0x0b, 0x3e, 0xb2, 0x51, 0x2e, 0x3d, 0xa6, 0xb2, 0x8f, 0x3b,
  0xf4, 0x2c, 0x0c, 0x3e, 0x06, 0x48, 0x0a, 0x3e, 0x66, 0xce, 0x3d, 0x3e,
  0xe2, 0x81, 0xe3, 0x3e, 0x52, 0xec, 0x7e, 0x3d, 0x50, 0xc9, 0xaf, 0x3d,
  0x99, 0x6b, 0xbc, 0x3d, 0xee, 0x0e, 0x69, 0xbd, 0xa9, 0x09, 0xd8, 0x3d,
  0x97, 0x18, 0x41, 0xbe, 0x83, 0xdd, 0x25, 0xbe, 0x7b, 0x1a, 0x34, 0xbd,
  0x7b, 0xb6, 0xe0, 0x3d, 0x9f, 0xe5, 0x84, 0xbd, 0xe4, 0xa4, 0x11, 0xbd,
  0xa0, 0x0b, 0x33, 0xbe, 0x72, 0x80, 0x7f, 0xbe, 0x86, 0x57, 0x3d, 0xbe,
  0x2b, 0x36, 0x3c, 0xbd, 0xb2, 0xac, 0xee, 0x3d, 0x1f, 0xbf, 0xfd, 0xbd,
  0x1d, 0x15, 0x29, 0xbe, 0xd4, 0xf8, 0x75, 0x3c, 0x56, 0xde, 0x11, 0xbe,
  0xe9, 0x3a, 0x5e, 0xbe, 0xff, 0xd5, 0x81, 0x3e, 0x38, 0x26, 0x9a, 0xba,
  0x41, 0x73, 0x9c, 0xbe, 0x95, 0x5d, 0x83, 0x3e, 0xe1, 0x96, 0x07, 0xbe,
  0xb6, 0xe9, 0xd1, 0x3d, 0x5e, 0xe8, 0x8b, 0xbc, 0x3c, 0x6d, 0x4a, 0xbb,
  0x69, 0xba, 0x3e, 0xbe, 0x6c, 0x52, 0x6c, 0xbe, 0xb2, 0x2d, 0x24, 0x3e,
  0x7a, 0xcf, 0x3a, 0x3b, 0x06, 0xe5, 0x2c, 0xbe, 0xea, 0x71, 0xbc, 0xbd,
  0xa2, 0xf4, 0xd5, 0xbe, 0xf0, 0x76, 0xdd, 0x3b, 0xd0, 0x4e, 0x53, 0x3e,
  0x3f, 0x14, 0x1f, 0xbd, 0x05, 0x2b, 0xd0, 0x3d, 0x6b, 0x26, 0x4b, 0x3e,
  0x0b, 0xd4, 0xec, 0x3d, 0x1d, 0x60, 0x1f, 0x3e, 0x70, 0xe3, 0xe1, 0xbd,
  0x80, 0x7e, 0xc2, 0x3d, 0x4e, 0x26, 0xa4, 0x3d, 0x54, 0x1a, 0x40, 0xbe,
  0x7b, 0x19, 0x4b, 0xbe, 0x1b, 0xea, 0xfe, 0x3d, 0x50, 0x95, 0x94, 0x3c,
  0x71, 0x53, 0x16, 0xbe, 0x56, 0x7f, 0x68, 0xbd, 0x99, 0x4b, 0x17, 0x3e,
  0x34, 0x0d, 0x17, 0x3e, 0x93, 0xdf, 0x10, 0x3d, 0x70, 0x83, 0x6c, 0xbe,
  0x4e, 0x5e, 0x1b, 0x3e, 0x7c, 0xf9, 0x2a, 0x3e, 0xb9, 0x09, 0xf1, 0x3d,
  0x25, 0x8b, 0x8a, 0xbd, 0x1e, 0x1c, 0xa8, 0xbd, 0x88, 0xd6, 0x1b, 0xbe,
  0x3f, 0xd7, 0xaa, 0x3c, 0x98, 0x79, 0x18, 0x3e, 0x54, 0x07, 0x3d, 0xbd,
  0xec, 0x85, 0xbb, 0xbc, 0x94, 0x26, 0x1d, 0xbd, 0xfb, 0x55, 0xa1, 0xbd,
  0x89, 0xe1, 0x57, 0xbd, 0x94, 0x24, 0xb0, 0xbc, 0x48, 0xac, 0x4d, 0xbe,
  0xc5, 0x96, 0xef, 0x3d, 0x25, 0x81, 0x88, 0x3e, 0xed, 0xba, 0x06, 0x3e,
  0xd1, 0xa6, 0xc2, 0x3b, 0x25, 0x5c, 0x8d, 0xbe, 0xb9, 0x69, 0x7d, 0x3d,
  0x47, 0x1d, 0xa2, 0x3d, 0x12, 0x6f, 0x11, 0x3c, 0x2f, 0x00, 0xba, 0x3d,
  0x0a, 0xc7, 0xb2, 0xbd, 0x71, 0x31, 0x5d, 0xbe, 0xab, 0x63, 0x98, 0x3d,
  0x40, 0x04, 0xa8, 0xbe, 0x03, 0x49, 0x8f, 0xbd, 0xe9, 0xd6, 0xf6, 0x3e,
  0xd6, 0xd3, 0xf2, 0x3c, 0x1b, 0xfc, 0xce, 0xbc, 0xfa, 0xb1, 0xb5, 0x3e,
  0x13, 0x22, 0x2f, 0xbe, 0xc2, 0x24, 0x77, 0xbc, 0xd9, 0x6b, 0x54, 0xbe,
  0xa7, 0xcc, 0x17, 0x3d, 0x39, 0xc8, 0x6f, 0xbe, 0xbe, 0x41, 0x77, 0x3d,
  0x8d, 0x34, 0x08, 0xbe, 0x46, 0x17, 0x82, 0x3e, 0x4c, 0xaf, 0x86, 0xbe,
  0xf3, 0xf3, 0xec, 0x3d, 0x1c, 0x11, 0x61, 0xbe, 0x39, 0x06, 0x94, 0xbc,
  0x15, 0x98, 0xa5, 0x3e, 0xa5, 0x5a, 0xb7, 0x3d, 0x71, 0x66, 0x5c, 0xbe,
  0xa5, 0x5b, 0xa3, 0x3e, 0xaa, 0x11, 0xe1, 0x3c, 0x78, 0x65, 0x8f, 0x3b,
  0x91, 0x65, 0x30, 0xbe, 0x83, 0xb3, 0x25, 0xbe, 0x50, 0xf7, 0x13, 0x3d,
  0x6d, 0xcb, 0x0d, 0x3d, 0x4b, 0x5d, 0x8c, 0x3c, 0x21, 0x2b, 0x21, 0x3e,
  0xd2, 0x49, 0x67, 0x3d, 0xe0, 0x68, 0x50, 0xbd, 0x6a, 0xd5, 0x32, 0xbe,
  0x42, 0x3c, 0x89, 0xbc, 0xfe, 0x5c, 0xa8, 0xbc, 0xa1, 0x0e, 0xb1, 0xbe,
  0x7e, 0x9e, 0x93, 0xbd, 0x48, 0x13, 0x9b, 0x3e, 0x01, 0xe9, 0xe5, 0xbe,
  0x39, 0xe9, 0x78, 0x3e, 0x88, 0x6d, 0x87, 0x3e, 0x2a, 0x51, 0x3d, 0xbf,
  0xa5, 0x6a, 0x42, 0xbf, 0x4c, 0x3f, 0xae, 0xbd, 0x54, 0x3e, 0xa9, 0x3d,
  0xe6, 0x8a, 0xdb, 0x3e, 0x77, 0xf2, 0x19, 0x3d, 0x27, 0xd6, 0xb5, 0xbe,
  0xc2, 0xad, 0x22, 0xbe, 0x37, 0xed, 0x9a, 0xbe, 0x83, 0x9a, 0x1e, 0x3e,
  0x1b, 0x0d, 0x5c, 0xbd, 0x8a, 0x6c, 0x73, 0x3e, 0xd5, 0x6a, 0x05, 0xbf,
  0x91, 0x65, 0x21, 0x3e, 0xb7, 0x51, 0x70, 0xbd, 0x4f, 0x48, 0xae, 0x3e,
  0x2d, 0x22, 0x59, 0xbe, 0x46, 0xc3, 0x8d, 0x3e, 0x5b, 0xa4, 0xa8, 0x3c,
  0xfb, 0xb7, 0xa0, 0x3e, 0x99, 0xc9, 0x07, 0xbe, 0x83, 0xe4, 0x0b, 0xbd,
  0xd6, 0x21, 0x17, 0xbd, 0x5e, 0xc2, 0x00, 0x3c, 0x80, 0x8d, 0x0b, 0xbd,
  0xd2, 0x9c, 0x86, 0xbd, 0xb4, 0x89, 0xb1, 0xbd, 0x73, 0x43, 0x19, 0x3e,
  0xca, 0x81, 0xe4, 0xbe, 0xfc, 0x8d, 0xa3, 0x3d, 0xc8, 0x42, 0x94, 0x3d,
  0x0d, 0x35, 0xd6, 0x3d, 0x82, 0xe2, 0x2f, 0xbe, 0xf9, 0x54, 0xdb, 0x3d,
  0x19, 0x19, 0x10, 0x3e, 0x9e, 0x2c, 0xc5, 0x3e, 0x8a, 0x39, 0x63, 0xbd,
  0xe7, 0x99, 0x1a, 0x3d, 0x65, 0x73, 0x99, 0xbd, 0x99, 0xf0, 0xdb, 0xbc,
  0x2b, 0x5d, 0x6e, 0x3e, 0x7f, 0x45, 0x36, 0x3e, 0x7e, 0x13, 0xaa, 0x3d,
  0x98, 0x74, 0xb7, 0x3c, 0xcc, 0x19, 0x1e, 0x3b, 0x10, 0x17, 0x43, 0x3d,
  0x15, 0xd6, 0xda, 0x3d, 0xb2, 0x67, 0x81, 0x3e, 0xeb, 0xb8, 0xc5, 0xbc,
  0xba, 0x4c, 0x7c, 0xbd, 0x62, 0x93, 0x88, 0x3d, 0xb5, 0x31, 0xa2, 0xbd,
  0xc5, 0xdc, 0xd6, 0x3d, 0x30, 0xa6, 0xef, 0xbd, 0xef, 0x8e, 0x57, 0xbe,
  0x91, 0x3f, 0xaf, 0xbd, 0xb8, 0x72, 0x84, 0x3e, 0xb3, 0x5b, 0x24, 0xbe,
  0xe9, 0xf0, 0x03, 0x3e, 0x23, 0x35, 0xa8, 0x3c, 0x80, 0xa9, 0xa1, 0x3a,
  0xde, 0x81, 0x90, 0x3d, 0xe1, 0xf0, 0x71, 0x3e, 0x5b, 0xda, 0xa7, 0x3d,
  0x20, 0x39, 0x44, 0xbd, 0x2a, 0x43, 0x4c, 0x3d, 0x7b, 0x6b, 0x84, 0xbd,
  0x5f, 0x9d, 0x44, 0xbd, 0x3e, 0x1d, 0xfb, 0x3c, 0x6d, 0x7c, 0x04, 0xbe,
  0x6f, 0xff, 0x20, 0xbd, 0x1a, 0x00, 0x73, 0xbd, 0x97, 0x12, 0xe5, 0xbc,
  0xdc, 0x4f, 0x66, 0xbc, 0x15, 0x1a, 0xce, 0xbd, 0xcc, 0xba, 0x16, 0x3e,
  0x46, 0x02, 0xa1, 0xbd, 0x25, 0xc4, 0xe2, 0x3d, 0xce, 0x27, 0x35, 0x3e,
  0x53, 0xe9, 0x7c, 0x3d, 0x74, 0xa1, 0x22, 0xbe, 0x73, 0x01, 0x0b, 0x3d,
  0xd1, 0xe4, 0x9c, 0xbd, 0xd0, 0x1e, 0x88, 0x3d, 0x3b, 0x21, 0x1f, 0x3e,
  0xee, 0x9c, 0x12, 0xbe, 0x4e, 0xd0, 0x17, 0xbd, 0xe4, 0x14, 0xa6, 0x3b,
  0x8e, 0x64, 0xae, 0xbd, 0x15, 0x1e, 0x19, 0x3e, 0x9b, 0xe3, 0x65, 0x3d,
  0x52, 0xbe, 0x06, 0x3e, 0x4d, 0x31, 0x06, 0x3d, 0x2b, 0xd6, 0xf6, 0xbd,
  0x90, 0x47, 0x24, 0x3e, 0x8d, 0x9c, 0xcc, 0x3c, 0xdc, 0x73, 0xb6, 0xbd,
  0x43, 0x1d, 0x2e, 0xbd, 0xb1, 0x87, 0x8d, 0x3d, 0x63, 0x8a, 0x1d, 0x3e,
  0x35, 0x91, 0x91, 0x3c, 0xdc, 0xa5, 0xfb, 0x3d, 0x9c, 0x3a, 0xa8, 0xbd,
  0xe6, 0xb1, 0xc1, 0xbd, 0x7f, 0x68, 0x9d, 0x3c, 0xbe, 0xc8, 0x71, 0xbe,
  0xc7, 0xcc, 0xef, 0xbc, 0x91, 0xac, 0x1c, 0x3e, 0x1a, 0xee, 0x05, 0x3d,
  0xda, 0x2e, 0xf1, 0x3d, 0xbc, 0xd7, 0x71, 0xbe, 0x18, 0xb4, 0x16, 0xbd,
  0x76, 0xe9, 0x96, 0xbd, 0x62, 0x17, 0xbc, 0x3b, 0x35, 0xc7, 0x7c, 0xbe,
  0xdf, 0x1b, 0x20, 0x3e, 0xfd, 0x63, 0x62, 0xbd, 0x5c, 0x7a, 0x73, 0xbe,
  0x1d, 0xe1, 0x2d, 0x3e, 0x7b, 0xdf, 0x0b, 0xbe, 0x09, 0x11, 0xa6, 0xbd,
  0x96, 0x1a, 0x1a, 0xbe, 0x3c, 0xab, 0x0f, 0xbe, 0x9b, 0xf0, 0xd9, 0xbd,
  0xc8, 0x38, 0x8b, 0xbe, 0xde, 0x24, 0x16, 0xbe, 0x4e, 0x18, 0xf6, 0xbd,
  0x29, 0x0d, 0x2d, 0xbe, 0x4a, 0x34, 0x9e, 0x3d, 0xb3, 0xec, 0xa9, 0xbd,
  0x94, 0x24, 0x64, 0xbe, 0x7a, 0xc4, 0x8c, 0xbd, 0xf8, 0xa5, 0x4d, 0xbe,
  0x9e, 0x79, 0x49, 0xbe, 0x61, 0x1e, 0x2f, 0xbe, 0x0b, 0x3a, 0x6a, 0xbe,
  0xfc, 0x3d, 0x19, 0xbb, 0x03, 0x80, 0xaa, 0xbd, 0xf3, 0xbb, 0xbe, 0xbd,
  0x34, 0x10, 0xc7, 0xbd, 0x1e, 0x61, 0x85, 0xbe, 0x8b, 0x68, 0x5e, 0xbe,
  0x30, 0x13, 0x45, 0x3e, 0x4f, 0x50, 0x0d, 0xbe, 0x1e, 0x86, 0x7b, 0xbe,
  0x0e, 0x1d, 0x0c, 0x3e, 0x4f, 0xf2, 0x79, 0xbd, 0x66, 0xd7, 0xbd, 0x3d,
  0x66, 0xc5, 0xda, 0xbd, 0xdf, 0xdb, 0xb2, 0x3d, 0xd3, 0xe2, 0x15, 0x3d,
  0x96, 0x4e, 0x41, 0xbe, 0x44, 0xaf, 0xa0, 0xbc, 0x36, 0xcb, 0x39, 0xbd,
  0x4a, 0x24, 0xcc, 0x3d, 0x22, 0xf8, 0x21, 0x3e, 0x1e, 0x12, 0x57, 0xbd,
  0xff, 0xcb, 0x75, 0xbe, 0x27, 0x8d, 0x47, 0x3e, 0xd4, 0x5a, 0x45, 0x3e,
  0x06, 0xa9, 0x06, 0xbd, 0xaf, 0x51, 0xbd, 0x3b, 0x58, 0xd0, 0x64, 0xbd,
  0x9f, 0x3c, 0x5c, 0xbe, 0x68, 0x73, 0x0e, 0x3e, 0x62, 0x4c, 0xd1, 0x3d,
  0x9d, 0x92, 0x98, 0xbd, 0xb2, 0xb3, 0x94, 0xbe, 0x61, 0x78, 0x5c, 0xbd,
  0x5e, 0x04, 0x2c, 0x3e, 0x0b, 0x9c, 0x84, 0xbe, 0xbb, 0x76, 0x99, 0xbd,
  0x72, 0x98, 0xa4, 0xbd, 0x98, 0xb4, 0x5d, 0xbd, 0xc2, 0x92, 0x63, 0x3d,
  0x7c, 0x49, 0x51, 0x3d, 0x43, 0xb0, 0x5a, 0x3d, 0xce, 0x5f, 0x15, 0xbe,
  0xbe, 0x36, 0xbd, 0x3a, 0x0c, 0x1d, 0x20, 0x3e, 0x0c, 0x4f, 0xd9, 0x3d,
  0xda, 0x34, 0xfa, 0xbd, 0x55, 0x42, 0xd1, 0xbd, 0xcc, 0x47, 0x04, 0xbe,
  0xdf, 0x64, 0xd8, 0xbc, 0xdf, 0x4e, 0x2f, 0x3d, 0xb5, 0x75, 0xb8, 0x3d,
  0x06, 0xbb, 0x9d, 0xbd, 0xbb, 0x97, 0x06, 0x3d, 0x60, 0xad, 0x73, 0xbe,
  0xfe, 0x9a, 0x92, 0xbd, 0x42, 0xf6, 0x8b, 0xbd, 0x5b, 0xeb, 0x0e, 0x3e,
  0x6f, 0xa5, 0x1f, 0x3d, 0xc3, 0xc5, 0x20, 0xbe, 0x50, 0x54, 0xc5, 0x3c,
  0x7f, 0x7d, 0x40, 0xbe, 0x69, 0x20, 0x78, 0xbe, 0x5a, 0x66, 0x93, 0xbc,
  0x7b, 0xc4, 0x8d, 0xbd, 0xea, 0xf6, 0x01, 0xbd, 0xd4, 0x53, 0x15, 0x3e,
  0xb8, 0x27, 0x8f, 0xbe, 0x16, 0x5e, 0x2c, 0xbe, 0x8d, 0x47, 0xda, 0x3d,
  0x46, 0x5f, 0xf1, 0x3d, 0x65, 0x6a, 0x04, 0x3d, 0x7d, 0x33, 0x23, 0x3c,
  0x21, 0x08, 0x63, 0xbe, 0x1b, 0xdd, 0x27, 0xbe, 0xb0, 0x55, 0x11, 0x3d,
  0x71, 0xab, 0xed, 0x3d, 0xb3, 0x43, 0xe0, 0xbd, 0x56, 0x66, 0x20, 0xbe,
  0x1f, 0x09, 0x38, 0xbd, 0x64, 0x4d, 0xde, 0xbd, 0xde, 0xb1, 0x87, 0xbd,
  0x6b, 0x12, 0x57, 0xbe, 0x0a, 0x3b, 0x41, 0xbe, 0xf0, 0xc6, 0x5a, 0xbe,
  0xb8, 0x59, 0x9f, 0x3c, 0x83, 0xdb, 0x4a, 0x3d, 0x3b, 0xfb, 0x3e, 0x3e,
  0x0f, 0x89, 0x42, 0x3e, 0x8a, 0x6c, 0xc1, 0xbc, 0xd1, 0xf6, 0x5d, 0xbe,
  0x7f, 0xf4, 0x07, 0x3e, 0xc0, 0x2e, 0x1c, 0x3d, 0x3e, 0xeb, 0xc9, 0x3e,
  0x37, 0x53, 0x20, 0x3c, 0xa7, 0x32, 0x9f, 0xbe, 0x91, 0x0c, 0xdd, 0xbc,
  0xcf, 0x8f, 0x62, 0xbd, 0x83, 0x22, 0x3e, 0x3e, 0x1d, 0xe7, 0xba, 0x3d,
  0x21, 0xe7, 0x8a, 0x3e, 0x70, 0x08, 0x43, 0xbe, 0x3e, 0xc4, 0x12, 0x3e,
  0x85, 0xa7, 0xa5, 0x3e, 0x4b, 0xbc, 0x4f, 0x3e, 0xb7, 0xc1, 0xfe, 0x3d,
  0xd8, 0x27, 0xbb, 0xbc, 0x78, 0xdb, 0x20, 0x3e, 0x1c, 0x36, 0x79, 0xbd,
  0x48, 0x40, 0xb3, 0x3d, 0x7e, 0x33, 0x89, 0x3c, 0xd5, 0x80, 0x99, 0xbe,
  0x68, 0x30, 0x2d, 0xbe, 0x5f, 0xf1, 0xa4, 0x3c, 0x8d, 0x41, 0xbc, 0xbd,
  0x89, 0xc0, 0x43, 0xbe, 0x29, 0x48, 0xcb, 0x3e, 0x90, 0x17, 0xba, 0xbe,
  0x9f, 0x2e, 0x0f, 0xbc, 0xec, 0x79, 0xe7, 0x3c, 0x1e, 0xc3, 0xe1, 0x3d,
  0xcf, 0x96, 0xb2, 0x3c, 0x9a, 0xdd, 0x67, 0x3e, 0x92, 0x7f, 0xce, 0x3d,
  0xc9, 0x59, 0xa1, 0x3e, 0x7e, 0x99, 0xa6, 0x3d, 0xde, 0xcb, 0x92, 0xbd,
  0xfe, 0x94, 0xa2, 0x3d, 0x0b, 0xd4, 0x5e, 0xbe, 0x33, 0x0d, 0x4f, 0x3d,
  0x21, 0xee, 0xf2, 0x3b, 0x5e, 0x0f, 0xb0, 0xbb, 0x5d, 0xdb, 0x21, 0x3e,
  0x91, 0xa1, 0x9b, 0xbe, 0xa8, 0x1b, 0x5f, 0x3e, 0x05, 0xab, 0x95, 0xbe,
  0xf8, 0x27, 0xb8, 0x3d, 0x4e, 0x94, 0x15, 0x3e, 0x5e, 0x87, 0xf6, 0x3c,
  0x0f, 0xc7, 0x5e, 0xbd, 0x83, 0xdf, 0x72, 0x3e, 0x3d, 0x9f, 0x91, 0xbd,
  0xe4, 0x49, 0xbb, 0xbd, 0xa5, 0xa7, 0x72, 0xbe, 0x63, 0xd5, 0x98, 0xbd,
  0x1b, 0xc2, 0x31, 0x3e, 0xb6, 0x58, 0xa1, 0x3d, 0xf1, 0x6d, 0x80, 0x3e,
  0xd7, 0x0a, 0x85, 0x3d, 0xe3, 0xcf, 0xad, 0xbd, 0xd6, 0xce, 0xa0, 0x3d,
  0xd8, 0x82, 0xd7, 0xbd, 0xa7, 0x72, 0xfe, 0x3d, 0xd9, 0xf5, 0x8f, 0xbc,
  0x62, 0xfe, 0xb4, 0x3d, 0xe2, 0x2c, 0xf0, 0x3d, 0xb6, 0x22, 0x43, 0x3e,
  0x12, 0xe1, 0xed, 0xbd, 0xf3, 0x40, 0x0c, 0x3e, 0xca, 0x6a, 0xcd, 0xbd,
  0x9b, 0x68, 0x76, 0xbe, 0x66, 0x02, 0x84, 0xbd, 0x33, 0x1f, 0xd0, 0x3d,
  0xad, 0x3a, 0x3c, 0x3d, 0x30, 0xd4, 0x57, 0xbe, 0xc7, 0x8c, 0xb7, 0xbe,
  0x86, 0xd6, 0x42, 0x3d, 0x22, 0x09, 0x67, 0xbe, 0xe7, 0x13, 0xa2, 0x3d,
  0x12, 0x55, 0x19, 0x3d, 0xa8, 0x8d, 0xef, 0x3d, 0x46, 0x72, 0x5b, 0xbe,
  0xab, 0xe6, 0x1f, 0x3d, 0x2a, 0x96, 0x02, 0xbe, 0x1e, 0x2b, 0xe5, 0xbd,
  0xb4, 0xa9, 0x83, 0xbe, 0x84, 0x34, 0x03, 0xbe, 0x67, 0xcc, 0x1f, 0xbe,
  0x59, 0xee, 0x69, 0x3d, 0xdc, 0x92, 0xbe, 0xbd, 0x6a, 0x09, 0x00, 0xbb,
  0x2d, 0x6e, 0x9b, 0xbe, 0x5a, 0xd2, 0x8c, 0xbd, 0xcb, 0xbf, 0xb9, 0xbd,
  0x75, 0x08, 0x0e, 0xbe, 0x0a, 0x58, 0xae, 0x3d, 0x4c, 0x55, 0xfa, 0x3c,
  0x04, 0x0d, 0xd8, 0xbd, 0xc5, 0x83, 0x82, 0x3e, 0x54, 0x5a, 0x42, 0xbd,
  0x28, 0x1c, 0xc2, 0xbc, 0xf4, 0xb0, 0x3c, 0xbe, 0xbb, 0x85, 0x27, 0xbe,
  0x34, 0x02, 0x90, 0x3e, 0x0c, 0x50, 0xa2, 0xbc, 0x99, 0xb3, 0x65, 0xbd,
  0xdf, 0x25, 0x86, 0x3d, 0x32, 0x13, 0x44, 0xbe, 0xab, 0x4f, 0x7d, 0xbe,
  0x4d, 0xcb, 0xda, 0xbd, 0xb3, 0x86, 0x66, 0xbd, 0x44, 0x4b, 0x41, 0xbe,
  0x10, 0xe3, 0x2b, 0x3d, 0x78, 0xa9, 0x52, 0xbe, 0x47, 0xb2, 0xba, 0x3d,
  0x1b, 0xc9, 0xd9, 0x3d, 0xa3, 0x54, 0x29, 0xbe, 0x8a, 0xc0, 0x6a, 0xbd,
  0x16, 0x74, 0x63, 0xbe, 0xf6, 0xee, 0xda, 0xbc, 0x4f, 0x29, 0x01, 0x3e,
  0xd0, 0x1a, 0x00, 0xbe, 0x52, 0x2b, 0x34, 0xbc, 0x84, 0xba, 0x1f, 0xbe,
  0x9e, 0x17, 0xe1, 0x3d, 0x94, 0xfb, 0x03, 0xbe, 0x60, 0x36, 0x00, 0xbe,
  0xb3, 0x46, 0x59, 0xbd, 0xcb, 0x36, 0x20, 0xbe, 0xf6, 0xc6, 0xcd, 0x3d,
  0xff, 0x56, 0x60, 0xbe, 0xda, 0xf0, 0x07, 0x3d, 0x04, 0xdf, 0xb0, 0xbd,
  0xfe, 0xec, 0x7b, 0x3d, 0x3c, 0xf0, 0xfa, 0xbd, 0xf7, 0xb0, 0xc3, 0x3d,
  0x32, 0x0f, 0x29, 0xbc, 0xd5, 0x83, 0x76, 0xbe, 0x3b, 0x3e, 0x6d, 0xbc,
  0x91, 0x57, 0x27, 0xbd, 0x4e, 0x53, 0x84, 0xbe, 0x6d, 0x0b, 0x2b, 0x3d,
  0x26, 0x33, 0xe4, 0x3d, 0x2b, 0x7e, 0xff, 0x3d, 0x3b, 0x71, 0x7d, 0xbd,
  0x9e, 0x63, 0x6c, 0xbe, 0xca, 0xae, 0x06, 0xbe, 0xd8, 0xcb, 0xf6, 0x3d,
  0x0e, 0x41, 0xf7, 0x3d, 0xc6, 0xa5, 0x8c, 0xbd, 0xf6, 0xb9, 0xf6, 0xbd,
  0xb1, 0x60, 0xaf, 0xbc, 0x09, 0x8a, 0x03, 0xbe, 0xe1, 0x20, 0x79, 0xbe,
  0x3a, 0x64, 0x34, 0x3e, 0xae, 0x40, 0x8a, 0xbd, 0x5f, 0x0a, 0xf4, 0xbb,
  0x81, 0xfe, 0x44, 0xbe, 0x95, 0xda, 0x28, 0xbe, 0x50, 0xe8, 0xbc, 0x3d,
  0x29, 0x3b, 0x07, 0xbe, 0xaa, 0x2f, 0x75, 0xbe, 0xbc, 0xc1, 0xd3, 0xbd,
  0x75, 0xce, 0x74, 0xbd, 0x46, 0x68, 0xc4, 0x3d, 0xef, 0x69, 0xf0, 0xbc,
  0xe6, 0x53, 0xce, 0xbd, 0xa8, 0xb2, 0x09, 0x3e, 0xd4, 0x73, 0xf2, 0x3d,
  0x4b, 0x61, 0xef, 0xbd, 0x5f, 0xdf, 0xec, 0xbc, 0x51, 0x84, 0x38, 0xbe,
  0x79, 0x97, 0x4b, 0xbc, 0x11, 0x7b, 0xbe, 0xbd, 0x41, 0xc9, 0xe9, 0xba,
  0xd4, 0x5c, 0xc2, 0xbc, 0x53, 0x0b, 0xe8, 0x3c, 0xaa, 0xb0, 0x30, 0xbe,
  0xf7, 0xec, 0x20, 0xbd, 0x4f, 0x47, 0x93, 0xbd, 0xfe, 0xc1, 0xa8, 0x3d,
  0xa5, 0x81, 0x1e, 0xbe, 0x61, 0x59, 0x47, 0xbc, 0xeb, 0x49, 0xec, 0xbd,
  0x9b, 0xf8, 0x5b, 0xbc, 0x5b, 0x1d, 0x8b, 0x3d, 0xf6, 0x8e, 0x1a, 0xbe,
  0x53, 0x87, 0xe9, 0x3d, 0x58, 0x5b, 0xc1, 0x3d, 0x63, 0x10, 0xee, 0x3d,
  0x42, 0x85, 0x4e, 0x3d, 0xcd, 0xa4, 0xe8, 0xbd, 0x7e, 0x25, 0xd5, 0x3c,
  0xbf, 0xdc, 0x49, 0xbe, 0x07, 0xc5, 0x26, 0xbe, 0xeb, 0xd7, 0x2a, 0x3d,
  0x1c, 0x54, 0x12, 0xbd, 0x89, 0xa2, 0x19, 0xbe, 0x80, 0x6f, 0x13, 0xbe,
  0x51, 0x62, 0xef, 0xbd, 0xfa, 0xb1, 0xfd, 0xbd, 0xcd, 0x75, 0xb2, 0x3c,
  0x76, 0xc7, 0x4b, 0xbd, 0x81, 0x6e, 0x8d, 0x3c, 0x36, 0x06, 0x1a, 0xbe,
  0x9e, 0xf1, 0x17, 0x3e, 0xa8, 0xcf, 0x47, 0xbe, 0xaa, 0xad, 0xb9, 0x3d,
  0xba, 0x14, 0x01, 0x3d, 0x78, 0x1b, 0xd4, 0xbd, 0xd1, 0xbc, 0x1c, 0x3d,
  0xea, 0xef, 0x32, 0x3c, 0x9b, 0x1b, 0x5c, 0xbe, 0xf4, 0xe6, 0x6e, 0x3d,
  0xaf, 0xa6, 0x51, 0xbe, 0x89, 0x46, 0x37, 0xbe, 0xc6, 0xf5, 0xe2, 0xbd,
  0xd4, 0xbb, 0x3a, 0xbc, 0x5e, 0x7e, 0x67, 0xbe, 0xf4, 0xc6, 0x6c, 0xbe,
  0x66, 0xfd, 0xff, 0xff, 0x10, 0x00, 0x00, 0x00, 0x07, 0x00, 0x00, 0x00,
  0x14, 0x00, 0x00, 0x00, 0x2c, 0x00, 0x00, 0x00, 0x02, 0x00, 0x00, 0x00,
  0x10, 0x00, 0x00, 0x00, 0x70, 0x00, 0x00, 0x00, 0x17, 0x00, 0x00, 0x00,
  0x73, 0x65, 0x71, 0x75, 0x65, 0x6e, 0x74, 0x69, 0x61, 0x6c, 0x2f, 0x64,
  0x65, 0x6e, 0x73, 0x65, 0x2f, 0x4d, 0x61, 0x74, 0x4d, 0x75, 0x6c, 0x00,
  0xd0, 0xfc, 0xff, 0xff, 0xda, 0xfd, 0xff, 0xff, 0x04, 0x00, 0x00, 0x00,
  0x08, 0x00, 0x00, 0x00, 0xff, 0xff, 0xff, 0xff, 0x70, 0x00, 0x00, 0x00,
  0x00, 0x00, 0x0e, 0x00, 0x18, 0x00, 0x08, 0x00, 0x07, 0x00, 0x0c, 0x00,
  0x10, 0x00, 0x14, 0x00, 0x0e, 0x00, 0x00, 0x00, 0x00, 0x00, 0x00, 0x02,
  0x10, 0x00, 0x00, 0x00, 0x06, 0x00, 0x00, 0x00, 0x10, 0x00, 0x00, 0x00,
  0x2c, 0x00, 0x00, 0x00, 0x01, 0x00, 0x00, 0x00, 0x02, 0x00, 0x00, 0x00,
  0x18, 0x00, 0x00, 0x00, 0x73, 0x65, 0x71, 0x75, 0x65, 0x6e, 0x74, 0x69,
  0x61, 0x6c, 0x2f, 0x66, 0x6c, 0x61, 0x74, 0x74, 0x65, 0x6e, 0x2f, 0x43,
  0x6f, 0x6e, 0x73, 0x74, 0x00, 0x00, 0x00, 0x00, 0x38, 0xfd, 0xff, 0xff,
  0x42, 0xfe, 0xff, 0xff, 0x04, 0x00, 0x00, 0x00, 0x0c, 0x00, 0x00, 0x00,
  0x86, 0x92, 0x10, 0x3d, 0x69, 0x00, 0x06, 0x3f, 0x4b, 0xf5, 0x96, 0xbf,
  0x26, 0xfe, 0xff, 0xff, 0x10, 0x00, 0x00, 0x00, 0x05, 0x00, 0x00, 0x00,
  0x10, 0x00, 0x00, 0x00, 0x44, 0x00, 0x00, 0x00, 0x01, 0x00, 0x00, 0x00,
  0x03, 0x00, 0x00, 0x00, 0x32, 0x00, 0x00, 0x00, 0x73, 0x65, 0x71, 0x75,
  0x65, 0x6e, 0x74, 0x69, 0x61, 0x6c, 0x2f, 0x64, 0x65, 0x6e, 0x73, 0x65,
  0x5f, 0x31, 0x2f, 0x42, 0x69, 0x61, 0x73, 0x41, 0x64, 0x64, 0x2f, 0x52,
  0x65, 0x61, 0x64, 0x56, 0x61, 0x72, 0x69, 0x61, 0x62, 0x6c, 0x65, 0x4f,
  0x70, 0x2f, 0x72, 0x65, 0x73, 0x6f, 0x75, 0x72, 0x63, 0x65, 0x00, 0x00,
  0xa8, 0xfd, 0xff, 0xff, 0xb2, 0xfe, 0xff, 0xff, 0x04, 0x00, 0x00, 0x00,
  0x40, 0x00, 0x00, 0x00, 0x53, 0x9f, 0xcc, 0xbe, 0x75, 0x79, 0x3b, 0x40,
  0x9e, 0x50, 0xfd, 0x3f, 0x7a, 0x7f, 0xe5, 0xbd, 0x1b, 0x05, 0x4d, 0x40,
  0x1a, 0xca, 0x5e, 0xbe, 0x88, 0xe6, 0x0b, 0xbe, 0x2e, 0x81, 0x2c, 0xbf,
  0x15, 0xa4, 0x3b, 0x40, 0x92, 0xbc, 0x20, 0x3f, 0x46, 0x16, 0x2d, 0xbf,
  0x02, 0x3d, 0x28, 0x40, 0xec, 0x67, 0x5d, 0xbe, 0x0f, 0x5a, 0x95, 0xbe,
  0xf2, 0x31, 0x3f, 0x3d, 0xdd, 0x16, 0x28, 0xbe, 0xca, 0xfe, 0xff, 0xff,
  0x10, 0x00, 0x00, 0x00, 0x04, 0x00, 0x00, 0x00, 0x10, 0x00, 0x00, 0x00,
  0x44, 0x00, 0x00, 0x00, 0x01, 0x00, 0x00, 0x00, 0x10, 0x00, 0x00, 0x00,
  0x30, 0x00, 0x00, 0x00, 0x73, 0x65, 0x71, 0x75, 0x65, 0x6e, 0x74, 0x69,
  0x61, 0x6c, 0x2f, 0x64, 0x65, 0x6e, 0x73, 0x65, 0x2f, 0x42, 0x69, 0x61,
  0x73, 0x41, 0x64, 0x64, 0x2f, 0x52, 0x65, 0x61, 0x64, 0x56, 0x61, 0x72,
  0x69, 0x61, 0x62, 0x6c, 0x65, 0x4f, 0x70, 0x2f, 0x72, 0x65, 0x73, 0x6f,
  0x75, 0x72, 0x63, 0x65, 0x00, 0x00, 0x00, 0x00, 0x4c, 0xfe, 0xff, 0xff,
  0x56, 0xff, 0xff, 0xff, 0x04, 0x00, 0x00, 0x00, 0x40, 0x00, 0x00, 0x00,
  0x64, 0x9c, 0x48, 0xbf, 0x6a, 0xf9, 0x43, 0xbf, 0xf7, 0x2d, 0x19, 0xbf,
  0x8c, 0x28, 0x6a, 0xbe, 0x8b, 0xed, 0xdb, 0xba, 0xca, 0x93, 0x4b, 0xbf,
  0x73, 0x4a, 0x6c, 0x3f, 0xee, 0xc9, 0x9e, 0xbe, 0x57, 0xb6, 0xd5, 0xbe,
  0x03, 0x86, 0x91, 0xbe, 0xb7, 0x9e, 0x2f, 0xbf, 0xc1, 0x28, 0x10, 0xbf,
  0x08, 0x10, 0x02, 0x40, 0xbb, 0x67, 0xc5, 0xbe, 0x66, 0xbb, 0x84, 0xbe,
  0x2f, 0x72, 0x6c, 0x40, 0x6e, 0xff, 0xff, 0xff, 0x10, 0x00, 0x00, 0x00,
  0x03, 0x00, 0x00, 0x00, 0x10, 0x00, 0x00, 0x00, 0x48, 0x00, 0x00, 0x00,
  0x01, 0x00, 0x00, 0x00, 0x10, 0x00, 0x00, 0x00, 0x33, 0x00, 0x00, 0x00,
  0x73, 0x65, 0x71, 0x75, 0x65, 0x6e, 0x74, 0x69, 0x61, 0x6c, 0x2f, 0x63,
  0x6f, 0x6e, 0x76, 0x32, 0x64, 0x5f, 0x31, 0x2f, 0x42, 0x69, 0x61, 0x73,
  0x41, 0x64, 0x64, 0x2f, 0x52, 0x65, 0x61, 0x64, 0x56, 0x61, 0x72, 0x69,
  0x61, 0x62, 0x6c, 0x65, 0x4f, 0x70, 0x2f, 0x72, 0x65, 0x73, 0x6f, 0x75,
  0x72, 0x63, 0x65, 0x00, 0x04, 0x00, 0x06, 0x00, 0x04, 0x00, 0x00, 0x00,
  0x00, 0x00, 0x06, 0x00, 0x08, 0x00, 0x04, 0x00, 0x06, 0x00, 0x00, 0x00,
  0x04, 0x00, 0x00, 0x00, 0x20, 0x00, 0x00, 0x00, 0xce, 0x66, 0x67, 0xbf,
  0x87, 0x50, 0x5b, 0xbf, 0xa2, 0xcc, 0x16, 0xbf, 0xdd, 0x7a, 0x8a, 0xbf,
  0x48, 0x0d, 0xf3, 0x3f, 0xc8, 0xe9, 0x7c, 0xbf, 0x22, 0x17, 0xd7, 0xbd,
  0xef, 0xf6, 0x34, 0xbf, 0x00, 0x00, 0x0e, 0x00, 0x14, 0x00, 0x04, 0x00,
  0x00, 0x00, 0x08, 0x00, 0x0c, 0x00, 0x10, 0x00, 0x0e, 0x00, 0x00, 0x00,
  0x10, 0x00, 0x00, 0x00, 0x02, 0x00, 0x00, 0x00, 0x10, 0x00, 0x00, 0x00,
  0x44, 0x00, 0x00, 0x00, 0x01, 0x00, 0x00, 0x00, 0x08, 0x00, 0x00, 0x00,
  0x31, 0x00, 0x00, 0x00, 0x73, 0x65, 0x71, 0x75, 0x65, 0x6e, 0x74, 0x69,
  0x61, 0x6c, 0x2f, 0x63, 0x6f, 0x6e, 0x76, 0x32, 0x64, 0x2f, 0x42, 0x69,
  0x61, 0x73, 0x41, 0x64, 0x64, 0x2f, 0x52, 0x65, 0x61, 0x64, 0x56, 0x61,
  0x72, 0x69, 0x61, 0x62, 0x6c, 0x65, 0x4f, 0x70, 0x2f, 0x72, 0x65, 0x73,
  0x6f, 0x75, 0x72, 0x63, 0x65, 0x00, 0x00, 0x00, 0x90, 0xff, 0xff, 0xff,
  0x14, 0x00, 0x18, 0x00, 0x04, 0x00, 0x00, 0x00, 0x08, 0x00, 0x0c, 0x00,
  0x10, 0x00, 0x00, 0x00, 0x00, 0x00, 0x14, 0x00, 0x14, 0x00, 0x00, 0x00,
  0x14, 0x00, 0x00, 0x00, 0x01, 0x00, 0x00, 0x00, 0x20, 0x00, 0x00, 0x00,
  0x44, 0x00, 0x00, 0x00, 0x2c, 0x00, 0x00, 0x00, 0x04, 0x00, 0x00, 0x00,
  0x01, 0x00, 0x00, 0x00, 0x40, 0x00, 0x00, 0x00, 0x03, 0x00, 0x00, 0x00,
  0x01, 0x00, 0x00, 0x00, 0x0c, 0x00, 0x00, 0x00, 0x63, 0x6f, 0x6e, 0x76,
  0x32, 0x64, 0x5f, 0x69, 0x6e, 0x70, 0x75, 0x74, 0x00, 0x00, 0x00, 0x00,
  0x04, 0x00, 0x00, 0x00, 0xff, 0xff, 0xff, 0xff, 0x40, 0x00, 0x00, 0x00,
  0x03, 0x00, 0x00, 0x00, 0x01, 0x00, 0x00, 0x00, 0xfc, 0xff, 0xff, 0xff,
  0x04, 0x00, 0x04, 0x00, 0x04, 0x00, 0x00, 0x00
};

unsigned int model_tflite_len = 13052;// Fill the int in `src/model.cc` here
