#include "magic_wand_model_data.h"

// We need to keep the data array aligned on some architectures.
#ifdef __has_attribute
#define HAVE_ATTRIBUTE(x) __has_attribute(x)
#else
#define HAVE_ATTRIBUTE(x) 0
#endif
#if HAVE_ATTRIBUTE(aligned) || (defined(__GNUC__) && !defined(__clang__))
#define DATA_ALIGN_ATTRIBUTE __attribute__((aligned(4)))
#else
#define DATA_ALIGN_ATTRIBUTE
#endif

// Paste the data of the char array in `src/model.cc` here
const unsigned char g_magic_wand_model_data[] DATA_ALIGN_ATTRIBUTE = {
0x1c, 0x00, 0x00, 0x00, 0x54, 0x46, 0x4c, 0x33, 0x14, 0x00, 0x20, 0x00,
  0x04, 0x00, 0x08, 0x00, 0x0c, 0x00, 0x10, 0x00, 0x14, 0x00, 0x00, 0x00,
  0x18, 0x00, 0x1c, 0x00, 0x14, 0x00, 0x00, 0x00, 0x03, 0x00, 0x00, 0x00,
  0x18, 0x00, 0x00, 0x00, 0x2c, 0x00, 0x00, 0x00, 0xd8, 0x00, 0x00, 0x00,
  0x2c, 0x00, 0x00, 0x00, 0x80, 0x00, 0x00, 0x00, 0x78, 0x00, 0x00, 0x00,
  0x05, 0x00, 0x00, 0x00, 0x28, 0x07, 0x00, 0x00, 0x44, 0x06, 0x00, 0x00,
  0xbc, 0x03, 0x00, 0x00, 0xf8, 0x02, 0x00, 0x00, 0xac, 0x01, 0x00, 0x00,
  0x01, 0x00, 0x00, 0x00, 0xd0, 0x00, 0x00, 0x00, 0x14, 0x00, 0x00, 0x00,
  0x98, 0x32, 0x00, 0x00, 0x94, 0x32, 0x00, 0x00, 0x8c, 0x31, 0x00, 0x00,
  0xd8, 0x30, 0x00, 0x00, 0x30, 0x30, 0x00, 0x00, 0xbc, 0x2f, 0x00, 0x00,
  0x50, 0x2f, 0x00, 0x00, 0x00, 0x13, 0x00, 0x00, 0xec, 0x11, 0x00, 0x00,
  0x10, 0x10, 0x00, 0x00, 0xb4, 0x07, 0x00, 0x00, 0x6c, 0x32, 0x00, 0x00,
  0x68, 0x32, 0x00, 0x00, 0x64, 0x32, 0x00, 0x00, 0x60, 0x32, 0x00, 0x00,
  0x5c, 0x32, 0x00, 0x00, 0x58, 0x32, 0x00, 0x00, 0x54, 0x32, 0x00, 0x00,
  0x50, 0x32, 0x00, 0x00, 0x3c, 0x00, 0x00, 0x00, 0x00, 0x00, 0x00, 0x00,
  0x01, 0x00, 0x00, 0x00, 0x0c, 0x00, 0x00, 0x00, 0x08, 0x00, 0x0c, 0x00,
  0x04, 0x00, 0x08, 0x00, 0x08, 0x00, 0x00, 0x00, 0x08, 0x00, 0x00, 0x00,
  0x13, 0x00, 0x00, 0x00, 0x13, 0x00, 0x00, 0x00, 0x6d, 0x69, 0x6e, 0x5f,
  0x72, 0x75, 0x6e, 0x74, 0x69, 0x6d, 0x65, 0x5f, 0x76, 0x65, 0x72, 0x73,
  0x69, 0x6f, 0x6e, 0x00, 0xfa, 0xce, 0xff, 0xff, 0x04, 0x00, 0x00, 0x00,
  0x10, 0x00, 0x00, 0x00, 0x31, 0x2e, 0x35, 0x2e, 0x30, 0x00, 0x00, 0x00,
  0x00, 0x00, 0x00, 0x00, 0x00, 0x00, 0x00, 0x00, 0x0f, 0x00, 0x00, 0x00,
  0x4d, 0x4c, 0x49, 0x52, 0x20, 0x43, 0x6f, 0x6e, 0x76, 0x65, 0x72, 0x74,
  0x65, 0x64, 0x2e, 0x00, 0x00, 0x00, 0x0e, 0x00, 0x18, 0x00, 0x04, 0x00,
  0x08, 0x00, 0x0c, 0x00, 0x10, 0x00, 0x14, 0x00, 0x0e, 0x00, 0x00, 0x00,
  0x14, 0x00, 0x00, 0x00, 0x5c, 0x00, 0x00, 0x00, 0x60, 0x00, 0x00, 0x00,
  0x64, 0x00, 0x00, 0x00, 0x84, 0x00, 0x00, 0x00, 0x12, 0x00, 0x00, 0x00,
  0x58, 0x31, 0x00, 0x00, 0xe8, 0x30, 0x00, 0x00, 0x44, 0x30, 0x00, 0x00,
  0x9c, 0x2f, 0x00, 0x00, 0xf4, 0x2e, 0x00, 0x00, 0x94, 0x2e, 0x00, 0x00,
  0x2c, 0x2e, 0x00, 0x00, 0xd8, 0x11, 0x00, 0x00, 0xbc, 0x10, 0x00, 0x00,
  0xe0, 0x0e, 0x00, 0x00, 0x0c, 0x06, 0x00, 0x00, 0x28, 0x05, 0x00, 0x00,
  0xe8, 0x03, 0x00, 0x00, 0x3c, 0x03, 0x00, 0x00, 0x98, 0x02, 0x00, 0x00,
  0xd4, 0x01, 0x00, 0x00, 0x10, 0x01, 0x00, 0x00, 0x84, 0x00, 0x00, 0x00,
  0x01, 0x00, 0x00, 0x00, 0x00, 0x00, 0x00, 0x00, 0x01, 0x00, 0x00, 0x00,
  0x11, 0x00, 0x00, 0x00, 0x08, 0x00, 0x00, 0x00, 0x74, 0x05, 0x00, 0x00,
  0x94, 0x04, 0x00, 0x00, 0x78, 0x03, 0x00, 0x00, 0xbc, 0x02, 0x00, 0x00,
  0x30, 0x02, 0x00, 0x00, 0x50, 0x01, 0x00, 0x00, 0xa8, 0x00, 0x00, 0x00,
  0x10, 0x00, 0x00, 0x00, 0x04, 0x00, 0x00, 0x00, 0x6d, 0x61, 0x69, 0x6e,
  0x00, 0x00, 0x00, 0x00, 0x7a, 0xff, 0xff, 0xff, 0x00, 0x00, 0x00, 0x09,
  0x04, 0x00, 0x00, 0x00, 0x1c, 0x00, 0x00, 0x00, 0x10, 0x00, 0x00, 0x00,
  0x04, 0x00, 0x00, 0x00, 0xf6, 0xcf, 0xff, 0xff, 0x00, 0x00, 0x80, 0x3f,
  0x01, 0x00, 0x00, 0x00, 0x11, 0x00, 0x00, 0x00, 0x01, 0x00, 0x00, 0x00,
  0x10, 0x00, 0x00, 0x00, 0xa0, 0xfa, 0xff, 0xff, 0x19, 0x00, 0x00, 0x00,
  0x00, 0x00, 0x00, 0x19, 0x01, 0x00, 0x00, 0x00, 0x84, 0xcf, 0xff, 0xff,
  0x14, 0x00, 0x00, 0x00, 0x12, 0x00, 0x00, 0x00, 0x18, 0x00, 0x00, 0x00,
  0x30, 0x00, 0x00, 0x00, 0x20, 0x00, 0x00, 0x00, 0x02, 0x00, 0x00, 0x00,
  0x01, 0x00, 0x00, 0x00, 0x03, 0x00, 0x00, 0x00, 0x08, 0x00, 0x00, 0x00,
  0x49, 0x64, 0x65, 0x6e, 0x74, 0x69, 0x74, 0x79, 0x00, 0x00, 0x00, 0x00,
  0x02, 0x00, 0x00, 0x00, 0xff, 0xff, 0xff, 0xff, 0x03, 0x00, 0x00, 0x00,
  0x68, 0xd0, 0xff, 0xff, 0x00, 0x00, 0x0e, 0x00, 0x18, 0x00, 0x08, 0x00,
  0x0c, 0x00, 0x10, 0x00, 0x07, 0x00, 0x14, 0x00, 0x0e, 0x00, 0x00, 0x00,
  0x00, 0x00, 0x00, 0x08, 0x03, 0x00, 0x00, 0x00, 0x18, 0x00, 0x00, 0x00,
  0x0c, 0x00, 0x00, 0x00, 0x04, 0x00, 0x00, 0x00, 0x84, 0xcf, 0xff, 0xff,
  0x01, 0x00, 0x00, 0x00, 0x10, 0x00, 0x00, 0x00, 0x03, 0x00, 0x00, 0x00,
  0x0f, 0x00, 0x00, 0x00, 0x07, 0x00, 0x00, 0x00, 0x04, 0x00, 0x00, 0x00,
  0x0c, 0xd0, 0xff, 0xff, 0x14, 0x00, 0x00, 0x00, 0x11, 0x00, 0x00, 0x00,
  0x18, 0x00, 0x00, 0x00, 0x5c, 0x00, 0x00, 0x00, 0x4c, 0x00, 0x00, 0x00,
  0x02, 0x00, 0x00, 0x00, 0x01, 0x00, 0x00, 0x00, 0x03, 0x00, 0x00, 0x00,
  0x34, 0x00, 0x00, 0x00, 0x73, 0x65, 0x71, 0x75, 0x65, 0x6e, 0x74, 0x69,
  0x61, 0x6c, 0x2f, 0x64, 0x65, 0x6e, 0x73, 0x65, 0x5f, 0x31, 0x2f, 0x4d,
  0x61, 0x74, 0x4d, 0x75, 0x6c, 0x3b, 0x73, 0x65, 0x71, 0x75, 0x65, 0x6e,
  0x74, 0x69, 0x61, 0x6c, 0x2f, 0x64, 0x65, 0x6e, 0x73, 0x65, 0x5f, 0x31,
  0x2f, 0x42, 0x69, 0x61, 0x73, 0x41, 0x64, 0x64, 0x00, 0x00, 0x00, 0x00,
  0x02, 0x00, 0x00, 0x00, 0xff, 0xff, 0xff, 0xff, 0x03, 0x00, 0x00, 0x00,
  0x0c, 0xd0, 0xff, 0xff, 0xda, 0xfc, 0xff, 0xff, 0x00, 0x00, 0x00, 0x08,
  0x03, 0x00, 0x00, 0x00, 0x24, 0x00, 0x00, 0x00, 0x18, 0x00, 0x00, 0x00,
  0x0c, 0x00, 0x00, 0x00, 0x00, 0x00, 0x06, 0x00, 0x08, 0x00, 0x07, 0x00,
  0x06, 0x00, 0x00, 0x00, 0x00, 0x00, 0x00, 0x01, 0x01, 0x00, 0x00, 0x00,
  0x0f, 0x00, 0x00, 0x00, 0x03, 0x00, 0x00, 0x00, 0x0e, 0x00, 0x00, 0x00,
  0x06, 0x00, 0x00, 0x00, 0x03, 0x00, 0x00, 0x00, 0xe8, 0xfb, 0xff, 0xff,
  0x09, 0x00, 0x00, 0x00, 0x00, 0x00, 0x00, 0x09, 0x01, 0x00, 0x00, 0x00,
  0xcc, 0xd0, 0xff, 0xff, 0x14, 0x00, 0x00, 0x00, 0x10, 0x00, 0x00, 0x00,
  0x18, 0x00, 0x00, 0x00, 0x6c, 0x00, 0x00, 0x00, 0x5c, 0x00, 0x00, 0x00,
  0x02, 0x00, 0x00, 0x00, 0x01, 0x00, 0x00, 0x00, 0x10, 0x00, 0x00, 0x00,
  0x46, 0x00, 0x00, 0x00, 0x73, 0x65, 0x71, 0x75, 0x65, 0x6e, 0x74, 0x69,
  0x61, 0x6c, 0x2f, 0x64, 0x65, 0x6e, 0x73, 0x65, 0x2f, 0x4d, 0x61, 0x74,
  0x4d, 0x75, 0x6c, 0x3b, 0x73, 0x65, 0x71, 0x75, 0x65, 0x6e, 0x74, 0x69,
  0x61, 0x6c, 0x2f, 0x64, 0x65, 0x6e, 0x73, 0x65, 0x2f, 0x52, 0x65, 0x6c,
  0x75, 0x3b, 0x73, 0x65, 0x71, 0x75, 0x65, 0x6e, 0x74, 0x69, 0x61, 0x6c,
  0x2f, 0x64, 0x65, 0x6e, 0x73, 0x65, 0x2f, 0x42, 0x69, 0x61, 0x73, 0x41,
  0x64, 0x64, 0x00, 0x00, 0x02, 0x00, 0x00, 0x00, 0xff, 0xff, 0xff, 0xff,
  0x10, 0x00, 0x00, 0x00, 0xec, 0xd1, 0xff, 0xff, 0x00, 0x00, 0x0a, 0x00,
  0x10, 0x00, 0x04, 0x00, 0x08, 0x00, 0x0c, 0x00, 0x0a, 0x00, 0x00, 0x00,
  0x02, 0x00, 0x00, 0x00, 0x10, 0x00, 0x00, 0x00, 0x04, 0x00, 0x00, 0x00,
  0x01, 0x00, 0x00, 0x00, 0x0e, 0x00, 0x00, 0x00, 0x02, 0x00, 0x00, 0x00,
  0x0d, 0x00, 0x00, 0x00, 0x05, 0x00, 0x00, 0x00, 0xa8, 0xfc, 0xff, 0xff,
  0x16, 0x00, 0x00, 0x00, 0x00, 0x00, 0x00, 0x16, 0x01, 0x00, 0x00, 0x00,
  0x8c, 0xd1, 0xff, 0xff, 0x14, 0x00, 0x00, 0x00, 0x0f, 0x00, 0x00, 0x00,
  0x18, 0x00, 0x00, 0x00, 0x40, 0x00, 0x00, 0x00, 0x30, 0x00, 0x00, 0x00,
  0x02, 0x00, 0x00, 0x00, 0x01, 0x00, 0x00, 0x00, 0x70, 0x00, 0x00, 0x00,
  0x1a, 0x00, 0x00, 0x00, 0x73, 0x65, 0x71, 0x75, 0x65, 0x6e, 0x74, 0x69,
  0x61, 0x6c, 0x2f, 0x66, 0x6c, 0x61, 0x74, 0x74, 0x65, 0x6e, 0x2f, 0x52,
  0x65, 0x73, 0x68, 0x61, 0x70, 0x65, 0x00, 0x00, 0x02, 0x00, 0x00, 0x00,
  0xff, 0xff, 0xff, 0xff, 0x70, 0x00, 0x00, 0x00, 0x70, 0xd1, 0xff, 0xff,
  0x3e, 0xfe, 0xff, 0xff, 0x00, 0x00, 0x00, 0x05, 0x01, 0x00, 0x00, 0x00,
  0x38, 0x00, 0x00, 0x00, 0x2c, 0x00, 0x00, 0x00, 0x14, 0x00, 0x00, 0x00,
  0x00, 0x00, 0x0e, 0x00, 0x14, 0x00, 0x00, 0x00, 0x10, 0x00, 0x0c, 0x00,
  0x08, 0x00, 0x04, 0x00, 0x0e, 0x00, 0x00, 0x00, 0x03, 0x00, 0x00, 0x00,
  0x01, 0x00, 0x00, 0x00, 0x03, 0x00, 0x00, 0x00, 0x01, 0x00, 0x00, 0x00,
  0x01, 0x00, 0x00, 0x00, 0x0d, 0x00, 0x00, 0x00, 0x01, 0x00, 0x00, 0x00,
  0x0c, 0x00, 0x00, 0x00, 0x2c, 0xd2, 0xff, 0xff, 0x14, 0x00, 0x00, 0x00,
  0x0e, 0x00, 0x00, 0x00, 0x20, 0x00, 0x00, 0x00, 0x58, 0x00, 0x00, 0x00,
  0x40, 0x00, 0x00, 0x00, 0x04, 0x00, 0x00, 0x00, 0x01, 0x00, 0x00, 0x00,
  0x07, 0x00, 0x00, 0x00, 0x01, 0x00, 0x00, 0x00, 0x10, 0x00, 0x00, 0x00,
  0x22, 0x00, 0x00, 0x00, 0x73, 0x65, 0x71, 0x75, 0x65, 0x6e, 0x74, 0x69,
  0x61, 0x6c, 0x2f, 0x6d, 0x61, 0x78, 0x5f, 0x70, 0x6f, 0x6f, 0x6c, 0x69,
  0x6e, 0x67, 0x32, 0x64, 0x5f, 0x31, 0x2f, 0x4d, 0x61, 0x78, 0x50, 0x6f,
  0x6f, 0x6c, 0x00, 0x00, 0x04, 0x00, 0x00, 0x00, 0xff, 0xff, 0xff, 0xff,
  0x07, 0x00, 0x00, 0x00, 0x01, 0x00, 0x00, 0x00, 0x10, 0x00, 0x00, 0x00,
  0x28, 0xd2, 0xff, 0xff, 0x1a, 0xfe, 0xff, 0xff, 0x00, 0x00, 0x00, 0x01,
  0x24, 0x00, 0x00, 0x00, 0x18, 0x00, 0x00, 0x00, 0x04, 0x00, 0x00, 0x00,
  0x0c, 0xfe, 0xff, 0xff, 0x01, 0x00, 0x00, 0x00, 0x01, 0x00, 0x00, 0x00,
  0x00, 0x00, 0x00, 0x01, 0x01, 0x00, 0x00, 0x00, 0x0c, 0x00, 0x00, 0x00,
  0x03, 0x00, 0x00, 0x00, 0x0b, 0x00, 0x00, 0x00, 0x09, 0x00, 0x00, 0x00,
  0x02, 0x00, 0x00, 0x00, 0xd4, 0xd2, 0xff, 0xff, 0x14, 0x00, 0x00, 0x00,
  0x0d, 0x00, 0x00, 0x00, 0x20, 0x00, 0x00, 0x00, 0xb8, 0x00, 0x00, 0x00,
  0xa0, 0x00, 0x00, 0x00, 0x04, 0x00, 0x00, 0x00, 0x01, 0x00, 0x00, 0x00,
  0x15, 0x00, 0x00, 0x00, 0x01, 0x00, 0x00, 0x00, 0x10, 0x00, 0x00, 0x00,
  0x83, 0x00, 0x00, 0x00, 0x73, 0x65, 0x71, 0x75, 0x65, 0x6e, 0x74, 0x69,
  0x61, 0x6c, 0x2f, 0x63, 0x6f, 0x6e, 0x76, 0x32, 0x64, 0x5f, 0x31, 0x2f,
  0x52, 0x65, 0x6c, 0x75, 0x3b, 0x73, 0x65, 0x71, 0x75, 0x65, 0x6e, 0x74,
  0x69, 0x61, 0x6c, 0x2f, 0x63, 0x6f, 0x6e, 0x76, 0x32, 0x64, 0x5f, 0x31,
  0x2f, 0x42, 0x69, 0x61, 0x73, 0x41, 0x64, 0x64, 0x3b, 0x73, 0x65, 0x71,
  0x75, 0x65, 0x6e, 0x74, 0x69, 0x61, 0x6c, 0x2f, 0x63, 0x6f, 0x6e, 0x76,
  0x32, 0x64, 0x5f, 0x31, 0x2f, 0x43, 0x6f, 0x6e, 0x76, 0x32, 0x44, 0x3b,
  0x73, 0x65, 0x71, 0x75, 0x65, 0x6e, 0x74, 0x69, 0x61, 0x6c, 0x2f, 0x63,
  0x6f, 0x6e, 0x76, 0x32, 0x64, 0x5f, 0x31, 0x2f, 0x42, 0x69, 0x61, 0x73,
  0x41, 0x64, 0x64, 0x2f, 0x52, 0x65, 0x61, 0x64, 0x56, 0x61, 0x72, 0x69,
  0x61, 0x62, 0x6c, 0x65, 0x4f, 0x70, 0x2f, 0x72, 0x65, 0x73, 0x6f, 0x75,
  0x72, 0x63, 0x65, 0x00, 0x04, 0x00, 0x00, 0x00, 0xff, 0xff, 0xff, 0xff,
  0x15, 0x00, 0x00, 0x00, 0x01, 0x00, 0x00, 0x00, 0x10, 0x00, 0x00, 0x00,
  0x40, 0xd4, 0xff, 0xff, 0x00, 0x00, 0x0e, 0x00, 0x1a, 0x00, 0x08, 0x00,
  0x0c, 0x00, 0x10, 0x00, 0x07, 0x00, 0x14, 0x00, 0x0e, 0x00, 0x00, 0x00,
  0x00, 0x00, 0x00, 0x05, 0x01, 0x00, 0x00, 0x00, 0x3c, 0x00, 0x00, 0x00,
  0x30, 0x00, 0x00, 0x00, 0x14, 0x00, 0x00, 0x00, 0x00, 0x00, 0x0e, 0x00,
  0x18, 0x00, 0x17, 0x00, 0x10, 0x00, 0x0c, 0x00, 0x08, 0x00, 0x04, 0x00,
  0x0e, 0x00, 0x00, 0x00, 0x03, 0x00, 0x00, 0x00, 0x03, 0x00, 0x00, 0x00,
  0x03, 0x00, 0x00, 0x00, 0x03, 0x00, 0x00, 0x00, 0x00, 0x00, 0x00, 0x01,
  0x01, 0x00, 0x00, 0x00, 0x0b, 0x00, 0x00, 0x00, 0x01, 0x00, 0x00, 0x00,
  0x0a, 0x00, 0x00, 0x00, 0x2c, 0xff, 0xff, 0xff, 0x11, 0x00, 0x00, 0x00,
  0x00, 0x00, 0x00, 0x11, 0x01, 0x00, 0x00, 0x00, 0x10, 0xd4, 0xff, 0xff,
  0x14, 0x00, 0x00, 0x00, 0x0c, 0x00, 0x00, 0x00, 0x20, 0x00, 0x00, 0x00,
  0x58, 0x00, 0x00, 0x00, 0x40, 0x00, 0x00, 0x00, 0x04, 0x00, 0x00, 0x00,
  0x01, 0x00, 0x00, 0x00, 0x15, 0x00, 0x00, 0x00, 0x01, 0x00, 0x00, 0x00,
  0x08, 0x00, 0x00, 0x00, 0x20, 0x00, 0x00, 0x00, 0x73, 0x65, 0x71, 0x75,
  0x65, 0x6e, 0x74, 0x69, 0x61, 0x6c, 0x2f, 0x6d, 0x61, 0x78, 0x5f, 0x70,
  0x6f, 0x6f, 0x6c, 0x69, 0x6e, 0x67, 0x32, 0x64, 0x2f, 0x4d, 0x61, 0x78,
  0x50, 0x6f, 0x6f, 0x6c, 0x00, 0x00, 0x00, 0x00, 0x04, 0x00, 0x00, 0x00,
  0xff, 0xff, 0xff, 0xff, 0x15, 0x00, 0x00, 0x00, 0x01, 0x00, 0x00, 0x00,
  0x08, 0x00, 0x00, 0x00, 0x1c, 0xd5, 0xff, 0xff, 0x00, 0x00, 0x0e, 0x00,
  0x14, 0x00, 0x00, 0x00, 0x08, 0x00, 0x0c, 0x00, 0x07, 0x00, 0x10, 0x00,
  0x0e, 0x00, 0x00, 0x00, 0x00, 0x00, 0x00, 0x01, 0x30, 0x00, 0x00, 0x00,
  0x24, 0x00, 0x00, 0x00, 0x10, 0x00, 0x00, 0x00, 0x0c, 0x00, 0x10, 0x00,
  0x00, 0x00, 0x04, 0x00, 0x08, 0x00, 0x0f, 0x00, 0x0c, 0x00, 0x00, 0x00,
  0x01, 0x00, 0x00, 0x00, 0x01, 0x00, 0x00, 0x00, 0x00, 0x00, 0x00, 0x01,
  0x01, 0x00, 0x00, 0x00, 0x0a, 0x00, 0x00, 0x00, 0x03, 0x00, 0x00, 0x00,
  0x00, 0x00, 0x00, 0x00, 0x08, 0x00, 0x00, 0x00, 0x01, 0x00, 0x00, 0x00,
  0x0c, 0x00, 0x10, 0x00, 0x0b, 0x00, 0x00, 0x00, 0x0c, 0x00, 0x04, 0x00,
  0x0c, 0x00, 0x00, 0x00, 0x03, 0x00, 0x00, 0x00, 0x00, 0x00, 0x00, 0x03,
  0x01, 0x00, 0x00, 0x00, 0xf0, 0xd4, 0xff, 0xff, 0x14, 0x00, 0x00, 0x00,
  0x0b, 0x00, 0x00, 0x00, 0x20, 0x00, 0x00, 0x00, 0xb0, 0x00, 0x00, 0x00,
  0x98, 0x00, 0x00, 0x00, 0x04, 0x00, 0x00, 0x00, 0x01, 0x00, 0x00, 0x00,
  0x40, 0x00, 0x00, 0x00, 0x03, 0x00, 0x00, 0x00, 0x08, 0x00, 0x00, 0x00,
  0x7b, 0x00, 0x00, 0x00, 0x73, 0x65, 0x71, 0x75, 0x65, 0x6e, 0x74, 0x69,
  0x61, 0x6c, 0x2f, 0x63, 0x6f, 0x6e, 0x76, 0x32, 0x64, 0x2f, 0x52, 0x65,
  0x6c, 0x75, 0x3b, 0x73, 0x65, 0x71, 0x75, 0x65, 0x6e, 0x74, 0x69, 0x61,
  0x6c, 0x2f, 0x63, 0x6f, 0x6e, 0x76, 0x32, 0x64, 0x2f, 0x42, 0x69, 0x61,
  0x73, 0x41, 0x64, 0x64, 0x3b, 0x73, 0x65, 0x71, 0x75, 0x65, 0x6e, 0x74,
  0x69, 0x61, 0x6c, 0x2f, 0x63, 0x6f, 0x6e, 0x76, 0x32, 0x64, 0x2f, 0x43,
  0x6f, 0x6e, 0x76, 0x32, 0x44, 0x3b, 0x73, 0x65, 0x71, 0x75, 0x65, 0x6e,
  0x74, 0x69, 0x61, 0x6c, 0x2f, 0x63, 0x6f, 0x6e, 0x76, 0x32, 0x64, 0x2f,
  0x42, 0x69, 0x61, 0x73, 0x41, 0x64, 0x64, 0x2f, 0x52, 0x65, 0x61, 0x64,
  0x56, 0x61, 0x72, 0x69, 0x61, 0x62, 0x6c, 0x65, 0x4f, 0x70, 0x2f, 0x72,
  0x65, 0x73, 0x6f, 0x75, 0x72, 0x63, 0x65, 0x00, 0x04, 0x00, 0x00, 0x00,
  0xff, 0xff, 0xff, 0xff, 0x40, 0x00, 0x00, 0x00, 0x03, 0x00, 0x00, 0x00,
  0x08, 0x00, 0x00, 0x00, 0x44, 0xd5, 0xff, 0xff, 0x4e, 0xd6, 0xff, 0xff,
  0x04, 0x00, 0x00, 0x00, 0x00, 0x08, 0x00, 0x00, 0x64, 0x22, 0xe7, 0x3d,
  0x83, 0xda, 0x9f, 0x3b, 0x77, 0x0c, 0xb1, 0x3e, 0xa1, 0x21, 0x54, 0x3d,
  0x19, 0xb7, 0x83, 0x3d, 0xc9, 0x93, 0x2c, 0xbe, 0xdc, 0x4f, 0xc0, 0xbd,
  0x8a, 0x31, 0xf2, 0x3e, 0x04, 0x51, 0xbb, 0x3d, 0xbc, 0xf8, 0x11, 0x3e,
  0x4b, 0x61, 0x4e, 0x3d, 0x69, 0x3f, 0x54, 0xbd, 0xe4, 0x1f, 0x08, 0x3e,
  0x8a, 0x78, 0x1a, 0x3e, 0x66, 0x1b, 0xfd, 0xbd, 0x93, 0x9f, 0xfc, 0xbd,
  0x57, 0xb0, 0x38, 0xbe, 0xdc, 0xe8, 0x90, 0x3d, 0x58, 0xe2, 0x3a, 0xbe,
  0xcf, 0x13, 0xce, 0xbd, 0xf6, 0xf1, 0xeb, 0xbd, 0x41, 0xa1, 0x30, 0x3e,
  0xce, 0x34, 0x9f, 0xbd, 0xa6, 0x83, 0x35, 0xbe, 0x28, 0x04, 0x9b, 0xbe,
  0x1b, 0xca, 0x2e, 0x3e, 0x20, 0x22, 0xc4, 0xbe, 0x25, 0x42, 0x0f, 0xbe,
  0x2e, 0x90, 0x38, 0xbd, 0x71, 0xf3, 0xd6, 0x3d, 0xfb, 0xc4, 0xd7, 0xbd,
  0xa6, 0x78, 0x4b, 0xbe, 0x10, 0xa5, 0x5b, 0xbe, 0x77, 0xd5, 0xf3, 0xbb,
  0x6f, 0x55, 0x89, 0xbe, 0x65, 0xb8, 0xc7, 0xbd, 0x3f, 0x41, 0x84, 0x3e,
  0xa7, 0x3c, 0xc9, 0x3e, 0xa6, 0xfa, 0xc0, 0xbd, 0x5f, 0x80, 0xc7, 0x3e,
  0xa4, 0xb4, 0xbc, 0x3e, 0x3b, 0x4b, 0x12, 0xbd, 0x30, 0x6f, 0x91, 0xbe,
  0x0c, 0x6e, 0xcf, 0xbd, 0x3a, 0xae, 0xc8, 0x3d, 0xd5, 0x68, 0x7d, 0xbe,
  0xcb, 0x13, 0x5b, 0xbd, 0x4f, 0x28, 0xea, 0xbe, 0x6d, 0x8c, 0xb6, 0x3d,
  0x20, 0x5a, 0x37, 0xbd, 0x05, 0x04, 0x10, 0xbe, 0x5a, 0x75, 0xbf, 0xbd,
  0x1e, 0x99, 0x4b, 0x3d, 0x7b, 0x4d, 0x3c, 0x3e, 0x16, 0xd9, 0x40, 0x3d,
  0xb5, 0x4b, 0x0c, 0xbe, 0xe2, 0x21, 0x34, 0xbe, 0x63, 0xbe, 0x5f, 0xbd,
  0x14, 0xa0, 0x2a, 0x3c, 0x20, 0x97, 0xac, 0xbc, 0x8d, 0xda, 0xd2, 0xbd,
  0xb9, 0xc0, 0x4c, 0xbe, 0x78, 0x46, 0x06, 0xbe, 0xf1, 0x09, 0xd6, 0xbd,
  0x52, 0x45, 0x0c, 0x3e, 0xb0, 0xd0, 0xc7, 0xbc, 0x38, 0x38, 0xd4, 0xbd,
  0x78, 0x15, 0xc5, 0xbe, 0xff, 0x09, 0x8e, 0xbe, 0x09, 0x7e, 0x68, 0xbe,
  0x80, 0x40, 0x25, 0xbe, 0x3f, 0xde, 0x3b, 0xbd, 0x32, 0x35, 0xe5, 0xbd,
  0x22, 0xa5, 0x4d, 0x3e, 0x3f, 0xf5, 0x1f, 0x3e, 0x2a, 0x2e, 0x81, 0xbe,
  0xe4, 0xa6, 0x76, 0xbd, 0x37, 0x5c, 0x02, 0xbe, 0x14, 0xe7, 0xcc, 0x3d,
  0xe0, 0x1e, 0x1a, 0xbe, 0x52, 0xd1, 0xf3, 0x3c, 0x63, 0x3c, 0x56, 0xbd,
  0xf5, 0x8e, 0xfb, 0xbd, 0xda, 0xbb, 0xea, 0x3d, 0x4d, 0x0a, 0x3f, 0x3e,
  0xa5, 0x8d, 0xe6, 0xbd, 0xe7, 0xb6, 0xca, 0xbb, 0x47, 0x7f, 0x15, 0xbe,
  0xa8, 0x74, 0xf0, 0x3d, 0x33, 0x70, 0x65, 0x3e, 0x99, 0x48, 0x82, 0x3c,
  0x40, 0xba, 0x16, 0xbe, 0xf4, 0xd3, 0x51, 0xbd, 0x9e, 0x3f, 0xb2, 0xbc,
  0x7b, 0x69, 0xb2, 0xbe, 0xbf, 0x83, 0x23, 0xbe, 0xa0, 0x24, 0xe6, 0xbe,
  0xdd, 0xe1, 0x99, 0xbd, 0x82, 0x40, 0xae, 0xbe, 0x36, 0xd0, 0x2c, 0x3d,
  0x13, 0x26, 0xca, 0xbd, 0xe4, 0x97, 0x95, 0xbe, 0x56, 0xb2, 0xa5, 0xbe,
  0x2a, 0xc6, 0xc9, 0xbe, 0xd1, 0x12, 0x33, 0xbe, 0x64, 0x69, 0x56, 0x3e,
  0x9d, 0xf2, 0x30, 0xbf, 0xf7, 0x52, 0xbc, 0x3d, 0x8c, 0x78, 0x29, 0x3b,
  0xc9, 0xb6, 0xe4, 0xbe, 0x61, 0x0d, 0x7a, 0x3d, 0x69, 0xe6, 0x2b, 0xbe,
  0xca, 0xd1, 0xcf, 0xbe, 0x76, 0xb7, 0xbb, 0x3d, 0x63, 0x82, 0x93, 0xbe,
  0xd7, 0xe3, 0x8b, 0xbb, 0x7c, 0x36, 0x79, 0x3c, 0x5f, 0xf4, 0x9c, 0x3e,
  0xdb, 0x24, 0x7a, 0x3d, 0x99, 0x13, 0xca, 0x3d, 0x4f, 0x3e, 0xbb, 0xbd,
  0xb1, 0x65, 0x10, 0x3e, 0xa2, 0x86, 0x88, 0xbe, 0xa3, 0xd4, 0x94, 0xbb,
  0x32, 0xe4, 0x17, 0xbd, 0x96, 0xf3, 0x06, 0x3e, 0x0d, 0x3c, 0xcc, 0x3d,
  0x6a, 0x0a, 0x5a, 0x3d, 0xe7, 0xce, 0x95, 0xbf, 0xbe, 0x92, 0x71, 0xbb,
  0x78, 0x1a, 0x9d, 0xbe, 0xe9, 0xf7, 0x73, 0xbe, 0xaf, 0xb8, 0xce, 0x3d,
  0x9f, 0x89, 0x08, 0x3e, 0xd4, 0x43, 0xb2, 0xbe, 0x3d, 0x86, 0x35, 0x3e,
  0x72, 0x5a, 0x0b, 0x3e, 0x99, 0x20, 0x06, 0x3e, 0x8c, 0xd9, 0xd5, 0xbe,
  0x5a, 0x27, 0xa6, 0xbe, 0x58, 0x37, 0x0d, 0x3f, 0x6e, 0x0b, 0x96, 0xbe,
  0xdd, 0x0a, 0xe5, 0x3d, 0xc2, 0x5d, 0xb1, 0xbe, 0x0d, 0x8e, 0x2a, 0x3e,
  0x1b, 0x8a, 0x3d, 0xbf, 0xcc, 0x52, 0x7d, 0xbc, 0x1c, 0x08, 0xe2, 0xbd,
  0x85, 0xa9, 0x0a, 0xbf, 0xe4, 0x56, 0xa2, 0x3e, 0x0f, 0x38, 0xa7, 0x3e,
  0x49, 0x71, 0xba, 0xbd, 0xf1, 0xde, 0x3b, 0x3e, 0xe6, 0x90, 0x52, 0xbe,
  0x4a, 0xed, 0x43, 0xbd, 0xef, 0x2f, 0xd7, 0x3c, 0x40, 0xa2, 0x00, 0xbf,
  0xe1, 0xc6, 0x44, 0xbe, 0xba, 0xd4, 0xc0, 0xbe, 0xbf, 0xbd, 0x71, 0x3c,
  0x67, 0x86, 0x0a, 0xbe, 0x7c, 0xcf, 0x03, 0xbf, 0x3a, 0x53, 0x1d, 0x3d,
  0xc4, 0x69, 0x8b, 0xbd, 0xfb, 0xe5, 0x09, 0xbe, 0x2c, 0xdd, 0x8b, 0xbe,
  0x73, 0xe0, 0x64, 0x3c, 0xc5, 0x2d, 0x0a, 0xbe, 0x77, 0xff, 0x53, 0xbe,
  0xd9, 0x4d, 0x01, 0xbf, 0x1e, 0xba, 0x60, 0x3d, 0xca, 0x94, 0xa1, 0xbd,
  0xd9, 0x23, 0x01, 0xbe, 0x46, 0x31, 0x73, 0xbe, 0xf2, 0x97, 0x03, 0xbe,
  0x90, 0x00, 0x45, 0xbe, 0x37, 0x82, 0x52, 0xbe, 0x3e, 0xd0, 0xff, 0xbd,
  0x43, 0xec, 0x22, 0xbc, 0x30, 0x75, 0xcf, 0xbd, 0xe4, 0x20, 0xcb, 0xbd,
  0xb6, 0x0d, 0x22, 0x3e, 0xb1, 0x9c, 0x4f, 0xbd, 0x49, 0x3d, 0x84, 0x3d,
  0xfc, 0xa4, 0xc1, 0xbd, 0x67, 0xeb, 0x1b, 0x3d, 0xad, 0xbc, 0x7b, 0xbc,
  0x92, 0x52, 0xa7, 0xbd, 0x21, 0xb3, 0x19, 0x3f, 0x0d, 0xb6, 0x5b, 0x3e,
  0x6f, 0xd5, 0x38, 0x3d, 0x77, 0xd4, 0x5b, 0xbd, 0xb9, 0x41, 0x2d, 0xbf,
  0xe9, 0xa3, 0xa6, 0xbd, 0x02, 0x75, 0x73, 0xbe, 0x9a, 0x6f, 0x2e, 0xbe,
  0x9a, 0x12, 0x26, 0xbe, 0xc8, 0xff, 0x1d, 0x3e, 0xe1, 0x18, 0x1b, 0xbe,
  0x4d, 0xec, 0x32, 0xbe, 0xdf, 0x10, 0x20, 0xbd, 0x4e, 0x2a, 0x8b, 0x3e,
  0xba, 0x1b, 0x9c, 0xbe, 0x44, 0x01, 0x5e, 0xbe, 0x2d, 0x19, 0xee, 0x3e,
  0xd3, 0x5c, 0x38, 0x3d, 0xe6, 0x4e, 0x42, 0xbe, 0x39, 0x86, 0x8e, 0x3e,
  0xe3, 0x56, 0xa7, 0x3d, 0xff, 0x75, 0x73, 0xbe, 0xe6, 0xb9, 0x18, 0xbe,
  0x1a, 0xab, 0x2d, 0xbe, 0xdc, 0xe1, 0xcf, 0xbe, 0x07, 0x48, 0xea, 0x3e,
  0x8b, 0x06, 0x3b, 0x3e, 0x2b, 0xf5, 0x65, 0xbe, 0x5d, 0xf6, 0x4e, 0x3e,
  0xdf, 0xaa, 0x75, 0xbe, 0x78, 0x11, 0x04, 0xba, 0x3d, 0xaf, 0x9f, 0xbd,
  0xfc, 0x5e, 0x62, 0xbe, 0x66, 0x44, 0x03, 0x3e, 0xb0, 0x0d, 0x02, 0xbb,
  0x5c, 0xcb, 0x00, 0x3c, 0x74, 0xda, 0x62, 0xbe, 0x7a, 0x3e, 0x05, 0x3e,
  0xf1, 0x89, 0x6c, 0xbc, 0x5b, 0xbd, 0x95, 0xbd, 0x28, 0x3b, 0x18, 0xbe,
  0x0a, 0x8e, 0x54, 0xbc, 0xf1, 0xfb, 0x97, 0xbe, 0x41, 0x7b, 0x1f, 0xbd,
  0xb4, 0xfb, 0xb1, 0xbd, 0x34, 0x2b, 0xa7, 0xbd, 0x77, 0x8f, 0x23, 0x3c,
  0xc5, 0x2e, 0xda, 0x3e, 0x13, 0xcf, 0xa8, 0xbd, 0x5f, 0xb1, 0xbf, 0x3d,
  0x4b, 0xad, 0x9b, 0xbd, 0x83, 0xf6, 0x78, 0xbd, 0xce, 0x93, 0x9e, 0xbc,
  0xfc, 0xde, 0x32, 0xbc, 0xe6, 0x3a, 0x8b, 0xbc, 0xf2, 0xe3, 0x31, 0x3e,
  0x88, 0xb4, 0x6d, 0xbd, 0xfe, 0xed, 0x12, 0xbe, 0x53, 0x61, 0xa1, 0xbd,
  0x86, 0xc3, 0xf4, 0xbc, 0x2f, 0xec, 0x60, 0x3d, 0x41, 0x72, 0xbc, 0xbb,
  0x28, 0x64, 0x2e, 0x3c, 0xfc, 0x28, 0x19, 0x3c, 0xb1, 0x46, 0xd6, 0xbd,
  0x48, 0x53, 0x2a, 0xbe, 0xc4, 0x6b, 0xfe, 0x3b, 0x63, 0xde, 0x21, 0x3e,
  0x0a, 0xfe, 0x68, 0xbc, 0xf9, 0x78, 0xaa, 0xbb, 0xa5, 0x80, 0xc8, 0xbc,
  0x48, 0x15, 0xd7, 0xbe, 0x32, 0x58, 0xa2, 0xbd, 0xc3, 0xcf, 0xab, 0x3d,
  0x1f, 0x4c, 0xe2, 0x3d, 0xee, 0xf0, 0x93, 0x3b, 0x02, 0xea, 0xf7, 0x3d,
  0xd0, 0x8c, 0xc3, 0x3b, 0x38, 0xd2, 0x83, 0xbd, 0x9c, 0x13, 0xc4, 0xbe,
  0x60, 0x13, 0xa7, 0x3e, 0xde, 0x65, 0x8b, 0x3d, 0x5d, 0xf8, 0x63, 0xbe,
  0x74, 0xec, 0xb7, 0x3d, 0x55, 0x4e, 0x5f, 0xbd, 0x43, 0xb3, 0xff, 0xbd,
  0x5f, 0x8a, 0xed, 0xbc, 0xcf, 0x6b, 0xae, 0xbe, 0x64, 0xc2, 0xdd, 0xbd,
  0x4c, 0x03, 0xd8, 0x3e, 0xd9, 0xd0, 0xde, 0x3e, 0x6f, 0x43, 0x59, 0xbd,
  0x1e, 0xcf, 0xde, 0x3d, 0x35, 0x10, 0x34, 0xbd, 0xf7, 0x08, 0xea, 0x3c,
  0x7a, 0x95, 0x7e, 0xbe, 0xbe, 0xd6, 0x7e, 0x3d, 0x52, 0xea, 0x62, 0x3e,
  0x16, 0xcf, 0x05, 0xbe, 0x18, 0x6c, 0x2b, 0x3d, 0x05, 0x87, 0x2d, 0xbe,
  0xfc, 0xe5, 0x49, 0xbd, 0xfc, 0x2a, 0x88, 0x3e, 0x64, 0xa0, 0x96, 0x3b,
  0x42, 0x7d, 0x28, 0x3e, 0xea, 0x72, 0xaf, 0x3d, 0x27, 0x78, 0x17, 0xbd,
  0xce, 0xc3, 0x3d, 0x3e, 0xd9, 0x07, 0x02, 0x3e, 0x6f, 0xe1, 0x12, 0x3e,
  0x78, 0xd0, 0xc7, 0xbd, 0xb3, 0x2e, 0x06, 0x3d, 0xc8, 0x58, 0x25, 0x3e,
  0x7c, 0xaa, 0xb7, 0x3c, 0xc4, 0x65, 0xcf, 0x3b, 0x37, 0x97, 0xcd, 0x3c,
  0xed, 0xd6, 0x0f, 0x3e, 0x9f, 0x93, 0xbf, 0xbd, 0xd7, 0x40, 0xf8, 0xbd,
  0x64, 0xc7, 0xcd, 0xbd, 0xf1, 0x0c, 0x8f, 0xbc, 0x96, 0xcb, 0x4a, 0x3e,
  0x45, 0xb2, 0x44, 0x3e, 0x75, 0x0e, 0x3f, 0xbd, 0xa0, 0xff, 0x41, 0xbc,
  0x3e, 0x37, 0xcd, 0xbd, 0x0b, 0x2a, 0xec, 0xbd, 0xb2, 0xbc, 0xb6, 0xbb,
  0xef, 0x31, 0x3b, 0xbc, 0xb6, 0xcb, 0x6f, 0xbe, 0xc8, 0x57, 0x33, 0x3c,
  0x0c, 0x74, 0x05, 0x3d, 0x07, 0x0d, 0xc7, 0xbe, 0x1f, 0x4d, 0x7f, 0x3e,
  0x0e, 0x4a, 0x4f, 0xbe, 0xfe, 0x29, 0x06, 0xbe, 0x8e, 0x4e, 0xa4, 0xbd,
  0xe2, 0x8d, 0xce, 0x3d, 0x76, 0x47, 0x1f, 0xbe, 0x25, 0xdd, 0x48, 0xbe,
  0x1b, 0x94, 0x91, 0xbe, 0x9e, 0x65, 0x11, 0x3e, 0xe6, 0xb2, 0x3d, 0xbe,
  0x90, 0x8a, 0xb8, 0xbd, 0xa1, 0xd4, 0x2d, 0xbc, 0x0b, 0x39, 0x25, 0xbe,
  0xb8, 0x1d, 0x1a, 0xbe, 0xd7, 0x19, 0x27, 0xbe, 0xec, 0x30, 0x00, 0xbb,
  0x4a, 0x9a, 0x23, 0xbe, 0x4f, 0xdf, 0xc6, 0xbd, 0xa6, 0x6d, 0x9f, 0xbd,
  0xa2, 0x11, 0xb2, 0xbd, 0x61, 0xbe, 0x5d, 0x3e, 0xb7, 0x7c, 0xa2, 0xbd,
  0x79, 0x75, 0x07, 0xbe, 0x94, 0xd1, 0x3e, 0x3f, 0xd2, 0xba, 0xe6, 0xbd,
  0xc2, 0xcd, 0x51, 0x3e, 0xa2, 0x6a, 0x94, 0x3e, 0x69, 0x69, 0x07, 0xbe,
  0x2f, 0xe2, 0x84, 0xbd, 0xc3, 0x96, 0x6a, 0x3c, 0x8a, 0x2e, 0x88, 0x3d,
  0xb0, 0x33, 0xcb, 0x3c, 0x5c, 0xf3, 0xff, 0x3d, 0x15, 0x5f, 0x41, 0x3e,
  0xf3, 0x11, 0x2b, 0xbd, 0xb1, 0x70, 0xda, 0xbd, 0x3b, 0x30, 0x81, 0xbc,
  0x0a, 0x7a, 0x21, 0xbe, 0x4e, 0x6e, 0x1d, 0x3f, 0xeb, 0x7b, 0xbb, 0xbe,
  0xa3, 0xe4, 0x31, 0x3e, 0x2a, 0x13, 0x13, 0xbe, 0xb9, 0x82, 0x97, 0xbd,
  0xd0, 0x12, 0xff, 0xbd, 0xcc, 0xa4, 0xc8, 0xbd, 0x91, 0x47, 0x09, 0xbe,
  0xd4, 0x6b, 0xea, 0xbd, 0x8e, 0x8d, 0x44, 0xbe, 0x8e, 0xf0, 0xb2, 0x3d,
  0x1d, 0x6c, 0xe9, 0xbd, 0x01, 0xbb, 0x3f, 0xbd, 0xf2, 0xf4, 0x36, 0xbd,
  0x6f, 0x29, 0x2c, 0x3e, 0xb6, 0x58, 0xd5, 0xbd, 0x01, 0xfa, 0x03, 0xbe,
  0x01, 0x24, 0x13, 0xbd, 0x73, 0x02, 0xb5, 0x3d, 0x55, 0x39, 0x08, 0xbe,
  0x65, 0x1b, 0x68, 0xbd, 0x47, 0x2a, 0x63, 0xbc, 0x5c, 0xb8, 0x94, 0x3e,
  0x31, 0x6d, 0x79, 0x3d, 0x28, 0x25, 0x35, 0xbe, 0xff, 0x0a, 0x02, 0x3d,
  0x3b, 0xd9, 0x00, 0x3f, 0x47, 0x1b, 0x9a, 0x3e, 0x34, 0x79, 0x6a, 0xbd,
  0x45, 0xa1, 0xaa, 0xbd, 0x42, 0xaa, 0xc4, 0xbd, 0x63, 0xe6, 0x89, 0xbe,
  0x94, 0x34, 0x75, 0x3e, 0xec, 0x0d, 0x3f, 0xbe, 0x18, 0xc4, 0x80, 0xbe,
  0xd3, 0x11, 0xdb, 0xbd, 0x96, 0x26, 0xa2, 0xbd, 0xd6, 0x9b, 0xb3, 0xbe,
  0xda, 0x2b, 0xd4, 0xbd, 0x4b, 0x6b, 0xd3, 0xbe, 0x65, 0x1e, 0x90, 0xbd,
  0xd1, 0x26, 0x16, 0x3d, 0x31, 0xe7, 0x12, 0x3e, 0xec, 0xf4, 0xe2, 0xbd,
  0xc4, 0x9a, 0x7a, 0xbd, 0xa0, 0x76, 0xcf, 0xbd, 0xa7, 0x9d, 0x34, 0xbc,
  0x98, 0x0c, 0x1d, 0xbe, 0x34, 0xa1, 0x75, 0xbd, 0x85, 0x4c, 0x87, 0x3e,
  0x38, 0x2e, 0x78, 0x3e, 0xf6, 0xa4, 0x84, 0x3e, 0x03, 0xd3, 0x66, 0xbd,
  0xb8, 0x4d, 0x45, 0xbd, 0x24, 0xba, 0x8f, 0xbd, 0xfb, 0xdd, 0x54, 0xbd,
  0x06, 0x71, 0x4f, 0xbd, 0xcf, 0xab, 0xc8, 0xbe, 0x0f, 0x8e, 0xf3, 0x3d,
  0x76, 0x83, 0x43, 0x3d, 0x18, 0xc9, 0x95, 0xbe, 0xaa, 0x81, 0x24, 0xbe,
  0x12, 0xdb, 0x79, 0x3e, 0xe7, 0x28, 0xc6, 0xbe, 0x5a, 0x93, 0xc7, 0xbe,
  0x96, 0x17, 0x8b, 0xbe, 0xcb, 0x26, 0x56, 0xbe, 0x2a, 0x17, 0x79, 0xbe,
  0x07, 0x6e, 0xe9, 0x3c, 0xb3, 0x1a, 0x83, 0xbe, 0x54, 0x3d, 0x52, 0x3e,
  0xcd, 0x89, 0x22, 0xbe, 0x9d, 0xda, 0x92, 0xbe, 0x70, 0x71, 0x1b, 0xbe,
  0xf9, 0x0f, 0xb5, 0xbe, 0x76, 0xa9, 0xac, 0xbe, 0x80, 0xbe, 0x0a, 0xbe,
  0x58, 0xc4, 0x51, 0xbe, 0x61, 0x64, 0x0d, 0x3f, 0x92, 0xc6, 0x65, 0xbe,
  0x71, 0xa4, 0x74, 0xbe, 0x8c, 0xb7, 0xc0, 0xbe, 0x49, 0xe0, 0x0a, 0xbe,
  0xed, 0x6d, 0x9f, 0xbd, 0x9c, 0xbc, 0xaa, 0xbe, 0x85, 0x22, 0xcc, 0xbd,
  0x3c, 0xcd, 0x2b, 0x3f, 0x38, 0x1a, 0x92, 0xbe, 0x88, 0xd6, 0xb3, 0xbe,
  0x47, 0x4d, 0xfe, 0xbc, 0xff, 0x1a, 0x16, 0x3e, 0x91, 0x37, 0x00, 0x3f,
  0xee, 0x9e, 0xd0, 0xbc, 0xae, 0xcc, 0x18, 0xbc, 0x49, 0x59, 0xf0, 0x3c,
  0xd0, 0xbd, 0x6f, 0xbd, 0x1d, 0x07, 0x38, 0x3c, 0xca, 0x61, 0x04, 0x3e,
  0x09, 0x54, 0x06, 0x3f, 0x23, 0xe6, 0x02, 0xbe, 0x10, 0x5b, 0x40, 0xbd,
  0x1f, 0x9e, 0x45, 0xbe, 0x67, 0x85, 0x06, 0xbe, 0x21, 0x89, 0x4a, 0xbe,
  0x3b, 0xc8, 0xac, 0xbc, 0x3e, 0x98, 0xfd, 0xbd, 0x4b, 0x80, 0xd9, 0x3e,
  0xb0, 0x0d, 0x58, 0xbd, 0x8b, 0x3f, 0x82, 0xbd, 0x6c, 0xa6, 0xf7, 0xbd,
  0xe6, 0xcb, 0x4b, 0x3d, 0x5c, 0xe7, 0x39, 0xbe, 0x07, 0x62, 0xfb, 0xba,
  0x8c, 0x92, 0x4a, 0xbe, 0x11, 0x92, 0x47, 0xbc, 0x0c, 0x35, 0x0e, 0xbe,
  0x97, 0xbd, 0x20, 0xbd, 0x39, 0x45, 0x2d, 0xbe, 0xde, 0xc9, 0x88, 0x3d,
  0x4b, 0xfd, 0x18, 0xbe, 0x6f, 0xb0, 0x02, 0xbd, 0xbb, 0x6a, 0x06, 0xbf,
  0x36, 0x98, 0xa0, 0xbe, 0xf7, 0x63, 0x03, 0xbe, 0x61, 0xd0, 0x59, 0xbe,
  0xe6, 0x4e, 0x07, 0xbe, 0x55, 0x39, 0x57, 0xbe, 0x05, 0xc4, 0x56, 0xbe,
  0x7a, 0x92, 0xbb, 0xbe, 0x7d, 0x6f, 0x4a, 0x3e, 0xff, 0xac, 0x9f, 0xbd,
  0x8f, 0x21, 0xaf, 0xbd, 0xe6, 0x56, 0x50, 0xbc, 0x04, 0xff, 0x74, 0xbd,
  0x95, 0xd7, 0x63, 0xbd, 0xe6, 0xd1, 0x83, 0x3e, 0xd1, 0x4a, 0x31, 0xbe,
  0x73, 0x05, 0xe5, 0xbd, 0xbd, 0x5b, 0x02, 0xbd, 0x7c, 0x46, 0x84, 0xbd,
  0x1f, 0x7a, 0x80, 0xbd, 0x30, 0xae, 0xc0, 0x3a, 0xb9, 0xf4, 0x86, 0x3c,
  0xa9, 0xdb, 0x30, 0xbc, 0x8f, 0x32, 0x75, 0x3e, 0x1c, 0x2c, 0x4c, 0x3d,
  0xd2, 0x23, 0xb4, 0x3e, 0x71, 0xcd, 0x16, 0x3c, 0xdd, 0x92, 0x6a, 0x3d,
  0xac, 0x49, 0x20, 0x3e, 0xd1, 0xf3, 0xd6, 0x3e, 0x14, 0x88, 0x2b, 0x3e,
  0xc9, 0x6a, 0x88, 0x3d, 0x26, 0xde, 0xff, 0xff, 0x10, 0x00, 0x00, 0x00,
  0x0a, 0x00, 0x00, 0x00, 0x1c, 0x00, 0x00, 0x00, 0x38, 0x00, 0x00, 0x00,
  0x04, 0x00, 0x00, 0x00, 0x10, 0x00, 0x00, 0x00, 0x04, 0x00, 0x00, 0x00,
  0x01, 0x00, 0x00, 0x00, 0x08, 0x00, 0x00, 0x00, 0x1a, 0x00, 0x00, 0x00,
  0x73, 0x65, 0x71, 0x75, 0x65, 0x6e, 0x74, 0x69, 0x61, 0x6c, 0x2f, 0x63,
  0x6f, 0x6e, 0x76, 0x32, 0x64, 0x5f, 0x31, 0x2f, 0x43, 0x6f, 0x6e, 0x76,
  0x32, 0x44, 0x00, 0x00, 0x9c, 0xdd, 0xff, 0xff, 0xa6, 0xde, 0xff, 0xff,
  0x04, 0x00, 0x00, 0x00, 0x80, 0x01, 0x00, 0x00, 0xaf, 0x51, 0x2e, 0x3e,
  0xc2, 0x5e, 0xbe, 0x3e, 0xed, 0xe5, 0x1f, 0x3e, 0xb6, 0x93, 0x64, 0xbd,
  0x94, 0x75, 0xb9, 0x3d, 0x0a, 0x90, 0x1b, 0x3d, 0x54, 0xf5, 0x25, 0xbd,
  0x81, 0xbb, 0x9e, 0xbe, 0x10, 0x1d, 0x08, 0xbe, 0xfa, 0xca, 0xfc, 0xbd,
  0x4e, 0xab, 0x8d, 0xbe, 0x78, 0x12, 0x5d, 0xbe, 0x5b, 0x7e, 0xbe, 0xbe,
  0xb1, 0xa5, 0xd3, 0x3b, 0xb7, 0x8e, 0x69, 0x3d, 0xd2, 0x1d, 0x8b, 0xbd,
  0x06, 0xce, 0x09, 0x3d, 0x4f, 0xef, 0x31, 0xbd, 0x66, 0x1a, 0xc9, 0x3e,
  0x93, 0xf7, 0x65, 0x3d, 0x62, 0xf6, 0x08, 0xbc, 0xd8, 0xd0, 0xa1, 0x3d,
  0x8c, 0xce, 0x8a, 0xbd, 0xe4, 0xbf, 0x03, 0x3e, 0x5d, 0x5e, 0x8b, 0x3d,
  0xe9, 0x59, 0x04, 0x3e, 0xd4, 0xc1, 0x60, 0xbe, 0x11, 0x90, 0x19, 0xbe,
  0xed, 0x84, 0x11, 0x3e, 0x95, 0xcd, 0x7a, 0xbe, 0x18, 0x11, 0xa8, 0x3c,
  0x75, 0xf2, 0x15, 0xbe, 0x49, 0xf9, 0x32, 0x3b, 0x1a, 0x99, 0xa2, 0x3d,
  0x6d, 0x66, 0x58, 0xbe, 0x1c, 0xb8, 0x32, 0x3e, 0xb7, 0x1d, 0xc2, 0xbd,
  0xca, 0xb8, 0x37, 0xbc, 0xa6, 0x13, 0xea, 0x3d, 0xe3, 0x74, 0x8b, 0xbd,
  0x1b, 0xcb, 0x65, 0x3d, 0x86, 0x8e, 0x4b, 0x3d, 0x3b, 0xaa, 0x94, 0xbd,
  0x40, 0x91, 0x99, 0x3d, 0x6a, 0xf2, 0x15, 0xbd, 0xa4, 0x32, 0x47, 0xbd,
  0x04, 0x38, 0xde, 0x3d, 0xbe, 0xfb, 0x10, 0xbd, 0xed, 0x33, 0x44, 0x3d,
  0x14, 0x7b, 0xad, 0xbd, 0xf8, 0x69, 0xc1, 0xbd, 0xfa, 0x28, 0x01, 0xbe,
  0x9c, 0xbc, 0xbb, 0xbd, 0x34, 0xc2, 0xbe, 0xbe, 0x32, 0x6b, 0x9d, 0x3e,
  0xd7, 0x57, 0x9f, 0x3e, 0x0b, 0xb3, 0xdb, 0x3e, 0xd9, 0x3e, 0x3f, 0x3d,
  0xd9, 0x3f, 0xf2, 0x3c, 0xe9, 0xf3, 0x05, 0x3e, 0xf8, 0x1c, 0x8a, 0xbd,
  0xd3, 0xea, 0x7b, 0x3d, 0x69, 0x25, 0xce, 0x3e, 0x65, 0x4e, 0xae, 0xbe,
  0xb9, 0x83, 0x7e, 0xbe, 0xd7, 0xde, 0x57, 0xbe, 0x1d, 0xd2, 0x62, 0x3e,
  0xbc, 0xc3, 0x7e, 0xbd, 0x44, 0xce, 0x98, 0xbd, 0x2e, 0x28, 0x4c, 0x3e,
  0x39, 0xf1, 0x65, 0x3e, 0xc9, 0x9c, 0x20, 0xbe, 0x85, 0x47, 0x11, 0x3f,
  0x54, 0xb1, 0xe4, 0x3d, 0xb4, 0x9e, 0xa3, 0xbc, 0x05, 0x3d, 0x19, 0x3d,
  0x35, 0x08, 0xee, 0x3c, 0xe8, 0xdf, 0x5c, 0xbd, 0x9c, 0xc8, 0xeb, 0xbe,
  0xd0, 0x7d, 0x00, 0xbc, 0x54, 0x28, 0x08, 0xbb, 0x13, 0xee, 0x14, 0x3e,
  0x73, 0xb5, 0xf4, 0x3c, 0xf4, 0x6e, 0xb2, 0xbd, 0x40, 0xeb, 0xab, 0x3d,
  0xa7, 0x57, 0x4f, 0xbe, 0x9e, 0x75, 0x93, 0x3d, 0xdf, 0xdc, 0x3b, 0xbd,
  0xe4, 0x7b, 0x9e, 0xbe, 0x41, 0xcf, 0x9e, 0xbe, 0xec, 0x78, 0x16, 0x3d,
  0xe1, 0xa6, 0x5c, 0x3c, 0x55, 0x2e, 0xd6, 0x3d, 0x23, 0x53, 0x00, 0xbe,
  0x69, 0x43, 0xb4, 0x3e, 0xfd, 0x44, 0x96, 0x3e, 0xfe, 0xdf, 0xff, 0xff,
  0x10, 0x00, 0x00, 0x00, 0x09, 0x00, 0x00, 0x00, 0x1c, 0x00, 0x00, 0x00,
  0x38, 0x00, 0x00, 0x00, 0x04, 0x00, 0x00, 0x00, 0x08, 0x00, 0x00, 0x00,
  0x04, 0x00, 0x00, 0x00, 0x03, 0x00, 0x00, 0x00, 0x01, 0x00, 0x00, 0x00,
  0x18, 0x00, 0x00, 0x00, 0x73, 0x65, 0x71, 0x75, 0x65, 0x6e, 0x74, 0x69,
  0x61, 0x6c, 0x2f, 0x63, 0x6f, 0x6e, 0x76, 0x32, 0x64, 0x2f, 0x43, 0x6f,
  0x6e, 0x76, 0x32, 0x44, 0x00, 0x00, 0x00, 0x00, 0x74, 0xdf, 0xff, 0xff,
  0x7e, 0xe0, 0xff, 0xff, 0x04, 0x00, 0x00, 0x00, 0xc0, 0x00, 0x00, 0x00,
  0xcb, 0x28, 0xa0, 0x3e, 0xef, 0xa8, 0x16, 0xbd, 0x0c, 0xcb, 0xe8, 0x3c,
  0xfe, 0xa3, 0x0b, 0xbf, 0x92, 0x9e, 0xba, 0x3e, 0xd9, 0x88, 0x9b, 0x3e,
  0x54, 0xb2, 0x4c, 0xbe, 0x80, 0x8f, 0xf3, 0xbd, 0xe2, 0x47, 0x22, 0x3e,
  0x74, 0x94, 0x77, 0xbe, 0x6b, 0x69, 0x6d, 0xbe, 0xd4, 0xf8, 0x9b, 0xbb,
  0xbe, 0x8b, 0x47, 0xbd, 0x43, 0xa6, 0xc0, 0x3e, 0xe6, 0xfb, 0x77, 0x3e,
  0x2e, 0xa4, 0xae, 0x3c, 0x00, 0x11, 0x91, 0x3e, 0x54, 0x09, 0xbf, 0xbd,
  0x58, 0xff, 0x66, 0x3d, 0xaa, 0x58, 0xcd, 0xbd, 0x20, 0xae, 0xf7, 0xbe,
  0x46, 0xf0, 0x8d, 0x3e, 0x5b, 0xa8, 0x36, 0xbe, 0x3a, 0xd8, 0x67, 0xbc,
  0xa3, 0x12, 0x42, 0x3e, 0x8e, 0x39, 0xf0, 0xbd, 0x7f, 0x09, 0xef, 0xbd,
  0x6d, 0x7d, 0x2e, 0xbe, 0xb2, 0x33, 0x0e, 0xbd, 0xba, 0x9d, 0xcd, 0x3e,
  0x5b, 0xd9, 0x46, 0x3e, 0xaa, 0xa8, 0x96, 0x3d, 0x2e, 0xdf, 0x7b, 0x3e,
  0xcf, 0x16, 0xf8, 0xbd, 0x9a, 0x45, 0x25, 0x3c, 0x73, 0xe7, 0xec, 0x3d,
  0xb6, 0x2e, 0x2c, 0xbe, 0x95, 0x41, 0x86, 0x3e, 0x20, 0xd7, 0x63, 0xbe,
  0x27, 0x7e, 0xc9, 0x3c, 0x07, 0x51, 0xc4, 0x3d, 0xa5, 0xf8, 0x6f, 0xbe,
  0x74, 0x7c, 0x30, 0xbe, 0x89, 0x8e, 0x83, 0x3d, 0x28, 0x65, 0x23, 0xbe,
  0x53, 0x46, 0xe5, 0x3e, 0x4c, 0x17, 0x3a, 0x3e, 0xc6, 0xda, 0x6c, 0x3d,
  0x16, 0xe1, 0xff, 0xff, 0x10, 0x00, 0x00, 0x00, 0x08, 0x00, 0x00, 0x00,
  0x14, 0x00, 0x00, 0x00, 0x30, 0x00, 0x00, 0x00, 0x02, 0x00, 0x00, 0x00,
  0x03, 0x00, 0x00, 0x00, 0x10, 0x00, 0x00, 0x00, 0x19, 0x00, 0x00, 0x00,
  0x73, 0x65, 0x71, 0x75, 0x65, 0x6e, 0x74, 0x69, 0x61, 0x6c, 0x2f, 0x64,
  0x65, 0x6e, 0x73, 0x65, 0x5f, 0x31, 0x2f, 0x4d, 0x61, 0x74, 0x4d, 0x75,
  0x6c, 0x00, 0x00, 0x00, 0x84, 0xe0, 0xff, 0xff, 0x8e, 0xe1, 0xff, 0xff,
  0x04, 0x00, 0x00, 0x00, 0x00, 0x1c, 0x00, 0x00, 0x99, 0x70, 0x60, 0x3e,
  0x4c, 0x4a, 0xb0, 0xbd, 0xd0, 0x14, 0x85, 0x3c, 0xba, 0xc7, 0x44, 0xbf,
  0x56, 0x13, 0x25, 0xbe, 0x35, 0x83, 0xaf, 0xbe, 0x22, 0x44, 0x8e, 0xbe,
  0xf4, 0xb6, 0xb2, 0xbb, 0xb6, 0xda, 0xce, 0xbe, 0x0b, 0x56, 0x47, 0xbd,
  0xdf, 0x50, 0x73, 0x3b, 0x2f, 0x02, 0x7e, 0x3e, 0xc0, 0xb4, 0x1e, 0x3e,
  0x07, 0xd7, 0x9a, 0xbd, 0x29, 0x3d, 0x8e, 0x3e, 0xf0, 0xa9, 0x88, 0xbb,
  0x27, 0x63, 0x3e, 0x3e, 0x0d, 0xb9, 0x85, 0x3e, 0x3c, 0x96, 0xc1, 0xbd,
  0xc7, 0x04, 0x22, 0xbf, 0x0a, 0x9d, 0xd1, 0xbd, 0xca, 0x2e, 0x25, 0x3f,
  0x9b, 0x53, 0x0a, 0x3e, 0x18, 0x89, 0x6a, 0xbd, 0x91, 0x09, 0xe9, 0xbe,
  0xd9, 0x46, 0x88, 0xbd, 0x78, 0x2c, 0xc7, 0x3d, 0x9c, 0x2d, 0x2c, 0x3e,
  0xfc, 0xe5, 0x30, 0xbd, 0x00, 0xd0, 0x81, 0xbe, 0xd2, 0x66, 0x9f, 0xbd,
  0x84, 0x15, 0x29, 0xbe, 0xba, 0x84, 0x5f, 0x3e, 0x01, 0xda, 0x2d, 0xbd,
  0x38, 0x67, 0x86, 0xbd, 0xc8, 0x39, 0xaa, 0xbe, 0xbc, 0x79, 0xa8, 0x3e,
  0x3a, 0xae, 0x96, 0x3e, 0xcc, 0x54, 0x71, 0x3e, 0x5a, 0xb9, 0x8c, 0xbd,
  0xc9, 0xda, 0x47, 0xbe, 0xff, 0xa5, 0x8f, 0xbd, 0x10, 0x16, 0x64, 0x3e,
  0xda, 0x47, 0xe4, 0x3e, 0x50, 0xa8, 0xef, 0xbd, 0xf9, 0x67, 0xae, 0xbd,
  0xc1, 0x8d, 0xb0, 0x3c, 0x0e, 0x14, 0xbe, 0x3d, 0xc8, 0x66, 0x49, 0x3e,
  0xba, 0x77, 0x24, 0xbe, 0x9e, 0xd5, 0x13, 0xbe, 0x33, 0x53, 0xad, 0xbe,
  0xf0, 0x8f, 0x49, 0x3e, 0x4d, 0x5c, 0x27, 0x3e, 0x18, 0xdc, 0x85, 0x3e,
  0xec, 0xd4, 0x9b, 0xbc, 0x00, 0x2d, 0x99, 0xbe, 0x61, 0x04, 0x33, 0x3d,
  0x58, 0x48, 0x9d, 0x3e, 0x89, 0xab, 0xe2, 0x3e, 0x16, 0x9d, 0x0f, 0xbd,
  0x25, 0x0d, 0xfc, 0xbd, 0xde, 0xf5, 0xdd, 0xbd, 0x0c, 0x67, 0x84, 0xbd,
  0xc6, 0xc8, 0xa4, 0x3d, 0xe5, 0x0c, 0x32, 0xbe, 0x7c, 0xc8, 0xe0, 0x3c,
  0x2f, 0x32, 0x1f, 0xbf, 0xd1, 0xa7, 0xe4, 0xbd, 0x7c, 0xc7, 0x06, 0xbf,
  0x3b, 0x01, 0x8b, 0xbe, 0xf5, 0xcc, 0x86, 0x3c, 0xc2, 0xf0, 0x03, 0xbf,
  0xf2, 0xf7, 0x8d, 0xbd, 0xad, 0x5f, 0x3f, 0x3e, 0x43, 0x7b, 0xd4, 0x3e,
  0x10, 0x01, 0xb1, 0xbd, 0x69, 0x21, 0xf6, 0xbd, 0xb8, 0x6c, 0x60, 0xbe,
  0x16, 0x5c, 0xe1, 0xbe, 0x34, 0xe0, 0x98, 0x3d, 0x8f, 0x1e, 0xf1, 0xbe,
  0x96, 0x0a, 0xc9, 0x3b, 0x77, 0xca, 0xc2, 0xbe, 0x2f, 0x8b, 0xca, 0xbe,
  0x74, 0x24, 0xee, 0xbc, 0x29, 0x89, 0xad, 0xbe, 0xd7, 0xa6, 0x12, 0xbc,
  0xcd, 0x96, 0xc5, 0xbe, 0xe6, 0x74, 0x85, 0xbd, 0xba, 0x0c, 0x29, 0x3e,
  0x59, 0x33, 0x90, 0x3e, 0x57, 0xa7, 0xf9, 0x3d, 0x49, 0x97, 0xa6, 0x3d,
  0x83, 0x46, 0x15, 0xbd, 0x90, 0x9b, 0x07, 0xbb, 0x39, 0xf9, 0x63, 0x3d,
  0xe2, 0x48, 0x6b, 0xbe, 0x88, 0x09, 0x03, 0xbd, 0x56, 0x6b, 0x45, 0xbe,
  0x4c, 0x9a, 0x90, 0xbe, 0x97, 0xee, 0x25, 0xbe, 0x32, 0x50, 0xf7, 0xbd,
  0x41, 0x67, 0xac, 0xbd, 0x9d, 0x59, 0x36, 0xbe, 0x3d, 0x8e, 0x25, 0x3d,
  0x5c, 0x15, 0x77, 0x3e, 0xc5, 0x22, 0x96, 0x3d, 0x3d, 0x02, 0x7a, 0x3e,
  0xd3, 0x90, 0x2d, 0xbe, 0xd5, 0xbc, 0x15, 0x3e, 0x02, 0x23, 0xa0, 0xbc,
  0xb2, 0xa9, 0x4c, 0xbe, 0x85, 0x24, 0x3b, 0xbe, 0xd0, 0xfd, 0x68, 0xbd,
  0x34, 0x79, 0xc0, 0xbe, 0x90, 0x29, 0xea, 0xbd, 0xf2, 0x67, 0xe5, 0xbc,
  0x70, 0x30, 0x0c, 0xbf, 0x1d, 0xc4, 0x26, 0xbc, 0xb3, 0x47, 0x4f, 0xbe,
  0xe5, 0xeb, 0xc8, 0xbd, 0xad, 0x77, 0x24, 0xbe, 0x9d, 0x52, 0x1d, 0xbe,
  0xc0, 0x5d, 0x63, 0xbe, 0x5e, 0xe2, 0x31, 0xbe, 0xb9, 0x5d, 0xcd, 0xbe,
  0x72, 0xc4, 0x02, 0xbd, 0x65, 0x5b, 0xd0, 0xbe, 0x33, 0x87, 0x99, 0xbe,
  0x26, 0x8a, 0x9b, 0xbc, 0x45, 0xd4, 0x2a, 0xbe, 0x9e, 0x3d, 0x7b, 0xbd,
  0xc8, 0x8b, 0xf5, 0x3d, 0x44, 0x50, 0x13, 0xbe, 0xf1, 0xf6, 0xaa, 0xbc,
  0xfa, 0xa5, 0x7f, 0xbe, 0x94, 0x3e, 0x6a, 0xbd, 0xa6, 0x2b, 0x51, 0xbe,
  0xfd, 0x20, 0x04, 0xbd, 0x19, 0x6f, 0x8a, 0xbe, 0xc4, 0xbc, 0xeb, 0x3d,
  0x95, 0x2c, 0xae, 0xbe, 0x2f, 0xdf, 0xb5, 0xbd, 0x4b, 0x60, 0x82, 0xbe,
  0xc8, 0xa7, 0x0f, 0xbe, 0x80, 0xfb, 0x9a, 0x3d, 0x8a, 0x6c, 0x4f, 0xbe,
  0x09, 0x61, 0xd0, 0x3a, 0x28, 0xcf, 0xfb, 0x3d, 0x95, 0xc6, 0x3d, 0xbe,
  0xf4, 0x68, 0x1c, 0x3d, 0x66, 0x92, 0xcc, 0xbd, 0xdb, 0x34, 0xa8, 0xbd,
  0x1b, 0x51, 0x33, 0x3c, 0xbd, 0x03, 0x88, 0xbc, 0x1c, 0x03, 0x06, 0xbe,
  0xf6, 0x1a, 0xfe, 0xbd, 0x7e, 0x76, 0xe9, 0xbe, 0x1f, 0x67, 0xe3, 0xbd,
  0x78, 0xcf, 0xbf, 0xbd, 0x9f, 0xb9, 0x22, 0xbe, 0x87, 0x8e, 0x07, 0x3d,
  0x17, 0x0b, 0x9a, 0xbb, 0xa9, 0x80, 0xa4, 0x3d, 0x95, 0xd8, 0x31, 0xbe,
  0x99, 0x21, 0x8c, 0xbd, 0x9d, 0xa6, 0xc5, 0x3c, 0x13, 0x14, 0x07, 0x3d,
  0x18, 0x2b, 0x84, 0xbd, 0x7f, 0x00, 0x50, 0x3e, 0x1e, 0x2f, 0x69, 0xbe,
  0xa5, 0xa2, 0xbf, 0x3c, 0xd6, 0x55, 0x9b, 0xbd, 0x95, 0xc6, 0x18, 0xbe,
  0x07, 0x19, 0x58, 0xbe, 0x16, 0xb1, 0x3a, 0x3e, 0xe1, 0x38, 0x2d, 0xbe,
  0xc6, 0x30, 0xad, 0x3d, 0x5e, 0x43, 0xa8, 0xbd, 0x73, 0x12, 0xad, 0xbd,
  0xd6, 0x3a, 0x92, 0xbe, 0x0e, 0x5b, 0x32, 0xbe, 0xcc, 0x79, 0x47, 0xbd,
  0x5c, 0x42, 0x51, 0xbe, 0x8c, 0xbf, 0xed, 0x3b, 0x69, 0x72, 0x70, 0x3a,
  0x33, 0x1c, 0xa2, 0x3d, 0x6c, 0x33, 0x58, 0x3d, 0xd9, 0xc4, 0xaf, 0xbd,
  0x48, 0xb6, 0x80, 0x3e, 0xbf, 0x3a, 0x79, 0xbe, 0xad, 0x2e, 0x01, 0x3b,
  0x10, 0x17, 0xb6, 0xbd, 0x20, 0xad, 0xea, 0x3d, 0x68, 0x16, 0x9e, 0xbd,
  0x4b, 0x7e, 0x5e, 0xbe, 0x68, 0x79, 0xb4, 0x3d, 0x29, 0x28, 0x86, 0xbe,
  0x8a, 0xd3, 0xd5, 0xbc, 0x40, 0x2b, 0x70, 0xbe, 0x55, 0x6d, 0x9c, 0xbd,
  0x17, 0xa2, 0xd4, 0x3d, 0x2f, 0x4f, 0xb2, 0x3e, 0x8a, 0x0b, 0x18, 0x3e,
  0x88, 0xbe, 0x9a, 0xbd, 0x32, 0xb1, 0xf9, 0x3e, 0xce, 0xf5, 0xb0, 0x3d,
  0xae, 0xa4, 0x8c, 0x3c, 0x4f, 0x78, 0x1c, 0xbe, 0x53, 0x93, 0x4f, 0x3e,
  0x11, 0xd4, 0xa4, 0xbe, 0x64, 0x8d, 0x08, 0xbe, 0x52, 0xbd, 0x94, 0xbd,
  0x46, 0x0d, 0x2c, 0x3d, 0xdf, 0x6d, 0x7f, 0xbe, 0x46, 0xaa, 0x22, 0xbc,
  0xfc, 0xdf, 0xc0, 0xbc, 0x4e, 0xdb, 0xe3, 0x3d, 0x35, 0x57, 0x25, 0x3e,
  0xa5, 0x27, 0x74, 0x3e, 0xb8, 0x39, 0xc2, 0xbd, 0x43, 0x90, 0xf1, 0x3c,
  0x86, 0x6b, 0x67, 0xbe, 0xf9, 0x19, 0x08, 0xbe, 0x8b, 0x3d, 0x60, 0x3e,
  0xa0, 0xff, 0x85, 0xbe, 0xed, 0x91, 0x9b, 0xbe, 0x28, 0xc1, 0x96, 0x3e,
  0x8f, 0x77, 0x15, 0xbe, 0xb2, 0xb6, 0x88, 0x3e, 0xf4, 0x90, 0x8d, 0xbe,
  0x8e, 0xb4, 0x59, 0x3e, 0x7d, 0x8e, 0xfd, 0x3c, 0x7f, 0xf0, 0xa4, 0x3d,
  0x34, 0xfd, 0x49, 0x3d, 0xcf, 0x70, 0xb5, 0xbd, 0xe3, 0x05, 0xdf, 0xbd,
  0x2a, 0x8c, 0xa9, 0xbd, 0x47, 0x84, 0x36, 0x3d, 0x56, 0x8b, 0xaf, 0xbd,
  0xf3, 0xb1, 0x41, 0xbe, 0x22, 0x8c, 0x30, 0x3e, 0xd9, 0xe0, 0x92, 0xbd,
  0xe2, 0x41, 0x24, 0xbd, 0x89, 0xb8, 0x8b, 0xbe, 0x3a, 0x13, 0x88, 0xbc,
  0x29, 0x08, 0x08, 0x3e, 0xed, 0x24, 0xa3, 0xbe, 0x4d, 0x52, 0xa5, 0xbb,
  0x04, 0x85, 0xde, 0xbd, 0x45, 0x05, 0x22, 0x3d, 0x82, 0xcf, 0xb5, 0x3d,
  0x85, 0x61, 0xdb, 0xbb, 0xd5, 0x9b, 0x39, 0x3e, 0x65, 0xcb, 0x2c, 0x3e,
  0x39, 0xbc, 0x48, 0xbe, 0xe9, 0xba, 0x36, 0xbe, 0x71, 0x14, 0xce, 0x3d,
  0x1c, 0x1d, 0x0a, 0x3e, 0x14, 0x5c, 0x01, 0xbe, 0xf1, 0xb8, 0x2c, 0xbe,
  0x9c, 0x7a, 0xcb, 0xbe, 0x2f, 0xd5, 0x3d, 0x3e, 0xf6, 0x7e, 0x00, 0xbf,
  0xdb, 0x28, 0x02, 0xbe, 0xe1, 0x86, 0x1e, 0xbf, 0xb5, 0x48, 0xe7, 0xbe,
  0xfd, 0x93, 0x5e, 0x3d, 0xd2, 0xeb, 0xe2, 0x3d, 0x8b, 0xdd, 0x55, 0x3e,
  0xa6, 0x2b, 0x93, 0xbd, 0x03, 0xba, 0xa8, 0xbe, 0x95, 0xfd, 0x27, 0xbd,
  0xe8, 0xf8, 0x05, 0xbd, 0xa7, 0xc6, 0x80, 0x3c, 0xb8, 0x18, 0x2a, 0x3d,
  0x1c, 0x61, 0x59, 0xbe, 0x63, 0xfc, 0x70, 0xbe, 0x76, 0xc1, 0x09, 0x3c,
  0x83, 0x05, 0x15, 0xbe, 0xd6, 0x57, 0x13, 0xbe, 0x7e, 0x5a, 0xf8, 0xbe,
  0x3f, 0xe2, 0xe0, 0xbe, 0x85, 0x3b, 0x9c, 0x3c, 0x65, 0x16, 0x06, 0xbe,
  0xce, 0x69, 0x97, 0xbd, 0xce, 0x5c, 0x58, 0x3d, 0x13, 0x6d, 0xed, 0xbd,
  0x2e, 0x39, 0x98, 0xbd, 0xde, 0xd0, 0x01, 0x3e, 0x4c, 0x30, 0x65, 0x3e,
  0x31, 0xcd, 0x2c, 0x3d, 0xf7, 0x80, 0xaa, 0xbd, 0x2e, 0xb7, 0x08, 0x3d,
  0xbe, 0x61, 0x15, 0x3b, 0x19, 0x22, 0xad, 0xbe, 0x70, 0x36, 0xac, 0xbd,
  0x49, 0x41, 0x4b, 0xbe, 0x0c, 0x87, 0xc1, 0xbc, 0x86, 0xc4, 0xe6, 0x3d,
  0x31, 0xd7, 0x20, 0x3c, 0xbe, 0x0f, 0x6b, 0xbb, 0xbf, 0xe2, 0x53, 0x3e,
  0xba, 0x68, 0x0f, 0xbe, 0x51, 0xe7, 0x15, 0xbe, 0xa7, 0x83, 0xb5, 0xbd,
  0x23, 0x82, 0x7d, 0x3e, 0x95, 0xc7, 0x60, 0x3d, 0xd5, 0x42, 0x2b, 0xbe,
  0xee, 0x0b, 0xd7, 0xbd, 0x5d, 0x52, 0x24, 0xbc, 0xfc, 0x90, 0x18, 0xbe,
  0x16, 0x53, 0xba, 0xbd, 0xf5, 0x09, 0x65, 0xbe, 0x93, 0xf5, 0x95, 0x3c,
  0x11, 0xed, 0xb0, 0x3c, 0x66, 0x36, 0xad, 0xbd, 0x59, 0xa4, 0x00, 0x3d,
  0x40, 0x07, 0x06, 0xbd, 0x0f, 0x67, 0x3c, 0xbd, 0x20, 0x8a, 0x2d, 0x3e,
  0x59, 0x4d, 0x8a, 0xbd, 0x54, 0xac, 0x0f, 0xbe, 0x4e, 0xc3, 0x88, 0x3d,
  0x11, 0x12, 0x62, 0xbd, 0x3a, 0x71, 0x4b, 0xbe, 0x5e, 0x19, 0xa3, 0xbc,
  0xac, 0xf7, 0x96, 0xbe, 0x99, 0xa3, 0x0a, 0xbe, 0xc8, 0xba, 0x85, 0xbe,
  0x25, 0xe6, 0xbd, 0x3d, 0x87, 0x1e, 0xdf, 0x3c, 0xbf, 0x4f, 0xa4, 0xbe,
  0x0a, 0xcb, 0x92, 0xbd, 0x06, 0xa6, 0xe7, 0xbd, 0x82, 0x3d, 0x20, 0xbe,
  0x7d, 0x42, 0xf5, 0xbd, 0x18, 0xb7, 0xa2, 0xbd, 0xe7, 0xe6, 0x70, 0x3e,
  0x90, 0xba, 0x92, 0x3c, 0xc9, 0x81, 0x9e, 0x3d, 0x80, 0xce, 0x14, 0xbe,
  0x18, 0x24, 0x1a, 0xbe, 0xcb, 0x18, 0x58, 0xbc, 0x09, 0x7c, 0x15, 0xbe,
  0x69, 0x89, 0x89, 0xbd, 0xfc, 0x52, 0xd4, 0xbc, 0x85, 0x43, 0x74, 0xbd,
  0xef, 0xc9, 0x33, 0xbe, 0x78, 0x73, 0xfe, 0xbd, 0x57, 0xaa, 0x47, 0xbe,
  0x63, 0xff, 0xf9, 0xbd, 0x7f, 0x3f, 0xbf, 0x3c, 0xbc, 0xba, 0x4a, 0x3e,
  0xa2, 0xbf, 0x7f, 0xbd, 0x9f, 0x05, 0x9c, 0x3b, 0xfa, 0x0a, 0xfd, 0xbd,
  0x1e, 0xec, 0x19, 0xbe, 0x9e, 0x3e, 0x45, 0xbe, 0xca, 0x06, 0xde, 0x3d,
  0xea, 0xd7, 0x69, 0xbe, 0xeb, 0xc2, 0x87, 0xbd, 0x81, 0x4e, 0x86, 0xbd,
  0x1d, 0x9a, 0x01, 0xbe, 0x60, 0x0c, 0x1e, 0x3d, 0x6d, 0x11, 0x5f, 0x3d,
  0x7a, 0x50, 0x24, 0x3e, 0xbd, 0xdd, 0x7e, 0x3c, 0xa8, 0x15, 0x83, 0x3e,
  0x4b, 0xd9, 0x1a, 0xbe, 0x4f, 0xb3, 0x7d, 0x3e, 0x40, 0x02, 0xa8, 0xbd,
  0x3e, 0x18, 0x5b, 0x3d, 0x26, 0xa9, 0x5b, 0xbe, 0x44, 0x71, 0xbc, 0x3d,
  0x8c, 0x7a, 0x01, 0xbe, 0x74, 0x3d, 0xaa, 0x3d, 0xcb, 0x86, 0x14, 0xbd,
  0x2a, 0x16, 0xff, 0x3b, 0x9e, 0xd3, 0x07, 0x3d, 0xe6, 0x6e, 0x0b, 0x3e,
  0x34, 0xed, 0x08, 0xbd, 0xbd, 0x16, 0xb2, 0xbd, 0x50, 0x85, 0x23, 0x3d,
  0xc6, 0xe8, 0xc3, 0x3c, 0x98, 0x0f, 0x4e, 0xbe, 0x4f, 0xe4, 0xf7, 0xbd,
  0x15, 0xda, 0xbc, 0xbd, 0x6c, 0x7f, 0xc2, 0xbc, 0xa7, 0x28, 0xa3, 0x3d,
  0x67, 0xe9, 0x3c, 0xbe, 0x25, 0x10, 0x11, 0x3e, 0x06, 0xd7, 0x9c, 0xbe,
  0xb5, 0x0d, 0x88, 0x3d, 0x4f, 0x52, 0x05, 0xbe, 0xda, 0x6b, 0x94, 0xbd,
  0xe9, 0xa7, 0x4e, 0xbd, 0xd7, 0x77, 0x44, 0xbb, 0xab, 0xbe, 0x2e, 0xbe,
  0x73, 0x07, 0x1e, 0xbd, 0x44, 0x7e, 0x46, 0x3d, 0x86, 0x6a, 0x33, 0x3e,
  0x3f, 0xbf, 0xe2, 0xbd, 0xbd, 0xc7, 0x6c, 0xbd, 0xd8, 0x9f, 0xbc, 0x3d,
  0xa9, 0x0d, 0x56, 0xbe, 0xdd, 0x4c, 0xf7, 0xbc, 0x5a, 0xe8, 0xb4, 0xbd,
  0x32, 0xd0, 0xed, 0x3d, 0xb6, 0xc8, 0xa2, 0x3d, 0xd9, 0x65, 0x45, 0xbe,
  0xec, 0xc2, 0x80, 0xbe, 0x37, 0x7e, 0x5f, 0xbd, 0xd9, 0xb1, 0x5b, 0x3a,
  0x8a, 0x8a, 0x14, 0x3e, 0x8b, 0x06, 0x51, 0xbe, 0x2c, 0x66, 0x20, 0xbd,
  0x98, 0x43, 0x0d, 0xbe, 0xc8, 0x4a, 0x2b, 0x3e, 0xc8, 0xed, 0x24, 0xbe,
  0x85, 0x28, 0x54, 0x3e, 0x89, 0xec, 0x17, 0xbd, 0xc1, 0x65, 0x2f, 0xbe,
  0x0c, 0x8f, 0x83, 0xbe, 0x98, 0x90, 0x2a, 0xbd, 0x50, 0xe2, 0x1d, 0xbe,
  0x76, 0x2e, 0x1f, 0xbe, 0x16, 0xcc, 0xc7, 0xbd, 0xeb, 0x8f, 0x13, 0xbd,
  0xf7, 0xa2, 0x28, 0xbe, 0xa6, 0x52, 0xab, 0xbd, 0x24, 0x1a, 0x2c, 0xbe,
  0x3c, 0xed, 0x60, 0xba, 0x50, 0xad, 0x1e, 0xbe, 0x6f, 0x13, 0x39, 0x3e,
  0x72, 0x0f, 0xff, 0xbd, 0x82, 0x18, 0x39, 0xbc, 0xdc, 0xd3, 0x2c, 0xbe,
  0x41, 0x00, 0xc3, 0x3d, 0x5b, 0xb2, 0xac, 0xbd, 0x98, 0xd2, 0x36, 0xbe,
  0x2a, 0x31, 0xc9, 0x3d, 0xed, 0xc3, 0xc6, 0xbd, 0xd4, 0x82, 0x18, 0x3d,
  0x6c, 0x72, 0xe3, 0xbc, 0x0d, 0x9b, 0x3b, 0xbd, 0xe5, 0x97, 0x91, 0x3c,
  0xa6, 0xa1, 0x43, 0x3d, 0xc2, 0xd2, 0x4a, 0xbe, 0xb3, 0xe2, 0x31, 0xbe,
  0xc0, 0xf1, 0xc1, 0x3c, 0x7d, 0xf7, 0xc3, 0xbd, 0x0f, 0x57, 0x05, 0x3f,
  0x78, 0x1a, 0x8a, 0xbe, 0x9c, 0xe3, 0x11, 0xbe, 0x72, 0xb3, 0xc5, 0xbb,
  0x0c, 0x11, 0x75, 0xbe, 0x0b, 0xfa, 0xa6, 0x3c, 0xae, 0x55, 0x05, 0xbd,
  0xde, 0xa3, 0x4d, 0xbe, 0x6d, 0xc1, 0xd3, 0x3f, 0x4b, 0x7c, 0xb0, 0xbd,
  0xc0, 0x66, 0xa9, 0xbe, 0x34, 0x08, 0x87, 0x3d, 0xbd, 0x9b, 0x57, 0xbe,
  0xc6, 0x5d, 0x12, 0x3e, 0x6c, 0x20, 0x9b, 0xbd, 0xb6, 0x2d, 0xb5, 0xbd,
  0x0c, 0xaa, 0x1c, 0x3e, 0x6f, 0x78, 0x8c, 0xbe, 0x03, 0x10, 0xa6, 0xbd,
  0x78, 0x60, 0xc5, 0x3c, 0xbb, 0xd7, 0x84, 0xbd, 0x7d, 0xb3, 0xb5, 0xbc,
  0x9c, 0xe9, 0x33, 0xbe, 0x03, 0x9d, 0x84, 0xbe, 0x51, 0xbf, 0xec, 0x3f,
  0xa0, 0x50, 0xdb, 0xbd, 0x6b, 0x8b, 0x82, 0xbd, 0x8e, 0xbd, 0x9f, 0x3d,
  0x09, 0xe5, 0x43, 0xbe, 0x87, 0xa0, 0x13, 0x3d, 0x57, 0x31, 0x05, 0x3e,
  0xf1, 0x02, 0x94, 0xbd, 0xd7, 0xcd, 0x47, 0xbe, 0x65, 0x50, 0x22, 0xbe,
  0xea, 0x5e, 0x96, 0x3c, 0x9d, 0xbb, 0x38, 0x3d, 0xc6, 0x2a, 0x62, 0xbd,
  0xe2, 0xd5, 0x46, 0xbe, 0x68, 0x93, 0xe8, 0x3c, 0x86, 0xc5, 0x56, 0xbe,
  0xbf, 0xed, 0xaf, 0x3f, 0x4a, 0x94, 0x87, 0x3d, 0x91, 0x82, 0x5e, 0xbe,
  0x38, 0x9f, 0xd6, 0xbd, 0x0b, 0x97, 0x9f, 0xbc, 0xd0, 0xc3, 0x75, 0xbd,
  0x22, 0x24, 0x6d, 0xbe, 0x7e, 0x84, 0x76, 0x3e, 0xa7, 0x55, 0x21, 0x3e,
  0x82, 0xaa, 0x1c, 0x3d, 0x16, 0xc3, 0x37, 0xbe, 0x92, 0x9c, 0xf1, 0x3d,
  0x9b, 0x6e, 0x64, 0xbe, 0x96, 0x8f, 0x47, 0xbe, 0xd3, 0xda, 0x80, 0xbe,
  0xa8, 0xeb, 0xc4, 0xbd, 0x83, 0x10, 0x65, 0x3f, 0xf7, 0x08, 0xeb, 0x3d,
  0x1a, 0xf2, 0x82, 0xbe, 0x98, 0x8c, 0xca, 0xbd, 0x5f, 0x78, 0x32, 0xbe,
  0xf5, 0x0d, 0x6d, 0x3d, 0x06, 0xb0, 0x1f, 0xbd, 0xe7, 0x3f, 0xbd, 0xbd,
  0x6d, 0xdf, 0xa9, 0xbc, 0x95, 0x6c, 0x90, 0xbe, 0xd0, 0x59, 0x1d, 0xbe,
  0x2c, 0x89, 0x7e, 0xbe, 0xcf, 0x19, 0x8e, 0xbe, 0xf2, 0x97, 0xd6, 0xbd,
  0xcd, 0x19, 0x08, 0x3d, 0x99, 0x1b, 0x87, 0xbe, 0x6c, 0x7a, 0xc1, 0x3f,
  0xa1, 0xe9, 0xbf, 0xbd, 0x9f, 0x3f, 0xa1, 0xbd, 0x30, 0x39, 0xf9, 0x3d,
  0xaf, 0x66, 0xf5, 0xbb, 0xaa, 0x62, 0xc7, 0x3d, 0xb0, 0x45, 0xe5, 0x3d,
  0x36, 0xba, 0x76, 0x3d, 0x7f, 0x3e, 0x18, 0x3d, 0xa0, 0x6e, 0x7e, 0xbe,
  0x74, 0x55, 0xda, 0xbd, 0x94, 0x1b, 0xf4, 0xbc, 0x6b, 0x42, 0x0a, 0xbe,
  0xe0, 0xd7, 0x86, 0x3d, 0x29, 0x6b, 0x52, 0xbe, 0xec, 0x95, 0xcf, 0x3c,
  0x2d, 0xff, 0xd7, 0x3f, 0xa0, 0xd4, 0x03, 0xbe, 0x04, 0xc0, 0xc6, 0xbd,
  0xc1, 0xff, 0xad, 0xbe, 0xa5, 0x85, 0x99, 0xbe, 0x66, 0x09, 0x53, 0xbe,
  0xb8, 0x3c, 0x68, 0xbe, 0x58, 0xd8, 0xa1, 0xbd, 0x28, 0x42, 0x93, 0x3b,
  0x6b, 0x31, 0x91, 0xbe, 0x55, 0x59, 0xc9, 0xbd, 0x6c, 0x29, 0xb0, 0x3c,
  0x2d, 0xee, 0x8a, 0xbe, 0x1c, 0xea, 0x2b, 0xbd, 0x9d, 0x7c, 0x87, 0xbe,
  0x83, 0x06, 0x1f, 0xbe, 0x6b, 0x83, 0x9d, 0x3f, 0x93, 0x65, 0x20, 0xbe,
  0xbf, 0xb1, 0x8b, 0xbd, 0xcc, 0x8e, 0x98, 0x3d, 0xc7, 0xaa, 0x2a, 0xbe,
  0x1d, 0xc3, 0x0c, 0x3d, 0x55, 0x69, 0x0c, 0xbe, 0xef, 0xec, 0x4d, 0xbe,
  0x14, 0x72, 0xc4, 0x3e, 0x04, 0xa4, 0x99, 0xbe, 0x59, 0x15, 0x2f, 0xbb,
  0x8b, 0x5b, 0xbd, 0xbe, 0x01, 0x2d, 0x4c, 0xbe, 0xde, 0xdd, 0x80, 0xbb,
  0xb5, 0x05, 0x1c, 0x3e, 0xcd, 0x0b, 0x72, 0xbd, 0x4f, 0x6e, 0x8d, 0x3f,
  0x32, 0xc6, 0x6b, 0x3e, 0xe0, 0xa7, 0x26, 0xbe, 0x75, 0x26, 0x3a, 0x3e,
  0x09, 0x2c, 0x80, 0xbd, 0x9c, 0xaf, 0x34, 0x3e, 0x3d, 0x1e, 0x7d, 0xbe,
  0x46, 0xce, 0x94, 0x3d, 0x46, 0xbd, 0xe6, 0x3d, 0x54, 0x26, 0xb5, 0xbc,
  0xd0, 0xdb, 0x74, 0x3c, 0x3f, 0x15, 0x63, 0xbe, 0xc6, 0x01, 0x0a, 0xbe,
  0x1d, 0xb1, 0x61, 0x3e, 0x46, 0xd1, 0x76, 0x3d, 0x9c, 0xab, 0x4f, 0x3d,
  0x40, 0x84, 0xac, 0x3f, 0x19, 0x7f, 0x19, 0x3e, 0x89, 0xc8, 0xb5, 0x3b,
  0x30, 0x85, 0x8b, 0x3b, 0xc3, 0xa1, 0x2f, 0xbe, 0xfe, 0x91, 0x7c, 0xbd,
  0x82, 0xca, 0x63, 0xbe, 0x0f, 0xf9, 0x7e, 0x3e, 0xc4, 0x74, 0xc3, 0x3d,
  0x29, 0x2c, 0x2f, 0x3e, 0xe5, 0xcf, 0x94, 0x3c, 0x99, 0xe2, 0x93, 0x3b,
  0x70, 0xf2, 0x51, 0x3c, 0xb3, 0xa5, 0xb1, 0x3e, 0x35, 0x7b, 0x81, 0x3e,
  0x69, 0x06, 0x0e, 0xbe, 0xfd, 0x2e, 0xb4, 0x3f, 0x3b, 0xcb, 0x23, 0xbe,
  0xbe, 0xf9, 0xce, 0x3b, 0x14, 0x53, 0xa0, 0x3e, 0xc6, 0xc9, 0xce, 0x3c,
  0xdf, 0x18, 0x44, 0xbe, 0xb3, 0x1f, 0x54, 0xbe, 0x5b, 0xdd, 0x6d, 0x3e,
  0x0c, 0xf1, 0x00, 0xbe, 0x74, 0x48, 0x4e, 0xbe, 0x7f, 0x6f, 0x65, 0xbd,
  0x7e, 0xef, 0x18, 0xbe, 0x20, 0x61, 0x3d, 0xbc, 0xa7, 0x94, 0xc3, 0x3e,
  0xe4, 0x9a, 0x55, 0x3e, 0x6a, 0x87, 0x53, 0x3e, 0x82, 0x4f, 0xb0, 0x3f,
  0xd3, 0x79, 0x60, 0x3e, 0xfb, 0xe3, 0xf9, 0x3c, 0xc1, 0xa2, 0xb9, 0x3e,
  0xd8, 0xb1, 0x39, 0x3d, 0x87, 0x59, 0x3b, 0x3e, 0xea, 0xf5, 0x49, 0x3d,
  0x08, 0xe3, 0x2c, 0xbd, 0x0c, 0x2c, 0x2f, 0x3e, 0x9d, 0x54, 0x36, 0x3c,
  0x1a, 0x53, 0x1a, 0xbe, 0x92, 0xc1, 0x01, 0xbe, 0x63, 0x28, 0x49, 0x3d,
  0xa8, 0xa6, 0x06, 0xbe, 0x0a, 0x08, 0x9c, 0x3e, 0x1f, 0x90, 0x4a, 0x3e,
  0x2c, 0x54, 0x6a, 0x3f, 0x34, 0x1c, 0xa5, 0x3e, 0xc9, 0xab, 0x9d, 0xbe,
  0xae, 0x50, 0x7a, 0x3e, 0x34, 0xba, 0x9c, 0xbc, 0x50, 0xcb, 0xfd, 0x3d,
  0x0a, 0x3c, 0x4c, 0xbe, 0x44, 0xa8, 0x88, 0x3d, 0x4b, 0xb0, 0x6e, 0x3d,
  0x6c, 0xad, 0x21, 0xbd, 0xe6, 0xf0, 0x07, 0xbe, 0x4b, 0xb5, 0x44, 0xbe,
  0x5a, 0x34, 0xbf, 0xbd, 0xbc, 0x14, 0x1c, 0x3e, 0x2f, 0x24, 0x64, 0x3e,
  0x28, 0xa7, 0x67, 0xbe, 0x28, 0x1c, 0x96, 0x3f, 0x17, 0x68, 0x0c, 0x3e,
  0x2e, 0xff, 0x5a, 0xbe, 0x13, 0x1f, 0x21, 0xbd, 0x72, 0x26, 0x89, 0xbe,
  0x45, 0x6c, 0x5c, 0x3e, 0x00, 0x79, 0x2a, 0x3e, 0x67, 0x4e, 0x30, 0xbd,
  0x8a, 0x6d, 0x89, 0xbd, 0x15, 0x1a, 0x01, 0xbd, 0xf9, 0x2f, 0xe8, 0xbb,
  0x56, 0x0a, 0xec, 0xbd, 0x9f, 0x07, 0x55, 0xbd, 0x9c, 0xc2, 0x0f, 0x3e,
  0x64, 0xbe, 0x08, 0xbe, 0x8f, 0xff, 0x21, 0xbe, 0x20, 0x37, 0x8a, 0x3f,
  0xe7, 0xda, 0x7f, 0xbe, 0xff, 0x97, 0x81, 0x3d, 0xc7, 0xa2, 0xd8, 0xbb,
  0xe9, 0x7d, 0x9e, 0x3e, 0xa9, 0x15, 0x11, 0x3e, 0x28, 0x0d, 0x4f, 0xbe,
  0x6d, 0xb7, 0x50, 0x3e, 0x25, 0xb8, 0xa6, 0x3d, 0xc9, 0x67, 0x2c, 0x3e,
  0x42, 0x38, 0x43, 0xbe, 0x44, 0xc2, 0x83, 0x3d, 0xb4, 0x5d, 0x94, 0x3d,
  0x67, 0xbd, 0xdf, 0x3d, 0x3e, 0x0f, 0x13, 0x3e, 0x51, 0x9f, 0xe5, 0xbe,
  0x3e, 0xef, 0x14, 0xbe, 0x6d, 0xe7, 0x66, 0xbe, 0xa5, 0xff, 0x5b, 0xbe,
  0x80, 0xf0, 0xe0, 0xbd, 0x64, 0x45, 0x85, 0xbd, 0xdb, 0x11, 0x97, 0x3d,
  0xb0, 0x2a, 0xa5, 0xbc, 0x35, 0x99, 0xe3, 0x3e, 0x7d, 0xd7, 0xbd, 0xbe,
  0x92, 0x9f, 0xa4, 0x3c, 0xf0, 0xfa, 0x12, 0x3e, 0xf1, 0x10, 0xe9, 0xba,
  0xf5, 0x92, 0x0e, 0xbd, 0xd0, 0x17, 0x25, 0xbd, 0x63, 0x43, 0x3d, 0x3c,
  0xbb, 0xfd, 0x9d, 0xbd, 0xf0, 0x52, 0x5b, 0xbe, 0x4b, 0x5b, 0x95, 0x3d,
  0xaa, 0x6b, 0x92, 0xbd, 0xe5, 0xa6, 0xc5, 0x3d, 0xa5, 0xf3, 0x1f, 0x3d,
  0xf7, 0xa8, 0xf3, 0xbd, 0x19, 0xaa, 0xb7, 0x3d, 0x00, 0xbd, 0x3e, 0xbe,
  0xbc, 0x78, 0x76, 0xbe, 0x4a, 0x4c, 0xdc, 0xbe, 0x98, 0xe6, 0xd8, 0x3d,
  0xae, 0xc1, 0x15, 0xbe, 0xc5, 0x58, 0xe3, 0xba, 0x9b, 0xa9, 0x00, 0xbf,
  0x46, 0x2a, 0x7f, 0xbd, 0xb4, 0x3a, 0x8e, 0x3e, 0x6b, 0x6c, 0x04, 0x3e,
  0x60, 0x50, 0x6c, 0x3e, 0xc4, 0xdc, 0x32, 0xbd, 0x83, 0xf2, 0xcb, 0xbe,
  0x60, 0xcd, 0x9b, 0xbe, 0xaa, 0x39, 0x61, 0xbe, 0xd2, 0xfe, 0x79, 0x3d,
  0xc1, 0x4b, 0x8b, 0xbd, 0x32, 0x22, 0x50, 0xbe, 0x40, 0x2f, 0x9e, 0xbe,
  0xeb, 0xee, 0xaa, 0x3c, 0xec, 0x96, 0xf5, 0xbd, 0x94, 0xcd, 0x7e, 0xbd,
  0x33, 0x74, 0x1e, 0xbf, 0x77, 0x42, 0xf4, 0xbe, 0xe4, 0xf7, 0x70, 0xbd,
  0xb7, 0x06, 0x0c, 0xbe, 0x1c, 0x61, 0xad, 0xbe, 0x89, 0x21, 0x52, 0xbb,
  0x29, 0x1b, 0x74, 0xbe, 0x74, 0x62, 0x4c, 0xbe, 0x32, 0xd9, 0x49, 0xbe,
  0x93, 0xb8, 0x8c, 0x3c, 0x4f, 0x74, 0xa5, 0xbe, 0xa7, 0xc4, 0xb6, 0xbe,
  0x60, 0x21, 0x9a, 0xbe, 0x47, 0xa9, 0xbd, 0xbc, 0x1e, 0x7a, 0x12, 0xbe,
  0x8a, 0x0b, 0x23, 0xbd, 0x15, 0x1d, 0xce, 0xbe, 0xbe, 0x8e, 0xfd, 0xbe,
  0xbf, 0x59, 0xe7, 0x3c, 0xf4, 0x22, 0xe9, 0x3d, 0x8e, 0xca, 0xf9, 0xbd,
  0x4a, 0x26, 0xa2, 0x3d, 0x66, 0xd3, 0x9b, 0xbe, 0x22, 0x1f, 0xc8, 0xbe,
  0xcd, 0x18, 0x44, 0xbe, 0x1c, 0x31, 0x5b, 0x3e, 0x56, 0x07, 0x88, 0xbe,
  0x0b, 0xd4, 0x27, 0x3e, 0x71, 0x29, 0x09, 0xbe, 0x82, 0x80, 0x82, 0xbd,
  0x62, 0x3b, 0xbf, 0xbe, 0xd9, 0x3c, 0xb0, 0xbd, 0x20, 0xae, 0x5a, 0xbd,
  0x1d, 0x85, 0xe7, 0xbe, 0xf9, 0x2b, 0x73, 0xbd, 0xf0, 0x30, 0xb4, 0xbc,
  0x0a, 0x3d, 0x2e, 0xbc, 0x29, 0x15, 0x9e, 0x3d, 0x9d, 0xd1, 0x98, 0xbd,
  0xcf, 0x7d, 0xc5, 0x3d, 0x00, 0xb0, 0x16, 0xbd, 0x36, 0x77, 0x70, 0x3e,
  0xd5, 0xc7, 0xe3, 0x3d, 0x34, 0x9f, 0xc9, 0x3e, 0xcf, 0x73, 0x89, 0x3e,
  0xf9, 0xa6, 0x4e, 0xbe, 0x54, 0x06, 0xf3, 0x3d, 0xee, 0x6e, 0xea, 0xbc,
  0x5a, 0xff, 0x27, 0x3e, 0x28, 0xdc, 0x39, 0xbd, 0xc1, 0xdf, 0xa3, 0xbd,
  0x16, 0x1e, 0x1a, 0xbe, 0x32, 0x09, 0xa3, 0xbd, 0x50, 0x30, 0x74, 0x3e,
  0xb9, 0xfa, 0xf4, 0xbc, 0xed, 0xf1, 0xfa, 0x3d, 0x59, 0x62, 0x9e, 0x3e,
  0xdc, 0x0b, 0x9e, 0xbe, 0x04, 0xdf, 0x5d, 0x3c, 0xa7, 0x49, 0xe8, 0x3d,
  0x37, 0xdf, 0xaf, 0xbd, 0xe4, 0x3b, 0x6a, 0xbe, 0x13, 0xc1, 0x38, 0x3e,
  0xc7, 0x7c, 0x14, 0xbe, 0x9c, 0x0a, 0x3a, 0xbe, 0xf7, 0x97, 0x83, 0x3d,
  0x0f, 0xb8, 0x54, 0x3d, 0x30, 0xa6, 0xc8, 0xbc, 0xc1, 0xfb, 0x88, 0xbd,
  0x3b, 0xca, 0x00, 0xbe, 0xb6, 0x94, 0x14, 0x3c, 0x00, 0x08, 0xad, 0x3c,
  0x5d, 0xb6, 0xca, 0x3d, 0x4b, 0x6b, 0x96, 0xbe, 0x73, 0x0d, 0xf8, 0x3d,
  0xc8, 0x97, 0xdf, 0x3e, 0x31, 0x89, 0x89, 0xbd, 0x06, 0x6e, 0x3e, 0xbe,
  0xb3, 0x18, 0xcc, 0x3e, 0x0a, 0x3f, 0x5b, 0xbe, 0x94, 0x47, 0x86, 0x3d,
  0x6b, 0x20, 0x39, 0xbd, 0x04, 0xa7, 0xe8, 0xbd, 0xd9, 0xad, 0x8f, 0xbe,
  0x1d, 0x49, 0xff, 0xbc, 0xde, 0x43, 0xc5, 0xbc, 0x25, 0x60, 0x49, 0xbc,
  0x89, 0x07, 0x6d, 0x3e, 0x74, 0xd4, 0x9a, 0xbc, 0x38, 0x12, 0x90, 0xbd,
  0x3b, 0xa0, 0xa0, 0x3e, 0xc6, 0x11, 0x78, 0x3e, 0xe1, 0x40, 0xf5, 0x3d,
  0xf8, 0x3a, 0xab, 0xbe, 0x1c, 0xdf, 0x09, 0x3f, 0xc4, 0x7a, 0x4c, 0xbe,
  0xe9, 0xce, 0xff, 0xbc, 0xbf, 0x09, 0xed, 0xbc, 0xb7, 0xa6, 0x1c, 0xbd,
  0x73, 0x2d, 0x9c, 0xbd, 0xa5, 0x47, 0x10, 0xbe, 0x23, 0xa6, 0xe7, 0x3c,
  0x72, 0x60, 0xa3, 0x3e, 0xd2, 0x5c, 0x19, 0x3e, 0xda, 0xc2, 0x47, 0x3e,
  0x34, 0xf6, 0xe9, 0x3d, 0x7b, 0xb4, 0xb2, 0x3e, 0x95, 0x26, 0x88, 0x3d,
  0xc7, 0x77, 0xf1, 0x3e, 0x2e, 0xbb, 0x00, 0xbe, 0x9f, 0xfd, 0xcf, 0x3e,
  0xd1, 0x35, 0x5d, 0xbe, 0x57, 0xcb, 0xf4, 0x3d, 0x01, 0x18, 0x84, 0x3e,
  0xb7, 0x70, 0xaa, 0xbe, 0x3d, 0x08, 0xa1, 0xbe, 0x1a, 0xef, 0x0f, 0x3d,
  0x9d, 0x84, 0xfb, 0x3c, 0x5c, 0x32, 0x7d, 0xbc, 0xd8, 0x0e, 0x35, 0x3e,
  0xc9, 0x3a, 0x3e, 0x3e, 0x38, 0x87, 0x10, 0xbe, 0x40, 0x3b, 0xa3, 0x3d,
  0x95, 0x3a, 0x85, 0x3a, 0x8b, 0x73, 0xb8, 0x3d, 0xc7, 0x4c, 0x0d, 0xbf,
  0x92, 0x74, 0xdd, 0x3e, 0xde, 0x52, 0x34, 0xbe, 0xff, 0xf0, 0x18, 0xbe,
  0xf5, 0x25, 0x13, 0x3d, 0x9f, 0x08, 0xba, 0x3c, 0xe3, 0x65, 0x5a, 0xbc,
  0xb6, 0x48, 0xb4, 0xbd, 0xfb, 0xa8, 0x53, 0xbe, 0xa1, 0xc1, 0xcc, 0xbc,
  0x1a, 0xa1, 0x13, 0x3e, 0xfb, 0xe1, 0xb6, 0xbd, 0xda, 0x48, 0x85, 0xbe,
  0xf9, 0x7b, 0x2d, 0x3d, 0x8c, 0xf4, 0x7f, 0xbd, 0xc7, 0x01, 0xc7, 0x3d,
  0x70, 0xc4, 0x90, 0xbe, 0xe7, 0x7d, 0x4c, 0x3e, 0xbe, 0x67, 0x39, 0xbe,
  0x32, 0x65, 0x8a, 0xbe, 0x90, 0x35, 0x22, 0x3e, 0xed, 0x5a, 0x74, 0x3c,
  0x08, 0x0a, 0x93, 0xbe, 0xea, 0xe0, 0x91, 0x3d, 0xb1, 0x13, 0x29, 0xbd,
  0x4b, 0x02, 0x7b, 0xbe, 0x67, 0xe3, 0x86, 0x3d, 0x59, 0x46, 0xa9, 0x3b,
  0x18, 0x9a, 0x47, 0xbe, 0xd1, 0x5f, 0x6a, 0xbd, 0x90, 0xf5, 0x77, 0x3e,
  0x0f, 0x8d, 0xfc, 0x3d, 0xf8, 0xb5, 0xe2, 0xbe, 0xdc, 0xdc, 0xa3, 0x3e,
  0x65, 0x92, 0x80, 0xbe, 0x5e, 0x3e, 0x33, 0xbe, 0xc0, 0x48, 0xd6, 0x3c,
  0x9d, 0x58, 0xd1, 0xbd, 0x9c, 0xaa, 0x75, 0xbd, 0x0f, 0x94, 0xa6, 0xbd,
  0x2a, 0xcf, 0xa3, 0xbe, 0x6b, 0xec, 0x90, 0xbe, 0x52, 0x7d, 0x81, 0xbd,
  0x84, 0xed, 0xca, 0x3c, 0x57, 0x91, 0x87, 0xbd, 0xed, 0x20, 0x80, 0xbe,
  0x14, 0x6a, 0x10, 0xbe, 0x5d, 0xb4, 0xf1, 0xbd, 0xf8, 0x65, 0x0d, 0xbe,
  0x4c, 0x7c, 0xea, 0xbe, 0xa5, 0x0f, 0x08, 0xbe, 0xbc, 0x55, 0xd2, 0xbd,
  0x10, 0xc5, 0x3b, 0x3e, 0xad, 0xce, 0x45, 0xbd, 0xf7, 0x5d, 0x62, 0x3f,
  0xda, 0xea, 0x49, 0xbe, 0xdf, 0xfa, 0x28, 0xbe, 0x7a, 0x0a, 0x16, 0xbe,
  0xf2, 0xd2, 0xc0, 0xbe, 0xbc, 0x0a, 0x28, 0x3e, 0x49, 0x98, 0x16, 0xbe,
  0xfc, 0x28, 0x77, 0x3d, 0xf1, 0x18, 0x28, 0x3d, 0x7b, 0x84, 0x05, 0xbd,
  0xba, 0x02, 0xac, 0xbe, 0xd7, 0x94, 0x5f, 0x3d, 0x5d, 0x27, 0x84, 0xbd,
  0x97, 0xce, 0x3e, 0xbe, 0xce, 0x6f, 0x48, 0xbe, 0x92, 0x2f, 0x84, 0xbe,
  0xc1, 0xff, 0x04, 0x3f, 0x85, 0x8f, 0xac, 0xbe, 0x34, 0x50, 0x9b, 0xbe,
  0x21, 0x40, 0x35, 0xbe, 0xe7, 0x29, 0x54, 0xbc, 0xbc, 0x93, 0x61, 0xbe,
  0x3d, 0x85, 0x59, 0xbc, 0xab, 0x35, 0x14, 0xbe, 0x9a, 0x4e, 0xa3, 0xbe,
  0x46, 0x3d, 0x78, 0xbd, 0x8c, 0xe1, 0x13, 0xbe, 0x79, 0x98, 0x0e, 0xbe,
  0x4c, 0x95, 0xdc, 0xbd, 0xb8, 0xfe, 0x24, 0xbe, 0x45, 0x27, 0x5e, 0xbc,
  0x24, 0x2e, 0xff, 0xbe, 0x0e, 0x72, 0x33, 0x3f, 0x7d, 0x3b, 0x1c, 0xbe,
  0x5c, 0x70, 0x13, 0xbe, 0x36, 0xab, 0x64, 0xbe, 0x05, 0x2b, 0x89, 0xbe,
  0x66, 0x7a, 0x19, 0x3e, 0x1c, 0xe3, 0x19, 0x3e, 0xbc, 0x49, 0x32, 0xbe,
  0x7b, 0x28, 0xfd, 0x3d, 0x38, 0xb0, 0xad, 0xbe, 0x01, 0x3e, 0x31, 0xbe,
  0x1b, 0xc3, 0x8e, 0xbe, 0x4b, 0xa4, 0xf3, 0xbd, 0x26, 0x81, 0x0e, 0xbf,
  0x72, 0x30, 0x8d, 0xbe, 0xb9, 0x6a, 0x90, 0xbe, 0xcb, 0xa5, 0x11, 0x3f,
  0x52, 0xad, 0xc7, 0xbd, 0xd4, 0x28, 0x0e, 0xbc, 0x40, 0xd8, 0x91, 0xbe,
  0x3e, 0x96, 0xab, 0x3d, 0x61, 0x34, 0x64, 0xbd, 0x70, 0x44, 0x89, 0x3e,
  0xbd, 0x07, 0xa6, 0x3e, 0x57, 0x20, 0x9b, 0x3e, 0x6f, 0xd8, 0xea, 0x3d,
  0xdf, 0x35, 0x60, 0xbe, 0x9a, 0xe9, 0x84, 0xbd, 0xc8, 0x23, 0xdc, 0xbd,
  0x22, 0x4b, 0xd2, 0x3d, 0xee, 0x3a, 0xd5, 0xbd, 0xcb, 0x4a, 0x12, 0xbe,
  0x4e, 0x8b, 0xf9, 0x3e, 0x76, 0x14, 0x04, 0xbe, 0x64, 0x49, 0x27, 0x3e,
  0x01, 0x28, 0x8b, 0xbe, 0x9c, 0x9a, 0x57, 0x3e, 0x1b, 0x26, 0xab, 0xbc,
  0x61, 0xba, 0x09, 0xbe, 0xed, 0x87, 0x65, 0x3e, 0xbd, 0x8d, 0x62, 0x3e,
  0x5d, 0x71, 0x39, 0x3e, 0xdb, 0xa3, 0xbe, 0xbe, 0x6a, 0xee, 0xa8, 0x3d,
  0xdb, 0xe8, 0x44, 0x3c, 0x2d, 0x65, 0xe9, 0x3b, 0xdc, 0x61, 0xa0, 0xbd,
  0x5a, 0x26, 0xc9, 0xbe, 0x10, 0xdb, 0xfb, 0x3e, 0xd4, 0x2f, 0xef, 0xbb,
  0x01, 0xa0, 0xa0, 0xbd, 0x5a, 0x19, 0x1e, 0x3c, 0x9a, 0x76, 0x56, 0xbe,
  0x91, 0xfc, 0x15, 0xbe, 0xa4, 0x20, 0x3b, 0x3e, 0x01, 0xca, 0x50, 0x3d,
  0xc4, 0xec, 0x8e, 0x3e, 0x7b, 0x60, 0x06, 0x3e, 0x44, 0xae, 0x38, 0x3e,
  0x22, 0x0c, 0x97, 0x3d, 0x4c, 0xc5, 0xe1, 0xbb, 0x5f, 0xe2, 0x06, 0xbe,
  0x75, 0x58, 0xff, 0x3d, 0x71, 0xbe, 0xb2, 0xbd, 0x86, 0xad, 0xfd, 0x3d,
  0xb5, 0xe7, 0x92, 0x3d, 0xec, 0xa9, 0xba, 0x3e, 0xb4, 0xdd, 0xa0, 0x3c,
  0x0f, 0x46, 0x54, 0xbe, 0xbb, 0x58, 0x27, 0xbd, 0x1d, 0xf1, 0x53, 0x3b,
  0x38, 0x8b, 0x38, 0xbd, 0x8b, 0x04, 0xa6, 0xbd, 0x7c, 0x95, 0xab, 0xbd,
  0xe6, 0x2c, 0x8b, 0xbe, 0xa5, 0x1d, 0x2c, 0x3d, 0x86, 0x56, 0x8b, 0xbe,
  0x15, 0x11, 0x55, 0xbe, 0x6f, 0x51, 0xe0, 0xbd, 0x43, 0x52, 0x74, 0x3d,
  0x89, 0x42, 0x20, 0x3e, 0x74, 0x1a, 0x2b, 0x3c, 0x36, 0x0a, 0x75, 0xbe,
  0xe7, 0xb0, 0x5a, 0xbd, 0x00, 0x26, 0xa3, 0x3c, 0x99, 0xfe, 0x39, 0x3c,
  0x71, 0x4c, 0x6e, 0xbe, 0xab, 0xbb, 0xa6, 0xbc, 0x31, 0x01, 0x28, 0x3e,
  0x01, 0x53, 0xb9, 0xbd, 0x89, 0xae, 0xa6, 0xbe, 0xbb, 0x8b, 0x82, 0xbd,
  0x02, 0x1d, 0x83, 0xbe, 0x4a, 0x13, 0x88, 0x3d, 0xe0, 0x65, 0xbc, 0x3d,
  0x77, 0x63, 0xd4, 0xbd, 0x5a, 0x16, 0x93, 0xbe, 0x81, 0xda, 0x98, 0xbe,
  0x73, 0x5f, 0x83, 0xbd, 0x7e, 0x9e, 0xe6, 0xbd, 0x1a, 0x30, 0x80, 0xbd,
  0xcf, 0xf7, 0xa6, 0x3d, 0xb0, 0x6c, 0xf8, 0xbd, 0xaf, 0x84, 0xa1, 0xbd,
  0x06, 0x0d, 0xdc, 0xbd, 0x97, 0xa2, 0x93, 0xbd, 0x3d, 0x66, 0xa7, 0xbe,
  0x39, 0x48, 0x25, 0x3e, 0xec, 0x28, 0x6d, 0xbe, 0x48, 0x55, 0x30, 0xbe,
  0xce, 0xb2, 0x0d, 0x3e, 0x62, 0x39, 0x21, 0xbe, 0x77, 0x9a, 0x07, 0xbe,
  0xc5, 0xb0, 0x02, 0xbe, 0xc7, 0x1d, 0x37, 0x3d, 0xa4, 0x0a, 0x27, 0xbe,
  0x28, 0xc1, 0xe6, 0xbd, 0xf0, 0x2d, 0x02, 0x3e, 0xb8, 0x6c, 0x55, 0xbd,
  0xf2, 0x41, 0x06, 0xbc, 0x9e, 0xf6, 0xa2, 0xbc, 0x26, 0xe6, 0x33, 0xbe,
  0x09, 0xd8, 0xb6, 0xbe, 0xa9, 0x84, 0x50, 0xbe, 0x48, 0xde, 0x48, 0xbe,
  0xcc, 0x1c, 0x85, 0xbe, 0xaf, 0x82, 0xd1, 0x3d, 0x3b, 0x67, 0x89, 0xbe,
  0x3c, 0xd5, 0xdd, 0x3d, 0xe3, 0x66, 0x42, 0xbe, 0xec, 0xaa, 0xe5, 0xbd,
  0xa7, 0xf1, 0x19, 0xbe, 0xe4, 0x2e, 0x92, 0xbe, 0x5e, 0x51, 0x57, 0x3e,
  0x38, 0xaa, 0x29, 0x3d, 0x46, 0x9a, 0x72, 0x3e, 0x84, 0xe2, 0xac, 0x3e,
  0x27, 0xc7, 0xaa, 0x3c, 0x9c, 0xdd, 0x59, 0xbe, 0xcc, 0x2f, 0xa3, 0xbc,
  0xd5, 0x4a, 0x85, 0xbe, 0x64, 0x8e, 0xad, 0x3d, 0x20, 0xbf, 0xc5, 0xbd,
  0x86, 0xcd, 0x6a, 0xbd, 0xc7, 0x44, 0x46, 0xbe, 0x4c, 0xab, 0x94, 0x3d,
  0x9d, 0x29, 0xb0, 0x3d, 0x17, 0xd6, 0x00, 0xbe, 0x0c, 0xef, 0x5b, 0x3e,
  0x96, 0x02, 0x05, 0x3d, 0xe3, 0x6b, 0xc5, 0x3c, 0xc4, 0x39, 0x98, 0x3e,
  0x55, 0x3d, 0x62, 0x3e, 0x48, 0x2c, 0x3b, 0x3e, 0x29, 0xd6, 0x83, 0xbe,
  0x49, 0x65, 0x15, 0x3e, 0x57, 0xbf, 0x66, 0x3d, 0xc9, 0x9d, 0x63, 0x3e,
  0x8e, 0x6e, 0x44, 0xbd, 0x7f, 0x8b, 0x1a, 0xbe, 0xfc, 0x89, 0x29, 0xbe,
  0x70, 0x99, 0xac, 0xbd, 0x75, 0xb8, 0xea, 0x3d, 0xba, 0xee, 0x1b, 0xbd,
  0x09, 0x18, 0xa4, 0x3d, 0x37, 0xd1, 0x68, 0x3e, 0x24, 0xc6, 0x77, 0xbd,
  0x08, 0x72, 0x29, 0x3e, 0xf3, 0x59, 0xa7, 0x3d, 0x49, 0x13, 0x13, 0x3e,
  0x5d, 0x73, 0xdf, 0x3d, 0x67, 0xe5, 0xc2, 0xbd, 0x62, 0x79, 0xb9, 0xbc,
  0xfe, 0x5a, 0x7a, 0x3e, 0xff, 0xda, 0x30, 0x3d, 0x9e, 0xab, 0xe6, 0xbd,
  0xd7, 0x98, 0x1a, 0x3e, 0x9a, 0x40, 0x4f, 0x3a, 0xa9, 0x29, 0xb0, 0x3c,
  0xa6, 0xbb, 0xe5, 0xbd, 0xe7, 0x0b, 0x9c, 0xbe, 0x66, 0xb2, 0x0a, 0xbe,
  0x3f, 0xa2, 0xae, 0x3d, 0x2b, 0xc1, 0x25, 0xbe, 0x0d, 0x19, 0x85, 0xbe,
  0xc3, 0xd8, 0x0b, 0xbd, 0xb3, 0xc3, 0xbe, 0xbe, 0x04, 0x60, 0xc6, 0xbe,
  0xda, 0x93, 0xfa, 0xbd, 0x34, 0xe0, 0x3c, 0xbd, 0xd6, 0xb1, 0xdd, 0x3d,
  0x02, 0x0a, 0xba, 0x3c, 0x8f, 0x33, 0x80, 0xbe, 0xf6, 0xd6, 0x85, 0xbe,
  0xd3, 0xc3, 0xc5, 0xbe, 0xc5, 0xcf, 0x70, 0xbe, 0xcf, 0x55, 0x4f, 0xbe,
  0x5d, 0xe1, 0x17, 0x3e, 0x5d, 0x49, 0xd1, 0xbd, 0xe2, 0x59, 0x1d, 0xbc,
  0xe1, 0x44, 0xb2, 0xbc, 0xf7, 0x87, 0xd7, 0xbd, 0x86, 0x53, 0xf7, 0xbe,
  0xc8, 0xc7, 0x48, 0xbe, 0x3e, 0x58, 0x1c, 0xbd, 0xff, 0xb0, 0xba, 0x3d,
  0x74, 0x99, 0x08, 0xbe, 0x1b, 0x26, 0xb3, 0xbe, 0x50, 0x62, 0xdd, 0xbd,
  0x61, 0x89, 0xd6, 0xbe, 0x3a, 0x0a, 0x19, 0xbe, 0xa8, 0xe0, 0xc2, 0xbd,
  0x0c, 0x80, 0x83, 0xbd, 0x7b, 0x64, 0x49, 0xbd, 0x1d, 0x49, 0xd8, 0xbb,
  0x53, 0x5d, 0xbe, 0x3a, 0x4e, 0x82, 0x81, 0xbe, 0x4c, 0x8d, 0x0f, 0xbe,
  0xa1, 0x1b, 0x09, 0xbf, 0x53, 0xa2, 0xc3, 0xbc, 0x78, 0xcf, 0x21, 0xbe,
  0xd2, 0x8a, 0xef, 0xbe, 0x63, 0xb2, 0xeb, 0xbd, 0x82, 0xe8, 0xae, 0xbe,
  0x70, 0x77, 0x3c, 0xbd, 0x9f, 0x7f, 0x87, 0xbe, 0x51, 0x5e, 0xe1, 0xbd,
  0xeb, 0xde, 0xa1, 0xbe, 0x75, 0x5e, 0x32, 0xbe, 0xab, 0x52, 0x82, 0xbd,
  0x1a, 0x0f, 0xc6, 0xbc, 0x37, 0x1e, 0xe7, 0xbd, 0xad, 0xf2, 0xa1, 0x3e,
  0xcf, 0x6a, 0xb2, 0xbe, 0x14, 0x88, 0xaf, 0xbe, 0x2c, 0xc9, 0xdf, 0xbe,
  0x44, 0x60, 0x40, 0xbe, 0xb3, 0xc0, 0x12, 0xbf, 0xbe, 0x9e, 0x47, 0xbe,
  0x5e, 0x4b, 0x75, 0xbe, 0xfb, 0xc2, 0x11, 0x3d, 0x47, 0xd1, 0xd5, 0xbe,
  0x04, 0x58, 0xfd, 0xbc, 0x0a, 0x07, 0xcc, 0xbe, 0x86, 0x4e, 0x4b, 0x3e,
  0x30, 0xd2, 0xdb, 0x3c, 0x33, 0x14, 0x0b, 0x3e, 0xb1, 0x8a, 0xd0, 0x3e,
  0xea, 0x13, 0x90, 0x3e, 0x8f, 0xd0, 0x9e, 0x3e, 0xe7, 0x84, 0x2a, 0xbf,
  0xd4, 0xc2, 0x67, 0x3d, 0x4e, 0x71, 0x80, 0xbd, 0x58, 0xa6, 0x0f, 0x3e,
  0x9c, 0x1e, 0xd7, 0x3d, 0xeb, 0x3e, 0xb3, 0xbe, 0xa2, 0xcb, 0x32, 0xbe,
  0x60, 0xda, 0xe5, 0xbe, 0xe4, 0xef, 0x50, 0x3e, 0x2c, 0xc0, 0x65, 0xbe,
  0x34, 0x1c, 0xea, 0x3d, 0x1a, 0x38, 0xa1, 0xbc, 0xaf, 0x22, 0x47, 0x3d,
  0x11, 0x4b, 0x67, 0x3e, 0x28, 0x79, 0xb2, 0x3e, 0xca, 0x44, 0x49, 0x3e,
  0x65, 0x9f, 0x99, 0xbe, 0x50, 0xe9, 0x10, 0x3e, 0x6d, 0xbe, 0xf7, 0xbd,
  0x20, 0x18, 0x52, 0x3d, 0xdd, 0xce, 0x0b, 0x3e, 0xa3, 0x38, 0xba, 0xbd,
  0x4a, 0x37, 0x2b, 0x3c, 0x14, 0x5f, 0xaa, 0xbd, 0x53, 0x6a, 0xae, 0x3d,
  0x67, 0xd6, 0x02, 0xbd, 0xb1, 0x09, 0xb4, 0xbc, 0xba, 0x11, 0xad, 0xbd,
  0x46, 0xa0, 0x03, 0x3e, 0x25, 0xb3, 0xcb, 0x3d, 0xf1, 0xc6, 0x5d, 0x3f,
  0x2a, 0x09, 0x24, 0x3e, 0x58, 0xc8, 0xc1, 0x3e, 0x1d, 0x56, 0x1a, 0x3e,
  0xda, 0xe4, 0x93, 0xbc, 0x9a, 0xd2, 0x4c, 0x3e, 0x82, 0xa4, 0xf6, 0x3c,
  0xce, 0x2b, 0xb1, 0x3d, 0xc3, 0xdc, 0x95, 0x3e, 0x5c, 0x24, 0x1a, 0xbd,
  0xcb, 0xf1, 0xae, 0x3e, 0xf0, 0x52, 0x5e, 0xbe, 0xc0, 0x54, 0x98, 0x3d,
  0x5e, 0x81, 0xc4, 0xbd, 0xae, 0xe8, 0x1c, 0x3d, 0x30, 0xd8, 0x23, 0xbe,
  0x91, 0xa9, 0x76, 0x3d, 0xc0, 0x65, 0x53, 0xbe, 0xd7, 0xee, 0x2f, 0xbe,
  0xb0, 0xb7, 0xff, 0xbc, 0x33, 0x78, 0xb5, 0xbd, 0xb3, 0x41, 0xb7, 0xbd,
  0x87, 0x55, 0x37, 0xbe, 0x7f, 0x11, 0xb6, 0xbd, 0xeb, 0x37, 0x76, 0xbd,
  0x30, 0x08, 0x1a, 0x3d, 0xd9, 0x96, 0x50, 0xbe, 0xb5, 0xb3, 0x19, 0xbc,
  0xa8, 0x28, 0xc2, 0x3d, 0xf2, 0x07, 0x5f, 0xbe, 0xde, 0xd1, 0x2a, 0x3e,
  0x08, 0x8a, 0xa8, 0xbd, 0xc2, 0x0d, 0x75, 0x3c, 0x8b, 0xfe, 0x97, 0xbd,
  0xda, 0xb6, 0x85, 0xbd, 0xbc, 0x27, 0xd9, 0x3d, 0x1c, 0xd7, 0x92, 0xbe,
  0x57, 0x82, 0xa8, 0xbd, 0x32, 0xfc, 0x03, 0x3e, 0xfa, 0x2c, 0x8e, 0xbd,
  0xe2, 0xf0, 0x83, 0x3d, 0x16, 0xb4, 0x4e, 0xbd, 0x1f, 0x31, 0xd2, 0xbd,
  0x34, 0x7b, 0x85, 0x3d, 0x68, 0x36, 0xa0, 0x3c, 0x93, 0x99, 0x96, 0x3d,
  0x97, 0xfe, 0x31, 0x3e, 0x86, 0x63, 0xf4, 0xbd, 0x51, 0x74, 0x69, 0xbc,
  0x1e, 0x68, 0x1e, 0xbe, 0xa0, 0xce, 0xae, 0x3d, 0x1f, 0x7d, 0x19, 0x3e,
  0xa3, 0xe0, 0xad, 0xbe, 0x91, 0xd7, 0x69, 0xbe, 0x45, 0x00, 0x70, 0xbe,
  0x57, 0xc4, 0x4a, 0xbe, 0xd7, 0x3c, 0x0e, 0xbe, 0x22, 0x9b, 0xb2, 0xbb,
  0xa1, 0xac, 0xe8, 0xbd, 0x6e, 0xb8, 0x3c, 0xbd, 0xbc, 0x25, 0xf4, 0x3c,
  0xef, 0x19, 0x83, 0x3d, 0x74, 0x74, 0x81, 0xbe, 0x6d, 0xfb, 0xf1, 0xbd,
  0x83, 0xbd, 0xc0, 0xbd, 0xb3, 0xa8, 0x8c, 0xbd, 0xea, 0x53, 0x84, 0x3b,
  0xae, 0xcb, 0xbf, 0xbd, 0x1e, 0x07, 0x80, 0xbe, 0xc0, 0xe1, 0xc3, 0x3d,
  0xec, 0xf4, 0xa9, 0xbd, 0xd4, 0xae, 0x2e, 0xbe, 0x34, 0x70, 0x18, 0xbe,
  0x4d, 0xde, 0x4e, 0xbd, 0xe3, 0x92, 0x26, 0xbd, 0x75, 0xd8, 0x3e, 0xbe,
  0x21, 0x3c, 0xa5, 0xbd, 0x97, 0x2d, 0x9e, 0x3d, 0x93, 0x18, 0x95, 0x3d,
  0x33, 0x92, 0x6f, 0xbd, 0xec, 0x4c, 0x19, 0x3d, 0xfb, 0x41, 0x53, 0xbd,
  0x57, 0xf3, 0x20, 0xbe, 0xd1, 0x0e, 0xdb, 0xbc, 0xae, 0xd9, 0x38, 0xbe,
  0x88, 0x9f, 0xaf, 0xbd, 0x62, 0xd1, 0x58, 0xbd, 0x2d, 0xb6, 0x08, 0xbe,
  0x31, 0x82, 0x5c, 0xbc, 0x2f, 0xfc, 0x98, 0xbc, 0x5b, 0x5f, 0xd6, 0x3b,
  0xe0, 0x39, 0xc4, 0x3d, 0xc9, 0xc9, 0x10, 0xbe, 0x84, 0x43, 0xd9, 0x3d,
  0x3b, 0x34, 0x32, 0x3d, 0xba, 0xe7, 0x7d, 0xbd, 0x98, 0xb8, 0x9d, 0x3b,
  0x49, 0x21, 0x37, 0xbe, 0x5a, 0x5b, 0x2e, 0x3e, 0xa4, 0xc5, 0x9e, 0xbe,
  0x8a, 0x4c, 0xd7, 0xbd, 0xea, 0x62, 0x48, 0x3d, 0x15, 0x82, 0x4a, 0xbe,
  0x55, 0xea, 0x93, 0x3d, 0x3c, 0xdc, 0x1a, 0xbe, 0x7d, 0xbd, 0xbc, 0xbd,
  0x56, 0x7c, 0xa7, 0xbb, 0x14, 0x8f, 0x23, 0xbe, 0x60, 0x33, 0x9e, 0xbd,
  0x0c, 0xa1, 0x2f, 0xbe, 0x8f, 0xdb, 0x41, 0xbc, 0xa3, 0xcb, 0x17, 0xbd,
  0x2f, 0x73, 0x94, 0xbc, 0x39, 0x29, 0x21, 0xbe, 0x08, 0xbb, 0x21, 0xbe,
  0x09, 0x34, 0x15, 0x3d, 0x03, 0x59, 0x8f, 0xbe, 0x52, 0xa4, 0x0b, 0xbe,
  0xff, 0x29, 0xfb, 0x3d, 0x3a, 0xf8, 0x8f, 0x3d, 0x21, 0x19, 0x8a, 0x3d,
  0x15, 0x7f, 0xba, 0x3d, 0x5b, 0x4c, 0x3c, 0xbd, 0x6c, 0x06, 0x21, 0x3e,
  0xcf, 0x02, 0x36, 0x3e, 0x31, 0xb3, 0x35, 0xbe, 0x66, 0xdc, 0x6e, 0xbe,
  0x4e, 0x81, 0x14, 0x3e, 0x31, 0x95, 0xf6, 0xbd, 0xea, 0x7b, 0x67, 0x3d,
  0xde, 0x4d, 0x13, 0xbd, 0xba, 0x1c, 0xc5, 0x3c, 0xf6, 0x59, 0x9d, 0x3d,
  0x95, 0x61, 0x32, 0x3d, 0x77, 0xcb, 0x04, 0x3e, 0xc1, 0xbc, 0xd4, 0x3b,
  0x0a, 0x6f, 0x44, 0x3f, 0x19, 0x29, 0xa9, 0x3c, 0x0e, 0x99, 0x34, 0xbd,
  0xe4, 0xae, 0x29, 0x3e, 0xd5, 0xa6, 0x76, 0xbb, 0xb9, 0x3c, 0xeb, 0x3b,
  0x9c, 0x59, 0xba, 0xbc, 0x9d, 0xd0, 0xff, 0xbd, 0xbb, 0xc8, 0xf8, 0xbc,
  0xa9, 0xc9, 0x0e, 0xbd, 0x76, 0xdd, 0x38, 0xbd, 0xfc, 0x4a, 0x52, 0xbe,
  0x88, 0xa1, 0x05, 0x3d, 0x2f, 0x72, 0x32, 0xbe, 0xcb, 0x93, 0x16, 0x3e,
  0x6c, 0x64, 0x40, 0x3d, 0x0f, 0xd2, 0xc8, 0x3f, 0x18, 0xbe, 0x04, 0x3e,
  0x4e, 0x11, 0x2f, 0xbe, 0xb1, 0x66, 0x21, 0xbd, 0xf3, 0x65, 0xe4, 0xbd,
  0x4d, 0x96, 0xb7, 0xbc, 0x42, 0xdb, 0x29, 0xbe, 0x3c, 0xd5, 0x25, 0xbe,
  0xd7, 0xe9, 0x11, 0x3d, 0x2d, 0xfe, 0x19, 0xbe, 0xed, 0x42, 0xd6, 0x3c,
  0x18, 0x37, 0x7d, 0xbe, 0x8c, 0x5d, 0x4b, 0xbd, 0x97, 0xba, 0xc4, 0xbd,
  0x10, 0x9a, 0x1e, 0x3e, 0x93, 0x92, 0xd8, 0xbd, 0xb1, 0xd5, 0xc1, 0x3f,
  0xf5, 0xb3, 0x32, 0xbe, 0x7b, 0xee, 0xa8, 0xbd, 0xe7, 0x5c, 0xe6, 0xbd,
  0x18, 0x90, 0x03, 0xbe, 0x4e, 0xd6, 0xe8, 0xbb, 0xbb, 0x53, 0xf3, 0x3c,
  0x3e, 0x54, 0x8c, 0xbd, 0x89, 0x22, 0xcd, 0x3d, 0x65, 0xf7, 0xbf, 0xbd,
  0x35, 0xe6, 0x98, 0xbc, 0x44, 0x26, 0xb4, 0xbe, 0xc7, 0x84, 0x00, 0xbd,
  0x52, 0xb1, 0xa5, 0xbd, 0x58, 0x42, 0x37, 0x3d, 0xbd, 0x3d, 0x53, 0xbd,
  0x9b, 0x17, 0xcf, 0x3f, 0xde, 0xe2, 0xfb, 0xbd, 0xb2, 0xdd, 0x78, 0xbd,
  0x36, 0x57, 0x4b, 0xbd, 0xb4, 0xb2, 0x12, 0x3d, 0x31, 0x42, 0xfa, 0x3c,
  0xde, 0x4a, 0xb1, 0x3d, 0xcb, 0xec, 0x8c, 0x3d, 0xbb, 0xae, 0x2e, 0x3e,
  0xb5, 0xae, 0xef, 0x3c, 0x6c, 0x26, 0xd3, 0x3c, 0x92, 0x30, 0x20, 0xbe,
  0xe5, 0xf3, 0x9d, 0xbd, 0xfb, 0xf3, 0xe5, 0x3d, 0xd9, 0xe8, 0xda, 0x3d,
  0x0b, 0x9e, 0x2e, 0xbd, 0x1d, 0x88, 0xb9, 0x3f, 0x85, 0x4f, 0x23, 0xbe,
  0xe6, 0x76, 0xd4, 0x3d, 0x81, 0xa7, 0x7a, 0xbc, 0xe0, 0x69, 0x38, 0x3d,
  0x5d, 0x6b, 0x0e, 0x3d, 0x30, 0x3a, 0x01, 0xbd, 0xc9, 0x5f, 0xee, 0x3d,
  0xac, 0xd6, 0x1f, 0x3e, 0x18, 0x9e, 0x35, 0x3e, 0x98, 0x9b, 0xbf, 0xbc,
  0xbb, 0x49, 0x8a, 0xbd, 0x67, 0x66, 0xe6, 0xbb, 0xa5, 0xb2, 0x0f, 0x3e,
  0xe8, 0xec, 0xae, 0x3d, 0xd4, 0x19, 0x30, 0x3b, 0xad, 0x2d, 0xe7, 0x3f,
  0xe5, 0x21, 0x8f, 0x3d, 0x63, 0x25, 0x01, 0x3e, 0xe9, 0xff, 0xb9, 0x3c,
  0xd4, 0x37, 0x4e, 0x3d, 0xcb, 0x8e, 0xdd, 0xbd, 0xea, 0x03, 0xcb, 0x3d,
  0x12, 0x65, 0x0e, 0xbd, 0x90, 0xde, 0x06, 0x3f, 0x8e, 0xc7, 0xa0, 0x3d,
  0xd7, 0x9d, 0x8a, 0xbc, 0x77, 0x8e, 0x8d, 0xbd, 0x81, 0xa4, 0x54, 0x3b,
  0xa3, 0x91, 0x0d, 0x3d, 0x5d, 0x3a, 0x8e, 0x3c, 0xdf, 0xfe, 0x96, 0x3d,
  0x99, 0x6e, 0x85, 0x3e, 0x5a, 0x8b, 0x88, 0x3d, 0xd3, 0x67, 0x9c, 0x3d,
  0xe7, 0xb6, 0x20, 0xbf, 0x87, 0x08, 0xcc, 0xbe, 0x6f, 0xa5, 0x20, 0x3e,
  0x3f, 0xe6, 0x8e, 0x3e, 0x10, 0x86, 0x23, 0xbe, 0x03, 0x14, 0x1f, 0x3e,
  0x97, 0x36, 0x99, 0xbd, 0x07, 0x9b, 0x49, 0x3e, 0x00, 0x81, 0x01, 0xbd,
  0xe5, 0x8c, 0x56, 0xbd, 0x6b, 0x60, 0x2a, 0xbe, 0xeb, 0x3f, 0xeb, 0xbe,
  0x05, 0xd0, 0x36, 0xbe, 0x22, 0xb8, 0xe7, 0x3c, 0xb8, 0x01, 0xe6, 0xbe,
  0xfb, 0x0d, 0x22, 0x3e, 0x5c, 0xa1, 0xb4, 0xbe, 0x60, 0x89, 0x7f, 0xbe,
  0xd4, 0xfc, 0x96, 0x3e, 0xb1, 0xf2, 0x4a, 0x3d, 0xa2, 0xfd, 0x03, 0xbe,
  0x24, 0x0d, 0xe2, 0x3c, 0x3e, 0xdd, 0x7c, 0x3d, 0x5c, 0xcc, 0xa6, 0xbc,
  0x65, 0x6f, 0x1b, 0x3e, 0x95, 0xa2, 0xa6, 0x3b, 0x8f, 0x14, 0x13, 0xbe,
  0xa3, 0xed, 0x1f, 0xbf, 0x17, 0xd1, 0x49, 0xbd, 0x81, 0xd1, 0xa7, 0xbe,
  0x42, 0x04, 0xb0, 0xbe, 0xc7, 0x7b, 0x6a, 0x3d, 0xaf, 0xb3, 0x04, 0xbe,
  0xc8, 0x50, 0x2a, 0x3e, 0x79, 0xe0, 0x1d, 0x3f, 0x8d, 0x5a, 0x21, 0x3e,
  0x45, 0x2a, 0x9f, 0x3d, 0x26, 0x73, 0xef, 0x3b, 0x49, 0x3d, 0xeb, 0x3d,
  0x5a, 0x4c, 0x4d, 0xbd, 0xb9, 0x39, 0xe5, 0x3e, 0x36, 0x7c, 0x14, 0x3e,
  0x48, 0x02, 0x5e, 0x3d, 0x38, 0xae, 0xb5, 0xbd, 0xdd, 0xfe, 0x13, 0xbe,
  0x09, 0xf8, 0xb8, 0xbe, 0xe7, 0x3d, 0xcf, 0xbd, 0xa1, 0xf4, 0x4a, 0xbe,
  0x53, 0x8f, 0x34, 0x3d, 0x68, 0xfe, 0x6f, 0xbd, 0x58, 0x55, 0x11, 0x3f,
  0x5b, 0x08, 0x35, 0x3d, 0x3c, 0x83, 0x5f, 0x3e, 0xe0, 0x78, 0x03, 0x3e,
  0xad, 0x1a, 0xa7, 0x3d, 0xaa, 0xd6, 0x5d, 0xbd, 0xbe, 0x1f, 0x4b, 0x3e,
  0x7f, 0xff, 0x0a, 0x3d, 0x47, 0x96, 0xef, 0x3c, 0xb3, 0x41, 0x00, 0xbd,
  0xc2, 0xc5, 0xc3, 0x3d, 0x8a, 0x43, 0xce, 0xbe, 0x45, 0xea, 0x0b, 0x3d,
  0x9d, 0xe0, 0xd9, 0xbd, 0xe6, 0x69, 0x56, 0xbe, 0x97, 0x71, 0xf6, 0xbc,
  0x3f, 0xf6, 0x0b, 0x3f, 0x30, 0xa7, 0x30, 0x3d, 0x6d, 0xe0, 0xca, 0x3c,
  0x07, 0x0c, 0xa9, 0xbe, 0x46, 0xce, 0x16, 0x3e, 0x55, 0xfb, 0xba, 0x3c,
  0x37, 0x69, 0x95, 0x3e, 0x87, 0xc2, 0x6f, 0x3d, 0xe2, 0xf7, 0xfe, 0xbd,
  0x3f, 0x06, 0xa9, 0xbe, 0x93, 0xc4, 0x63, 0xbb, 0x8f, 0xb4, 0x84, 0xbe,
  0x65, 0xda, 0x12, 0xbd, 0x4b, 0x12, 0x8f, 0xbd, 0xa3, 0x03, 0xa0, 0xbd,
  0xa1, 0xc1, 0xe9, 0x3d, 0xf3, 0x2f, 0x5d, 0x3e, 0x6d, 0x99, 0xfa, 0x3c,
  0xe3, 0xd4, 0x72, 0x3d, 0xa8, 0xda, 0x3b, 0xbe, 0xfd, 0x3b, 0x63, 0x3b,
  0xe0, 0x56, 0x54, 0x3b, 0x40, 0x82, 0x3f, 0x3e, 0x8f, 0x4a, 0xde, 0x3c,
  0x39, 0x65, 0x1c, 0xbf, 0x43, 0x2b, 0x71, 0xbe, 0xc4, 0xf4, 0x16, 0xbe,
  0x87, 0x3b, 0xb6, 0xbe, 0xe8, 0xc5, 0x6d, 0xbe, 0x82, 0x4d, 0x07, 0xbe,
  0xb7, 0xca, 0x3b, 0xbd, 0x99, 0x71, 0x08, 0x3c, 0xde, 0x25, 0x76, 0x3e,
  0xd6, 0xfd, 0x0b, 0xbe, 0x3d, 0x38, 0x57, 0xbe, 0x70, 0x09, 0x85, 0xbe,
  0x23, 0xa9, 0x09, 0xbe, 0x00, 0xee, 0x0e, 0xbd, 0xac, 0x35, 0xd6, 0x3d,
  0xaa, 0x86, 0x65, 0xbd, 0xe7, 0x80, 0x8b, 0xbd, 0x36, 0x7d, 0x93, 0xbe,
  0xf7, 0x74, 0x25, 0xbe, 0x38, 0xcf, 0x06, 0x3c, 0x99, 0x38, 0x92, 0xbe,
  0xda, 0x06, 0x0e, 0xbd, 0x40, 0xcc, 0x19, 0x3e, 0x8c, 0xe1, 0x8f, 0xbe,
  0x57, 0xcd, 0x3c, 0xbe, 0x2d, 0xe1, 0xe1, 0xbe, 0xa3, 0x88, 0x4b, 0xbe,
  0x32, 0x4b, 0x02, 0xbd, 0xb8, 0xd4, 0x40, 0xbe, 0xd1, 0xf7, 0xbe, 0x3d,
  0xf3, 0x5c, 0x2d, 0xbe, 0x50, 0xa9, 0x0d, 0xbd, 0xaf, 0x2c, 0x64, 0x3c,
  0x43, 0xf4, 0x2f, 0x3e, 0xcc, 0xe0, 0x85, 0x3e, 0x32, 0xa2, 0xe9, 0x3f,
  0x64, 0x60, 0x68, 0x3e, 0xc9, 0x08, 0x58, 0xbd, 0xcd, 0x5f, 0x31, 0x3d,
  0x37, 0x7e, 0x5e, 0xbd, 0x5e, 0xea, 0x55, 0xbe, 0x70, 0xcd, 0xe9, 0xbd,
  0xcb, 0x9f, 0x68, 0x3e, 0xde, 0xf2, 0x0c, 0x3e, 0x59, 0x1f, 0x2d, 0x3c,
  0x73, 0xd1, 0x2a, 0xbe, 0x4e, 0x84, 0x3d, 0xbe, 0xa9, 0x8c, 0x68, 0xbd,
  0x69, 0x9c, 0xac, 0xba, 0x2f, 0x2a, 0x73, 0x3e, 0x4b, 0xcf, 0x79, 0xbc,
  0x23, 0xb6, 0x2e, 0x40, 0xab, 0x12, 0x1e, 0x3d, 0x14, 0xb4, 0x97, 0xbe,
  0x1f, 0xd2, 0x84, 0x3d, 0xee, 0xb2, 0x20, 0xbe, 0x91, 0xe9, 0xb7, 0x3d,
  0x82, 0x7f, 0x7d, 0xbe, 0x78, 0x05, 0xc5, 0x3d, 0xfe, 0x89, 0x1d, 0x3d,
  0xf3, 0x3c, 0x38, 0x3e, 0xc9, 0xd3, 0x64, 0xbe, 0x20, 0x75, 0xf5, 0xbd,
  0x10, 0xba, 0x0e, 0xbe, 0xdb, 0x83, 0xbc, 0x3e, 0xe8, 0x1c, 0x8b, 0x3e,
  0x2e, 0xe2, 0xf0, 0xbc, 0xfe, 0xcb, 0x80, 0x40, 0x52, 0xc9, 0x36, 0x3d,
  0xfa, 0x23, 0xf5, 0xbd, 0x27, 0x81, 0x8f, 0xbd, 0x1d, 0x15, 0xa9, 0xbd,
  0xf1, 0xc3, 0xf7, 0x3b, 0x22, 0xcf, 0x4d, 0xbd, 0x58, 0x8d, 0x8e, 0x3e,
  0x14, 0x90, 0x1c, 0x3d, 0x45, 0x08, 0x2e, 0x3e, 0x6f, 0x28, 0x52, 0xbd,
  0x26, 0xe1, 0x78, 0xbe, 0x07, 0x17, 0x94, 0x3b, 0xc8, 0x47, 0x4f, 0x3e,
  0xec, 0xc2, 0xc6, 0x3e, 0x92, 0xf1, 0x0f, 0xbe, 0xfc, 0x59, 0x53, 0x40,
  0x2d, 0x3f, 0x6f, 0x3d, 0x6c, 0x94, 0xc1, 0xbd, 0x14, 0xcb, 0x14, 0x3e,
  0x56, 0xaa, 0xb7, 0xbd, 0xc7, 0xdb, 0x0f, 0xbe, 0x6f, 0xc5, 0xae, 0xbe,
  0x5a, 0x7c, 0x48, 0xbe, 0xca, 0x59, 0x87, 0xbc, 0xcd, 0x2e, 0xc6, 0xbe,
  0x9b, 0x28, 0xf8, 0x3c, 0xe8, 0x95, 0xc9, 0xbd, 0xc5, 0x6a, 0xc4, 0xbd,
  0xca, 0xde, 0x96, 0x3e, 0x75, 0x19, 0x8a, 0x3e, 0xff, 0xb7, 0x11, 0x3e,
  0x5e, 0x2c, 0x76, 0x40, 0x54, 0xa7, 0xe6, 0x3d, 0x0d, 0x8f, 0x26, 0xbe,
  0x4a, 0x49, 0xd2, 0x3e, 0x44, 0x22, 0x8c, 0xbd, 0x2e, 0x85, 0x34, 0xbe,
  0xf2, 0x8f, 0xae, 0xbe, 0x5d, 0x9f, 0xf2, 0xbc, 0x41, 0xd7, 0x45, 0xbc,
  0x58, 0xd5, 0xb2, 0x3d, 0x4a, 0x11, 0xaa, 0x3d, 0x60, 0xd5, 0xa0, 0xbe,
  0xd2, 0xff, 0xed, 0x3c, 0x33, 0x5d, 0x8c, 0x3d, 0x28, 0x40, 0x64, 0x3e,
  0x8f, 0xcd, 0x2e, 0xbd, 0x01, 0x82, 0x44, 0x40, 0xbc, 0x07, 0x59, 0x3d,
  0x09, 0x69, 0x03, 0xbe, 0x73, 0xec, 0xd7, 0xbc, 0xb3, 0x25, 0xeb, 0xbd,
  0xfb, 0x4a, 0x91, 0x3e, 0x31, 0x55, 0xa6, 0xbe, 0xbc, 0x5c, 0xd1, 0x3c,
  0x9e, 0xcc, 0x9e, 0xbe, 0x06, 0x10, 0x0b, 0x3e, 0xef, 0xc3, 0xf8, 0xbc,
  0x43, 0xbd, 0x1d, 0xbe, 0xa3, 0xf2, 0x91, 0xbd, 0xb3, 0x27, 0x5a, 0x3d,
  0xb1, 0x40, 0xc4, 0x3d, 0xbd, 0x4f, 0xc3, 0xbd, 0x96, 0xaa, 0x8e, 0x3f,
  0x1b, 0x0a, 0x25, 0xbe, 0x14, 0x75, 0x12, 0xbc, 0x73, 0x51, 0x93, 0xbd,
  0xfc, 0x71, 0xd9, 0x3d, 0xc6, 0xc3, 0x80, 0x3e, 0x0f, 0xf1, 0x38, 0x3f,
  0x7c, 0x73, 0xab, 0x3c, 0xf3, 0x2d, 0x8c, 0x3e, 0x4c, 0x07, 0x91, 0x3c,
  0x49, 0xae, 0x6a, 0x3d, 0x60, 0x0e, 0xa7, 0x39, 0x39, 0x05, 0xb0, 0xbe,
  0x34, 0xb9, 0xee, 0xbc, 0xc7, 0xe8, 0x3c, 0xbd, 0x74, 0xd2, 0x07, 0xbe,
  0x67, 0xb4, 0x19, 0xbe, 0x7c, 0x23, 0xeb, 0xbd, 0x9b, 0xec, 0x24, 0x3d,
  0x9e, 0x88, 0x1a, 0xbe, 0x92, 0x92, 0x35, 0x3d, 0x1e, 0x52, 0x09, 0x3e,
  0x93, 0x90, 0x6a, 0x3e, 0x22, 0x15, 0x67, 0xbd, 0xaf, 0xee, 0x49, 0x3e,
  0xcb, 0x6f, 0x8f, 0xbd, 0xe2, 0xcb, 0x34, 0xbe, 0x9c, 0xc6, 0x58, 0x3e,
  0xf4, 0x6c, 0xae, 0xbe, 0x30, 0x95, 0x92, 0xbc, 0x48, 0x0d, 0x5e, 0xbe,
  0x3f, 0x80, 0xb9, 0xbd, 0x7c, 0x4c, 0xe8, 0xbd, 0x7f, 0xde, 0xec, 0xbd,
  0xf7, 0xcf, 0x55, 0xbd, 0x4f, 0x98, 0x93, 0xbd, 0x65, 0xe6, 0x81, 0x3e,
  0x2e, 0x7e, 0x9d, 0x3b, 0xa3, 0x36, 0x34, 0x3e, 0xda, 0xa9, 0xff, 0xbd,
  0x6e, 0xd6, 0x39, 0xbe, 0x0a, 0x2c, 0x22, 0xbe, 0x00, 0x02, 0x8c, 0x3d,
  0xe6, 0xf2, 0xe6, 0x3e, 0xb4, 0x5f, 0x45, 0xbe, 0x94, 0x76, 0x2e, 0xbd,
  0x28, 0x9a, 0x42, 0xbe, 0x99, 0x32, 0x8b, 0x3d, 0xe8, 0x63, 0xbd, 0x3d,
  0x75, 0xf6, 0x3a, 0x3e, 0xd3, 0x3f, 0x8f, 0x3d, 0xc8, 0x68, 0x1b, 0xbe,
  0xf7, 0xda, 0xfd, 0x3d, 0xeb, 0xca, 0x23, 0x3e, 0x79, 0x0b, 0xb9, 0x3e,
  0x03, 0xff, 0x0c, 0x3e, 0x7b, 0x4d, 0xe4, 0x3d, 0xcf, 0x25, 0xa8, 0xba,
  0x90, 0xdd, 0x01, 0xbe, 0x66, 0x87, 0xcc, 0x3e, 0x2e, 0x73, 0x96, 0xbd,
  0x2b, 0xb7, 0xab, 0x3d, 0x9d, 0x81, 0x40, 0x3c, 0x9c, 0xa1, 0x2e, 0xbe,
  0xd7, 0x9e, 0xca, 0xbc, 0x43, 0x78, 0x0e, 0xbd, 0xf4, 0x04, 0x02, 0x3e,
  0x34, 0x21, 0xfd, 0x3c, 0x00, 0x21, 0xf6, 0x3d, 0x31, 0xc7, 0x29, 0xbd,
  0xd3, 0x4c, 0xa5, 0x3e, 0x38, 0xc5, 0x0d, 0xbe, 0x85, 0x3d, 0x35, 0x3e,
  0x96, 0x13, 0x9f, 0xbd, 0x37, 0x5f, 0x1b, 0x3e, 0x49, 0x9d, 0x9d, 0xbd,
  0x4e, 0x45, 0xa0, 0xbe, 0x3c, 0xfd, 0x67, 0x3d, 0xb7, 0xc3, 0x57, 0xbe,
  0x18, 0x01, 0xd4, 0x3d, 0xa4, 0x14, 0xf9, 0xbd, 0x5e, 0x1d, 0x3e, 0x3e,
  0x7b, 0x46, 0xdc, 0x3d, 0xa5, 0xb6, 0xed, 0xbc, 0x3f, 0x4d, 0xef, 0x3d,
  0xc6, 0xe2, 0xbd, 0xbd, 0x8f, 0xb6, 0xd7, 0x3d, 0x6b, 0x49, 0x40, 0x3e,
  0x81, 0x84, 0xed, 0xbd, 0x4e, 0xee, 0xa1, 0xbd, 0x0f, 0x00, 0x08, 0x3d,
  0xda, 0x9c, 0x41, 0x3e, 0xa5, 0x48, 0xf2, 0xbd, 0x86, 0x9a, 0x0d, 0xbe,
  0x58, 0x86, 0x8f, 0xbe, 0xf2, 0x66, 0x57, 0xbe, 0x2e, 0x9f, 0x00, 0xbe,
  0x00, 0x28, 0x02, 0xbe, 0xf1, 0x14, 0x31, 0xbe, 0xcc, 0xcd, 0x6d, 0xbd,
  0xa8, 0xc5, 0x14, 0x3e, 0xd1, 0xcd, 0x27, 0x3e, 0xc3, 0x86, 0x5c, 0x3e,
  0x5f, 0xc0, 0x0a, 0x3d, 0x49, 0xe5, 0xf9, 0xbd, 0x46, 0x93, 0x00, 0xbe,
  0xbe, 0x8e, 0xac, 0x3e, 0x1e, 0x4d, 0xb6, 0x3d, 0x2e, 0xd7, 0x1e, 0xbe,
  0x02, 0xc3, 0xb1, 0xbc, 0xfb, 0x3c, 0x80, 0xbd, 0x1a, 0xef, 0x91, 0x3b,
  0x18, 0x26, 0x3c, 0x3d, 0x6b, 0xd6, 0x92, 0xbe, 0x25, 0x35, 0x84, 0xbd,
  0x66, 0xfd, 0xff, 0xff, 0x10, 0x00, 0x00, 0x00, 0x07, 0x00, 0x00, 0x00,
  0x14, 0x00, 0x00, 0x00, 0x2c, 0x00, 0x00, 0x00, 0x02, 0x00, 0x00, 0x00,
  0x10, 0x00, 0x00, 0x00, 0x70, 0x00, 0x00, 0x00, 0x17, 0x00, 0x00, 0x00,
  0x73, 0x65, 0x71, 0x75, 0x65, 0x6e, 0x74, 0x69, 0x61, 0x6c, 0x2f, 0x64,
  0x65, 0x6e, 0x73, 0x65, 0x2f, 0x4d, 0x61, 0x74, 0x4d, 0x75, 0x6c, 0x00,
  0xd0, 0xfc, 0xff, 0xff, 0xda, 0xfd, 0xff, 0xff, 0x04, 0x00, 0x00, 0x00,
  0x08, 0x00, 0x00, 0x00, 0xff, 0xff, 0xff, 0xff, 0x70, 0x00, 0x00, 0x00,
  0x00, 0x00, 0x0e, 0x00, 0x18, 0x00, 0x08, 0x00, 0x07, 0x00, 0x0c, 0x00,
  0x10, 0x00, 0x14, 0x00, 0x0e, 0x00, 0x00, 0x00, 0x00, 0x00, 0x00, 0x02,
  0x10, 0x00, 0x00, 0x00, 0x06, 0x00, 0x00, 0x00, 0x10, 0x00, 0x00, 0x00,
  0x2c, 0x00, 0x00, 0x00, 0x01, 0x00, 0x00, 0x00, 0x02, 0x00, 0x00, 0x00,
  0x18, 0x00, 0x00, 0x00, 0x73, 0x65, 0x71, 0x75, 0x65, 0x6e, 0x74, 0x69,
  0x61, 0x6c, 0x2f, 0x66, 0x6c, 0x61, 0x74, 0x74, 0x65, 0x6e, 0x2f, 0x43,
  0x6f, 0x6e, 0x73, 0x74, 0x00, 0x00, 0x00, 0x00, 0x38, 0xfd, 0xff, 0xff,
  0x42, 0xfe, 0xff, 0xff, 0x04, 0x00, 0x00, 0x00, 0x0c, 0x00, 0x00, 0x00,
  0x15, 0x8c, 0xf7, 0xbf, 0x26, 0x84, 0x40, 0xc0, 0x09, 0x77, 0x5c, 0x40,
  0x26, 0xfe, 0xff, 0xff, 0x10, 0x00, 0x00, 0x00, 0x05, 0x00, 0x00, 0x00,
  0x10, 0x00, 0x00, 0x00, 0x44, 0x00, 0x00, 0x00, 0x01, 0x00, 0x00, 0x00,
  0x03, 0x00, 0x00, 0x00, 0x32, 0x00, 0x00, 0x00, 0x73, 0x65, 0x71, 0x75,
  0x65, 0x6e, 0x74, 0x69, 0x61, 0x6c, 0x2f, 0x64, 0x65, 0x6e, 0x73, 0x65,
  0x5f, 0x31, 0x2f, 0x42, 0x69, 0x61, 0x73, 0x41, 0x64, 0x64, 0x2f, 0x52,
  0x65, 0x61, 0x64, 0x56, 0x61, 0x72, 0x69, 0x61, 0x62, 0x6c, 0x65, 0x4f,
  0x70, 0x2f, 0x72, 0x65, 0x73, 0x6f, 0x75, 0x72, 0x63, 0x65, 0x00, 0x00,
  0xa8, 0xfd, 0xff, 0xff, 0xb2, 0xfe, 0xff, 0xff, 0x04, 0x00, 0x00, 0x00,
  0x40, 0x00, 0x00, 0x00, 0x06, 0x2e, 0x97, 0xbf, 0xcf, 0xac, 0xc9, 0xbe,
  0xde, 0xa9, 0x96, 0xbf, 0x19, 0x49, 0x11, 0xbe, 0xc6, 0xcf, 0x89, 0x3f,
  0x6d, 0x45, 0x24, 0xbe, 0xe7, 0xa3, 0x9e, 0xbf, 0x7c, 0x58, 0x96, 0xbe,
  0xfd, 0x44, 0x85, 0xbe, 0x89, 0x8e, 0xf0, 0xbe, 0x2d, 0x12, 0x30, 0xbf,
  0xf7, 0x97, 0xaf, 0xbe, 0x71, 0x54, 0xc0, 0xbf, 0x83, 0xe3, 0x1f, 0x40,
  0x88, 0xda, 0xa9, 0x3e, 0x4d, 0x22, 0x85, 0xbe, 0xca, 0xfe, 0xff, 0xff,
  0x10, 0x00, 0x00, 0x00, 0x04, 0x00, 0x00, 0x00, 0x10, 0x00, 0x00, 0x00,
  0x44, 0x00, 0x00, 0x00, 0x01, 0x00, 0x00, 0x00, 0x10, 0x00, 0x00, 0x00,
  0x30, 0x00, 0x00, 0x00, 0x73, 0x65, 0x71, 0x75, 0x65, 0x6e, 0x74, 0x69,
  0x61, 0x6c, 0x2f, 0x64, 0x65, 0x6e, 0x73, 0x65, 0x2f, 0x42, 0x69, 0x61,
  0x73, 0x41, 0x64, 0x64, 0x2f, 0x52, 0x65, 0x61, 0x64, 0x56, 0x61, 0x72,
  0x69, 0x61, 0x62, 0x6c, 0x65, 0x4f, 0x70, 0x2f, 0x72, 0x65, 0x73, 0x6f,
  0x75, 0x72, 0x63, 0x65, 0x00, 0x00, 0x00, 0x00, 0x4c, 0xfe, 0xff, 0xff,
  0x56, 0xff, 0xff, 0xff, 0x04, 0x00, 0x00, 0x00, 0x40, 0x00, 0x00, 0x00,
  0x3a, 0xaa, 0x2f, 0xbf, 0xd3, 0x9c, 0x9d, 0xbf, 0xa0, 0x84, 0x9c, 0x3d,
  0xa8, 0xaf, 0xfc, 0x3d, 0x32, 0x32, 0xb6, 0xbf, 0x16, 0x70, 0x8b, 0xbd,
  0x5c, 0x37, 0x68, 0xbf, 0x8e, 0x89, 0x98, 0x3e, 0xe5, 0x65, 0x40, 0x3e,
  0x82, 0x16, 0xc4, 0x3e, 0x9e, 0x8f, 0xbf, 0xbf, 0xf0, 0xad, 0x5e, 0xbf,
  0xd2, 0x8c, 0x2f, 0xbf, 0xe2, 0x76, 0x79, 0x40, 0x4e, 0x8a, 0xf2, 0xbf,
  0xcf, 0x34, 0x97, 0x3c, 0x6e, 0xff, 0xff, 0xff, 0x10, 0x00, 0x00, 0x00,
  0x03, 0x00, 0x00, 0x00, 0x10, 0x00, 0x00, 0x00, 0x48, 0x00, 0x00, 0x00,
  0x01, 0x00, 0x00, 0x00, 0x10, 0x00, 0x00, 0x00, 0x33, 0x00, 0x00, 0x00,
  0x73, 0x65, 0x71, 0x75, 0x65, 0x6e, 0x74, 0x69, 0x61, 0x6c, 0x2f, 0x63,
  0x6f, 0x6e, 0x76, 0x32, 0x64, 0x5f, 0x31, 0x2f, 0x42, 0x69, 0x61, 0x73,
  0x41, 0x64, 0x64, 0x2f, 0x52, 0x65, 0x61, 0x64, 0x56, 0x61, 0x72, 0x69,
  0x61, 0x62, 0x6c, 0x65, 0x4f, 0x70, 0x2f, 0x72, 0x65, 0x73, 0x6f, 0x75,
  0x72, 0x63, 0x65, 0x00, 0x04, 0x00, 0x06, 0x00, 0x04, 0x00, 0x00, 0x00,
  0x00, 0x00, 0x06, 0x00, 0x08, 0x00, 0x04, 0x00, 0x06, 0x00, 0x00, 0x00,
  0x04, 0x00, 0x00, 0x00, 0x20, 0x00, 0x00, 0x00, 0x5b, 0x0c, 0x10, 0xc0,
  0x2a, 0x73, 0xbe, 0xbf, 0x3a, 0x7f, 0x27, 0xc0, 0x6e, 0xf4, 0xdf, 0xbf,
  0x72, 0x7a, 0xe1, 0xbf, 0xa0, 0xac, 0x6d, 0x3f, 0xda, 0x45, 0xe5, 0xbe,
  0x7c, 0xe6, 0x01, 0xc0, 0x00, 0x00, 0x0e, 0x00, 0x14, 0x00, 0x04, 0x00,
  0x00, 0x00, 0x08, 0x00, 0x0c, 0x00, 0x10, 0x00, 0x0e, 0x00, 0x00, 0x00,
  0x10, 0x00, 0x00, 0x00, 0x02, 0x00, 0x00, 0x00, 0x10, 0x00, 0x00, 0x00,
  0x44, 0x00, 0x00, 0x00, 0x01, 0x00, 0x00, 0x00, 0x08, 0x00, 0x00, 0x00,
  0x31, 0x00, 0x00, 0x00, 0x73, 0x65, 0x71, 0x75, 0x65, 0x6e, 0x74, 0x69,
  0x61, 0x6c, 0x2f, 0x63, 0x6f, 0x6e, 0x76, 0x32, 0x64, 0x2f, 0x42, 0x69,
  0x61, 0x73, 0x41, 0x64, 0x64, 0x2f, 0x52, 0x65, 0x61, 0x64, 0x56, 0x61,
  0x72, 0x69, 0x61, 0x62, 0x6c, 0x65, 0x4f, 0x70, 0x2f, 0x72, 0x65, 0x73,
  0x6f, 0x75, 0x72, 0x63, 0x65, 0x00, 0x00, 0x00, 0x90, 0xff, 0xff, 0xff,
  0x14, 0x00, 0x18, 0x00, 0x04, 0x00, 0x00, 0x00, 0x08, 0x00, 0x0c, 0x00,
  0x10, 0x00, 0x00, 0x00, 0x00, 0x00, 0x14, 0x00, 0x14, 0x00, 0x00, 0x00,
  0x14, 0x00, 0x00, 0x00, 0x01, 0x00, 0x00, 0x00, 0x20, 0x00, 0x00, 0x00,
  0x44, 0x00, 0x00, 0x00, 0x2c, 0x00, 0x00, 0x00, 0x04, 0x00, 0x00, 0x00,
  0x01, 0x00, 0x00, 0x00, 0x40, 0x00, 0x00, 0x00, 0x03, 0x00, 0x00, 0x00,
  0x01, 0x00, 0x00, 0x00, 0x0c, 0x00, 0x00, 0x00, 0x63, 0x6f, 0x6e, 0x76,
  0x32, 0x64, 0x5f, 0x69, 0x6e, 0x70, 0x75, 0x74, 0x00, 0x00, 0x00, 0x00,
  0x04, 0x00, 0x00, 0x00, 0xff, 0xff, 0xff, 0xff, 0x40, 0x00, 0x00, 0x00,
  0x03, 0x00, 0x00, 0x00, 0x01, 0x00, 0x00, 0x00, 0xfc, 0xff, 0xff, 0xff,
  0x04, 0x00, 0x04, 0x00, 0x04, 0x00, 0x00, 0x00};

unsigned int model_tflite_len = 13052;// Fill the int in `src/model.cc` here
