#include "magic_wand_model_data.h"

// We need to keep the data array aligned on some architectures.
#ifdef __has_attribute
#define HAVE_ATTRIBUTE(x) __has_attribute(x)
#else
#define HAVE_ATTRIBUTE(x) 0
#endif
#if HAVE_ATTRIBUTE(aligned) || (defined(__GNUC__) && !defined(__clang__))
#define DATA_ALIGN_ATTRIBUTE __attribute__((aligned(4)))
#else
#define DATA_ALIGN_ATTRIBUTE
#endif

// Paste the data of the char array in `src/model.cc` here
const unsigned char g_magic_wand_model_data[] DATA_ALIGN_ATTRIBUTE = {
0x1c, 0x00, 0x00, 0x00, 0x54, 0x46, 0x4c, 0x33, 0x14, 0x00, 0x20, 0x00,
  0x04, 0x00, 0x08, 0x00, 0x0c, 0x00, 0x10, 0x00, 0x14, 0x00, 0x00, 0x00,
  0x18, 0x00, 0x1c, 0x00, 0x14, 0x00, 0x00, 0x00, 0x03, 0x00, 0x00, 0x00,
  0x18, 0x00, 0x00, 0x00, 0x2c, 0x00, 0x00, 0x00, 0xd8, 0x00, 0x00, 0x00,
  0x2c, 0x00, 0x00, 0x00, 0x80, 0x00, 0x00, 0x00, 0x78, 0x00, 0x00, 0x00,
  0x05, 0x00, 0x00, 0x00, 0x28, 0x07, 0x00, 0x00, 0x44, 0x06, 0x00, 0x00,
  0xbc, 0x03, 0x00, 0x00, 0xf8, 0x02, 0x00, 0x00, 0xac, 0x01, 0x00, 0x00,
  0x01, 0x00, 0x00, 0x00, 0xd0, 0x00, 0x00, 0x00, 0x14, 0x00, 0x00, 0x00,
  0x98, 0x32, 0x00, 0x00, 0x94, 0x32, 0x00, 0x00, 0x8c, 0x31, 0x00, 0x00,
  0xd8, 0x30, 0x00, 0x00, 0x30, 0x30, 0x00, 0x00, 0xbc, 0x2f, 0x00, 0x00,
  0x50, 0x2f, 0x00, 0x00, 0x00, 0x13, 0x00, 0x00, 0xec, 0x11, 0x00, 0x00,
  0x10, 0x10, 0x00, 0x00, 0xb4, 0x07, 0x00, 0x00, 0x6c, 0x32, 0x00, 0x00,
  0x68, 0x32, 0x00, 0x00, 0x64, 0x32, 0x00, 0x00, 0x60, 0x32, 0x00, 0x00,
  0x5c, 0x32, 0x00, 0x00, 0x58, 0x32, 0x00, 0x00, 0x54, 0x32, 0x00, 0x00,
  0x50, 0x32, 0x00, 0x00, 0x3c, 0x00, 0x00, 0x00, 0x00, 0x00, 0x00, 0x00,
  0x01, 0x00, 0x00, 0x00, 0x0c, 0x00, 0x00, 0x00, 0x08, 0x00, 0x0c, 0x00,
  0x04, 0x00, 0x08, 0x00, 0x08, 0x00, 0x00, 0x00, 0x08, 0x00, 0x00, 0x00,
  0x13, 0x00, 0x00, 0x00, 0x13, 0x00, 0x00, 0x00, 0x6d, 0x69, 0x6e, 0x5f,
  0x72, 0x75, 0x6e, 0x74, 0x69, 0x6d, 0x65, 0x5f, 0x76, 0x65, 0x72, 0x73,
  0x69, 0x6f, 0x6e, 0x00, 0xfa, 0xce, 0xff, 0xff, 0x04, 0x00, 0x00, 0x00,
  0x10, 0x00, 0x00, 0x00, 0x31, 0x2e, 0x35, 0x2e, 0x30, 0x00, 0x00, 0x00,
  0x00, 0x00, 0x00, 0x00, 0x00, 0x00, 0x00, 0x00, 0x0f, 0x00, 0x00, 0x00,
  0x4d, 0x4c, 0x49, 0x52, 0x20, 0x43, 0x6f, 0x6e, 0x76, 0x65, 0x72, 0x74,
  0x65, 0x64, 0x2e, 0x00, 0x00, 0x00, 0x0e, 0x00, 0x18, 0x00, 0x04, 0x00,
  0x08, 0x00, 0x0c, 0x00, 0x10, 0x00, 0x14, 0x00, 0x0e, 0x00, 0x00, 0x00,
  0x14, 0x00, 0x00, 0x00, 0x5c, 0x00, 0x00, 0x00, 0x60, 0x00, 0x00, 0x00,
  0x64, 0x00, 0x00, 0x00, 0x84, 0x00, 0x00, 0x00, 0x12, 0x00, 0x00, 0x00,
  0x58, 0x31, 0x00, 0x00, 0xe8, 0x30, 0x00, 0x00, 0x44, 0x30, 0x00, 0x00,
  0x9c, 0x2f, 0x00, 0x00, 0xf4, 0x2e, 0x00, 0x00, 0x94, 0x2e, 0x00, 0x00,
  0x2c, 0x2e, 0x00, 0x00, 0xd8, 0x11, 0x00, 0x00, 0xbc, 0x10, 0x00, 0x00,
  0xe0, 0x0e, 0x00, 0x00, 0x0c, 0x06, 0x00, 0x00, 0x28, 0x05, 0x00, 0x00,
  0xe8, 0x03, 0x00, 0x00, 0x3c, 0x03, 0x00, 0x00, 0x98, 0x02, 0x00, 0x00,
  0xd4, 0x01, 0x00, 0x00, 0x10, 0x01, 0x00, 0x00, 0x84, 0x00, 0x00, 0x00,
  0x01, 0x00, 0x00, 0x00, 0x00, 0x00, 0x00, 0x00, 0x01, 0x00, 0x00, 0x00,
  0x11, 0x00, 0x00, 0x00, 0x08, 0x00, 0x00, 0x00, 0x74, 0x05, 0x00, 0x00,
  0x94, 0x04, 0x00, 0x00, 0x78, 0x03, 0x00, 0x00, 0xbc, 0x02, 0x00, 0x00,
  0x30, 0x02, 0x00, 0x00, 0x50, 0x01, 0x00, 0x00, 0xa8, 0x00, 0x00, 0x00,
  0x10, 0x00, 0x00, 0x00, 0x04, 0x00, 0x00, 0x00, 0x6d, 0x61, 0x69, 0x6e,
  0x00, 0x00, 0x00, 0x00, 0x7a, 0xff, 0xff, 0xff, 0x00, 0x00, 0x00, 0x09,
  0x04, 0x00, 0x00, 0x00, 0x1c, 0x00, 0x00, 0x00, 0x10, 0x00, 0x00, 0x00,
  0x04, 0x00, 0x00, 0x00, 0xf6, 0xcf, 0xff, 0xff, 0x00, 0x00, 0x80, 0x3f,
  0x01, 0x00, 0x00, 0x00, 0x11, 0x00, 0x00, 0x00, 0x01, 0x00, 0x00, 0x00,
  0x10, 0x00, 0x00, 0x00, 0xa0, 0xfa, 0xff, 0xff, 0x19, 0x00, 0x00, 0x00,
  0x00, 0x00, 0x00, 0x19, 0x01, 0x00, 0x00, 0x00, 0x84, 0xcf, 0xff, 0xff,
  0x14, 0x00, 0x00, 0x00, 0x12, 0x00, 0x00, 0x00, 0x18, 0x00, 0x00, 0x00,
  0x30, 0x00, 0x00, 0x00, 0x20, 0x00, 0x00, 0x00, 0x02, 0x00, 0x00, 0x00,
  0x01, 0x00, 0x00, 0x00, 0x03, 0x00, 0x00, 0x00, 0x08, 0x00, 0x00, 0x00,
  0x49, 0x64, 0x65, 0x6e, 0x74, 0x69, 0x74, 0x79, 0x00, 0x00, 0x00, 0x00,
  0x02, 0x00, 0x00, 0x00, 0xff, 0xff, 0xff, 0xff, 0x03, 0x00, 0x00, 0x00,
  0x68, 0xd0, 0xff, 0xff, 0x00, 0x00, 0x0e, 0x00, 0x18, 0x00, 0x08, 0x00,
  0x0c, 0x00, 0x10, 0x00, 0x07, 0x00, 0x14, 0x00, 0x0e, 0x00, 0x00, 0x00,
  0x00, 0x00, 0x00, 0x08, 0x03, 0x00, 0x00, 0x00, 0x18, 0x00, 0x00, 0x00,
  0x0c, 0x00, 0x00, 0x00, 0x04, 0x00, 0x00, 0x00, 0x84, 0xcf, 0xff, 0xff,
  0x01, 0x00, 0x00, 0x00, 0x10, 0x00, 0x00, 0x00, 0x03, 0x00, 0x00, 0x00,
  0x0f, 0x00, 0x00, 0x00, 0x07, 0x00, 0x00, 0x00, 0x04, 0x00, 0x00, 0x00,
  0x0c, 0xd0, 0xff, 0xff, 0x14, 0x00, 0x00, 0x00, 0x11, 0x00, 0x00, 0x00,
  0x18, 0x00, 0x00, 0x00, 0x5c, 0x00, 0x00, 0x00, 0x4c, 0x00, 0x00, 0x00,
  0x02, 0x00, 0x00, 0x00, 0x01, 0x00, 0x00, 0x00, 0x03, 0x00, 0x00, 0x00,
  0x34, 0x00, 0x00, 0x00, 0x73, 0x65, 0x71, 0x75, 0x65, 0x6e, 0x74, 0x69,
  0x61, 0x6c, 0x2f, 0x64, 0x65, 0x6e, 0x73, 0x65, 0x5f, 0x31, 0x2f, 0x4d,
  0x61, 0x74, 0x4d, 0x75, 0x6c, 0x3b, 0x73, 0x65, 0x71, 0x75, 0x65, 0x6e,
  0x74, 0x69, 0x61, 0x6c, 0x2f, 0x64, 0x65, 0x6e, 0x73, 0x65, 0x5f, 0x31,
  0x2f, 0x42, 0x69, 0x61, 0x73, 0x41, 0x64, 0x64, 0x00, 0x00, 0x00, 0x00,
  0x02, 0x00, 0x00, 0x00, 0xff, 0xff, 0xff, 0xff, 0x03, 0x00, 0x00, 0x00,
  0x0c, 0xd0, 0xff, 0xff, 0xda, 0xfc, 0xff, 0xff, 0x00, 0x00, 0x00, 0x08,
  0x03, 0x00, 0x00, 0x00, 0x24, 0x00, 0x00, 0x00, 0x18, 0x00, 0x00, 0x00,
  0x0c, 0x00, 0x00, 0x00, 0x00, 0x00, 0x06, 0x00, 0x08, 0x00, 0x07, 0x00,
  0x06, 0x00, 0x00, 0x00, 0x00, 0x00, 0x00, 0x01, 0x01, 0x00, 0x00, 0x00,
  0x0f, 0x00, 0x00, 0x00, 0x03, 0x00, 0x00, 0x00, 0x0e, 0x00, 0x00, 0x00,
  0x06, 0x00, 0x00, 0x00, 0x03, 0x00, 0x00, 0x00, 0xe8, 0xfb, 0xff, 0xff,
  0x09, 0x00, 0x00, 0x00, 0x00, 0x00, 0x00, 0x09, 0x01, 0x00, 0x00, 0x00,
  0xcc, 0xd0, 0xff, 0xff, 0x14, 0x00, 0x00, 0x00, 0x10, 0x00, 0x00, 0x00,
  0x18, 0x00, 0x00, 0x00, 0x6c, 0x00, 0x00, 0x00, 0x5c, 0x00, 0x00, 0x00,
  0x02, 0x00, 0x00, 0x00, 0x01, 0x00, 0x00, 0x00, 0x10, 0x00, 0x00, 0x00,
  0x46, 0x00, 0x00, 0x00, 0x73, 0x65, 0x71, 0x75, 0x65, 0x6e, 0x74, 0x69,
  0x61, 0x6c, 0x2f, 0x64, 0x65, 0x6e, 0x73, 0x65, 0x2f, 0x4d, 0x61, 0x74,
  0x4d, 0x75, 0x6c, 0x3b, 0x73, 0x65, 0x71, 0x75, 0x65, 0x6e, 0x74, 0x69,
  0x61, 0x6c, 0x2f, 0x64, 0x65, 0x6e, 0x73, 0x65, 0x2f, 0x52, 0x65, 0x6c,
  0x75, 0x3b, 0x73, 0x65, 0x71, 0x75, 0x65, 0x6e, 0x74, 0x69, 0x61, 0x6c,
  0x2f, 0x64, 0x65, 0x6e, 0x73, 0x65, 0x2f, 0x42, 0x69, 0x61, 0x73, 0x41,
  0x64, 0x64, 0x00, 0x00, 0x02, 0x00, 0x00, 0x00, 0xff, 0xff, 0xff, 0xff,
  0x10, 0x00, 0x00, 0x00, 0xec, 0xd1, 0xff, 0xff, 0x00, 0x00, 0x0a, 0x00,
  0x10, 0x00, 0x04, 0x00, 0x08, 0x00, 0x0c, 0x00, 0x0a, 0x00, 0x00, 0x00,
  0x02, 0x00, 0x00, 0x00, 0x10, 0x00, 0x00, 0x00, 0x04, 0x00, 0x00, 0x00,
  0x01, 0x00, 0x00, 0x00, 0x0e, 0x00, 0x00, 0x00, 0x02, 0x00, 0x00, 0x00,
  0x0d, 0x00, 0x00, 0x00, 0x05, 0x00, 0x00, 0x00, 0xa8, 0xfc, 0xff, 0xff,
  0x16, 0x00, 0x00, 0x00, 0x00, 0x00, 0x00, 0x16, 0x01, 0x00, 0x00, 0x00,
  0x8c, 0xd1, 0xff, 0xff, 0x14, 0x00, 0x00, 0x00, 0x0f, 0x00, 0x00, 0x00,
  0x18, 0x00, 0x00, 0x00, 0x40, 0x00, 0x00, 0x00, 0x30, 0x00, 0x00, 0x00,
  0x02, 0x00, 0x00, 0x00, 0x01, 0x00, 0x00, 0x00, 0x70, 0x00, 0x00, 0x00,
  0x1a, 0x00, 0x00, 0x00, 0x73, 0x65, 0x71, 0x75, 0x65, 0x6e, 0x74, 0x69,
  0x61, 0x6c, 0x2f, 0x66, 0x6c, 0x61, 0x74, 0x74, 0x65, 0x6e, 0x2f, 0x52,
  0x65, 0x73, 0x68, 0x61, 0x70, 0x65, 0x00, 0x00, 0x02, 0x00, 0x00, 0x00,
  0xff, 0xff, 0xff, 0xff, 0x70, 0x00, 0x00, 0x00, 0x70, 0xd1, 0xff, 0xff,
  0x3e, 0xfe, 0xff, 0xff, 0x00, 0x00, 0x00, 0x05, 0x01, 0x00, 0x00, 0x00,
  0x38, 0x00, 0x00, 0x00, 0x2c, 0x00, 0x00, 0x00, 0x14, 0x00, 0x00, 0x00,
  0x00, 0x00, 0x0e, 0x00, 0x14, 0x00, 0x00, 0x00, 0x10, 0x00, 0x0c, 0x00,
  0x08, 0x00, 0x04, 0x00, 0x0e, 0x00, 0x00, 0x00, 0x03, 0x00, 0x00, 0x00,
  0x01, 0x00, 0x00, 0x00, 0x03, 0x00, 0x00, 0x00, 0x01, 0x00, 0x00, 0x00,
  0x01, 0x00, 0x00, 0x00, 0x0d, 0x00, 0x00, 0x00, 0x01, 0x00, 0x00, 0x00,
  0x0c, 0x00, 0x00, 0x00, 0x2c, 0xd2, 0xff, 0xff, 0x14, 0x00, 0x00, 0x00,
  0x0e, 0x00, 0x00, 0x00, 0x20, 0x00, 0x00, 0x00, 0x58, 0x00, 0x00, 0x00,
  0x40, 0x00, 0x00, 0x00, 0x04, 0x00, 0x00, 0x00, 0x01, 0x00, 0x00, 0x00,
  0x07, 0x00, 0x00, 0x00, 0x01, 0x00, 0x00, 0x00, 0x10, 0x00, 0x00, 0x00,
  0x22, 0x00, 0x00, 0x00, 0x73, 0x65, 0x71, 0x75, 0x65, 0x6e, 0x74, 0x69,
  0x61, 0x6c, 0x2f, 0x6d, 0x61, 0x78, 0x5f, 0x70, 0x6f, 0x6f, 0x6c, 0x69,
  0x6e, 0x67, 0x32, 0x64, 0x5f, 0x31, 0x2f, 0x4d, 0x61, 0x78, 0x50, 0x6f,
  0x6f, 0x6c, 0x00, 0x00, 0x04, 0x00, 0x00, 0x00, 0xff, 0xff, 0xff, 0xff,
  0x07, 0x00, 0x00, 0x00, 0x01, 0x00, 0x00, 0x00, 0x10, 0x00, 0x00, 0x00,
  0x28, 0xd2, 0xff, 0xff, 0x1a, 0xfe, 0xff, 0xff, 0x00, 0x00, 0x00, 0x01,
  0x24, 0x00, 0x00, 0x00, 0x18, 0x00, 0x00, 0x00, 0x04, 0x00, 0x00, 0x00,
  0x0c, 0xfe, 0xff, 0xff, 0x01, 0x00, 0x00, 0x00, 0x01, 0x00, 0x00, 0x00,
  0x00, 0x00, 0x00, 0x01, 0x01, 0x00, 0x00, 0x00, 0x0c, 0x00, 0x00, 0x00,
  0x03, 0x00, 0x00, 0x00, 0x0b, 0x00, 0x00, 0x00, 0x09, 0x00, 0x00, 0x00,
  0x02, 0x00, 0x00, 0x00, 0xd4, 0xd2, 0xff, 0xff, 0x14, 0x00, 0x00, 0x00,
  0x0d, 0x00, 0x00, 0x00, 0x20, 0x00, 0x00, 0x00, 0xb8, 0x00, 0x00, 0x00,
  0xa0, 0x00, 0x00, 0x00, 0x04, 0x00, 0x00, 0x00, 0x01, 0x00, 0x00, 0x00,
  0x15, 0x00, 0x00, 0x00, 0x01, 0x00, 0x00, 0x00, 0x10, 0x00, 0x00, 0x00,
  0x83, 0x00, 0x00, 0x00, 0x73, 0x65, 0x71, 0x75, 0x65, 0x6e, 0x74, 0x69,
  0x61, 0x6c, 0x2f, 0x63, 0x6f, 0x6e, 0x76, 0x32, 0x64, 0x5f, 0x31, 0x2f,
  0x52, 0x65, 0x6c, 0x75, 0x3b, 0x73, 0x65, 0x71, 0x75, 0x65, 0x6e, 0x74,
  0x69, 0x61, 0x6c, 0x2f, 0x63, 0x6f, 0x6e, 0x76, 0x32, 0x64, 0x5f, 0x31,
  0x2f, 0x42, 0x69, 0x61, 0x73, 0x41, 0x64, 0x64, 0x3b, 0x73, 0x65, 0x71,
  0x75, 0x65, 0x6e, 0x74, 0x69, 0x61, 0x6c, 0x2f, 0x63, 0x6f, 0x6e, 0x76,
  0x32, 0x64, 0x5f, 0x31, 0x2f, 0x43, 0x6f, 0x6e, 0x76, 0x32, 0x44, 0x3b,
  0x73, 0x65, 0x71, 0x75, 0x65, 0x6e, 0x74, 0x69, 0x61, 0x6c, 0x2f, 0x63,
  0x6f, 0x6e, 0x76, 0x32, 0x64, 0x5f, 0x31, 0x2f, 0x42, 0x69, 0x61, 0x73,
  0x41, 0x64, 0x64, 0x2f, 0x52, 0x65, 0x61, 0x64, 0x56, 0x61, 0x72, 0x69,
  0x61, 0x62, 0x6c, 0x65, 0x4f, 0x70, 0x2f, 0x72, 0x65, 0x73, 0x6f, 0x75,
  0x72, 0x63, 0x65, 0x00, 0x04, 0x00, 0x00, 0x00, 0xff, 0xff, 0xff, 0xff,
  0x15, 0x00, 0x00, 0x00, 0x01, 0x00, 0x00, 0x00, 0x10, 0x00, 0x00, 0x00,
  0x40, 0xd4, 0xff, 0xff, 0x00, 0x00, 0x0e, 0x00, 0x1a, 0x00, 0x08, 0x00,
  0x0c, 0x00, 0x10, 0x00, 0x07, 0x00, 0x14, 0x00, 0x0e, 0x00, 0x00, 0x00,
  0x00, 0x00, 0x00, 0x05, 0x01, 0x00, 0x00, 0x00, 0x3c, 0x00, 0x00, 0x00,
  0x30, 0x00, 0x00, 0x00, 0x14, 0x00, 0x00, 0x00, 0x00, 0x00, 0x0e, 0x00,
  0x18, 0x00, 0x17, 0x00, 0x10, 0x00, 0x0c, 0x00, 0x08, 0x00, 0x04, 0x00,
  0x0e, 0x00, 0x00, 0x00, 0x03, 0x00, 0x00, 0x00, 0x03, 0x00, 0x00, 0x00,
  0x03, 0x00, 0x00, 0x00, 0x03, 0x00, 0x00, 0x00, 0x00, 0x00, 0x00, 0x01,
  0x01, 0x00, 0x00, 0x00, 0x0b, 0x00, 0x00, 0x00, 0x01, 0x00, 0x00, 0x00,
  0x0a, 0x00, 0x00, 0x00, 0x2c, 0xff, 0xff, 0xff, 0x11, 0x00, 0x00, 0x00,
  0x00, 0x00, 0x00, 0x11, 0x01, 0x00, 0x00, 0x00, 0x10, 0xd4, 0xff, 0xff,
  0x14, 0x00, 0x00, 0x00, 0x0c, 0x00, 0x00, 0x00, 0x20, 0x00, 0x00, 0x00,
  0x58, 0x00, 0x00, 0x00, 0x40, 0x00, 0x00, 0x00, 0x04, 0x00, 0x00, 0x00,
  0x01, 0x00, 0x00, 0x00, 0x15, 0x00, 0x00, 0x00, 0x01, 0x00, 0x00, 0x00,
  0x08, 0x00, 0x00, 0x00, 0x20, 0x00, 0x00, 0x00, 0x73, 0x65, 0x71, 0x75,
  0x65, 0x6e, 0x74, 0x69, 0x61, 0x6c, 0x2f, 0x6d, 0x61, 0x78, 0x5f, 0x70,
  0x6f, 0x6f, 0x6c, 0x69, 0x6e, 0x67, 0x32, 0x64, 0x2f, 0x4d, 0x61, 0x78,
  0x50, 0x6f, 0x6f, 0x6c, 0x00, 0x00, 0x00, 0x00, 0x04, 0x00, 0x00, 0x00,
  0xff, 0xff, 0xff, 0xff, 0x15, 0x00, 0x00, 0x00, 0x01, 0x00, 0x00, 0x00,
  0x08, 0x00, 0x00, 0x00, 0x1c, 0xd5, 0xff, 0xff, 0x00, 0x00, 0x0e, 0x00,
  0x14, 0x00, 0x00, 0x00, 0x08, 0x00, 0x0c, 0x00, 0x07, 0x00, 0x10, 0x00,
  0x0e, 0x00, 0x00, 0x00, 0x00, 0x00, 0x00, 0x01, 0x30, 0x00, 0x00, 0x00,
  0x24, 0x00, 0x00, 0x00, 0x10, 0x00, 0x00, 0x00, 0x0c, 0x00, 0x10, 0x00,
  0x00, 0x00, 0x04, 0x00, 0x08, 0x00, 0x0f, 0x00, 0x0c, 0x00, 0x00, 0x00,
  0x01, 0x00, 0x00, 0x00, 0x01, 0x00, 0x00, 0x00, 0x00, 0x00, 0x00, 0x01,
  0x01, 0x00, 0x00, 0x00, 0x0a, 0x00, 0x00, 0x00, 0x03, 0x00, 0x00, 0x00,
  0x00, 0x00, 0x00, 0x00, 0x08, 0x00, 0x00, 0x00, 0x01, 0x00, 0x00, 0x00,
  0x0c, 0x00, 0x10, 0x00, 0x0b, 0x00, 0x00, 0x00, 0x0c, 0x00, 0x04, 0x00,
  0x0c, 0x00, 0x00, 0x00, 0x03, 0x00, 0x00, 0x00, 0x00, 0x00, 0x00, 0x03,
  0x01, 0x00, 0x00, 0x00, 0xf0, 0xd4, 0xff, 0xff, 0x14, 0x00, 0x00, 0x00,
  0x0b, 0x00, 0x00, 0x00, 0x20, 0x00, 0x00, 0x00, 0xb0, 0x00, 0x00, 0x00,
  0x98, 0x00, 0x00, 0x00, 0x04, 0x00, 0x00, 0x00, 0x01, 0x00, 0x00, 0x00,
  0x40, 0x00, 0x00, 0x00, 0x03, 0x00, 0x00, 0x00, 0x08, 0x00, 0x00, 0x00,
  0x7b, 0x00, 0x00, 0x00, 0x73, 0x65, 0x71, 0x75, 0x65, 0x6e, 0x74, 0x69,
  0x61, 0x6c, 0x2f, 0x63, 0x6f, 0x6e, 0x76, 0x32, 0x64, 0x2f, 0x52, 0x65,
  0x6c, 0x75, 0x3b, 0x73, 0x65, 0x71, 0x75, 0x65, 0x6e, 0x74, 0x69, 0x61,
  0x6c, 0x2f, 0x63, 0x6f, 0x6e, 0x76, 0x32, 0x64, 0x2f, 0x42, 0x69, 0x61,
  0x73, 0x41, 0x64, 0x64, 0x3b, 0x73, 0x65, 0x71, 0x75, 0x65, 0x6e, 0x74,
  0x69, 0x61, 0x6c, 0x2f, 0x63, 0x6f, 0x6e, 0x76, 0x32, 0x64, 0x2f, 0x43,
  0x6f, 0x6e, 0x76, 0x32, 0x44, 0x3b, 0x73, 0x65, 0x71, 0x75, 0x65, 0x6e,
  0x74, 0x69, 0x61, 0x6c, 0x2f, 0x63, 0x6f, 0x6e, 0x76, 0x32, 0x64, 0x2f,
  0x42, 0x69, 0x61, 0x73, 0x41, 0x64, 0x64, 0x2f, 0x52, 0x65, 0x61, 0x64,
  0x56, 0x61, 0x72, 0x69, 0x61, 0x62, 0x6c, 0x65, 0x4f, 0x70, 0x2f, 0x72,
  0x65, 0x73, 0x6f, 0x75, 0x72, 0x63, 0x65, 0x00, 0x04, 0x00, 0x00, 0x00,
  0xff, 0xff, 0xff, 0xff, 0x40, 0x00, 0x00, 0x00, 0x03, 0x00, 0x00, 0x00,
  0x08, 0x00, 0x00, 0x00, 0x44, 0xd5, 0xff, 0xff, 0x4e, 0xd6, 0xff, 0xff,
  0x04, 0x00, 0x00, 0x00, 0x00, 0x08, 0x00, 0x00, 0x7f, 0xc9, 0x31, 0x3e,
  0x46, 0x2c, 0x83, 0x3e, 0x43, 0x29, 0xd9, 0xbd, 0x38, 0x91, 0xd8, 0x3e,
  0xa0, 0xbf, 0xf6, 0xbd, 0x02, 0xed, 0xa1, 0x3e, 0x6d, 0x86, 0x89, 0x3d,
  0xa5, 0xa2, 0xc7, 0x3d, 0xf6, 0x35, 0xf1, 0xbd, 0x73, 0x43, 0x21, 0xbb,
  0x8e, 0x26, 0xb6, 0xbd, 0x65, 0x27, 0x61, 0xbe, 0x19, 0xe4, 0x61, 0xbe,
  0x0c, 0x40, 0x2e, 0xbd, 0x0a, 0xdd, 0x4b, 0xbd, 0xdb, 0x6a, 0xc9, 0xbb,
  0x0e, 0xbb, 0xf9, 0xbd, 0xc2, 0x34, 0x42, 0xbe, 0x34, 0xf3, 0x08, 0xbd,
  0x39, 0xe9, 0x10, 0xbe, 0x75, 0x04, 0x25, 0xbe, 0xaf, 0x33, 0x20, 0xbe,
  0x47, 0x44, 0x88, 0x3e, 0x4d, 0x06, 0x17, 0xbe, 0xa3, 0xb3, 0x85, 0xbe,
  0xe7, 0xc8, 0x85, 0xbe, 0x1d, 0xb4, 0xe5, 0x3d, 0x51, 0xfa, 0xaa, 0xbd,
  0x7a, 0x15, 0x46, 0xbd, 0xfb, 0xf0, 0x55, 0xbe, 0x66, 0x68, 0x8b, 0x3b,
  0x90, 0xbb, 0x24, 0xbd, 0x3c, 0x49, 0xfc, 0xbd, 0x18, 0xab, 0xd7, 0xbc,
  0x94, 0xc6, 0xbb, 0xbd, 0x4b, 0x6e, 0xb2, 0x3e, 0xad, 0x58, 0xa7, 0xbd,
  0xa8, 0x24, 0x96, 0x3c, 0xbb, 0xde, 0x1e, 0x3e, 0x04, 0x21, 0xb6, 0x3e,
  0xa2, 0x55, 0xb1, 0xbe, 0x59, 0xd9, 0x64, 0xbe, 0x34, 0x21, 0x07, 0x3e,
  0xdb, 0x92, 0x3a, 0xbd, 0x8c, 0xbd, 0x2a, 0xbe, 0x50, 0xb5, 0xab, 0xbb,
  0x03, 0x35, 0x7b, 0x3e, 0x37, 0x1a, 0xbf, 0x3d, 0x4a, 0x02, 0x01, 0xbf,
  0x11, 0x3c, 0xfa, 0xbe, 0x0d, 0x32, 0x49, 0xbd, 0x89, 0xd9, 0x32, 0x3b,
  0xb7, 0xad, 0x96, 0xbe, 0x9b, 0xcf, 0x82, 0xbd, 0xf6, 0xc5, 0x6e, 0xbd,
  0xde, 0x51, 0x98, 0x3e, 0xef, 0x87, 0x9a, 0x3d, 0x00, 0xea, 0xf2, 0x3c,
  0xee, 0x0c, 0x39, 0xbb, 0x9d, 0x38, 0xf6, 0xbd, 0x05, 0xa2, 0x81, 0xbe,
  0xfe, 0x9d, 0x77, 0x3e, 0xbf, 0xcb, 0x38, 0x3d, 0xf2, 0x8c, 0x97, 0x3d,
  0xee, 0x16, 0x8d, 0xbe, 0xdd, 0xc7, 0xa4, 0x3c, 0x81, 0x7b, 0xc9, 0xbc,
  0x1a, 0x0c, 0x13, 0x3d, 0xa1, 0x7e, 0x2c, 0xbe, 0xcd, 0x5c, 0x53, 0xbe,
  0x56, 0xf4, 0xd6, 0x3e, 0xa3, 0x14, 0xe6, 0x3d, 0xc5, 0x13, 0xf9, 0xbe,
  0xc5, 0x70, 0x32, 0xbe, 0xe8, 0x61, 0x40, 0xbe, 0x08, 0x00, 0x31, 0xbe,
  0xd8, 0x44, 0x59, 0xbe, 0xf7, 0x61, 0xb4, 0xbd, 0x6e, 0xa3, 0x9f, 0xbe,
  0x01, 0x92, 0x32, 0x3e, 0xff, 0x6a, 0xaa, 0x3b, 0x5f, 0x64, 0x03, 0xbe,
  0x74, 0xa3, 0x1b, 0x3e, 0x1e, 0x0e, 0x4f, 0xbd, 0xf2, 0x05, 0xb2, 0xbc,
  0xf1, 0x82, 0xca, 0xbc, 0x78, 0xbb, 0x22, 0xbf, 0x17, 0x25, 0xfc, 0xbe,
  0x33, 0x5b, 0xcd, 0xbd, 0x83, 0x21, 0xdf, 0xbd, 0x1f, 0xed, 0x43, 0xbd,
  0x78, 0x66, 0xbf, 0x3d, 0xdc, 0xbd, 0x92, 0xbd, 0x79, 0xcf, 0x56, 0xbc,
  0xe4, 0xfc, 0xf3, 0xbe, 0x86, 0x9c, 0xfa, 0xbd, 0x6e, 0x81, 0x54, 0x3d,
  0x4c, 0x7e, 0x33, 0xbd, 0x35, 0xd8, 0x0b, 0xbf, 0x92, 0x03, 0xaa, 0xbd,
  0x5c, 0x8c, 0xf5, 0xbc, 0xe2, 0xf1, 0x0f, 0xbe, 0x74, 0x20, 0xdf, 0x3e,
  0x2f, 0xa8, 0xd5, 0xbe, 0xf0, 0x1a, 0xaa, 0xbd, 0xab, 0xe6, 0x19, 0x3e,
  0x23, 0xb7, 0x14, 0x3f, 0xdb, 0x35, 0x0f, 0x3b, 0xed, 0x1e, 0xb3, 0xbd,
  0x36, 0xae, 0x08, 0xbe, 0xde, 0x60, 0xcf, 0xbd, 0x61, 0xb6, 0x19, 0x3d,
  0x01, 0xa2, 0x59, 0xbd, 0xf7, 0x44, 0xbb, 0x3d, 0x0b, 0xed, 0xb5, 0xbd,
  0x6f, 0x4a, 0x80, 0xbd, 0x0e, 0xff, 0x85, 0xbd, 0x13, 0x64, 0xc5, 0x3b,
  0x63, 0xf4, 0x97, 0x3e, 0x12, 0x7b, 0xf9, 0x3d, 0x09, 0xba, 0x96, 0xbe,
  0x56, 0x13, 0x94, 0xbe, 0x7f, 0xad, 0x2b, 0xbe, 0x92, 0xfc, 0xd9, 0xbc,
  0xb7, 0xd1, 0x8b, 0xbe, 0x01, 0x1b, 0xa4, 0xbd, 0x29, 0x92, 0x59, 0xbd,
  0x65, 0x27, 0x41, 0xbf, 0xf1, 0x91, 0x21, 0xbf, 0xd9, 0xed, 0xa4, 0xbe,
  0xc2, 0x52, 0x2a, 0x3e, 0x5d, 0x66, 0x62, 0x3e, 0xc9, 0xde, 0x83, 0xbe,
  0x13, 0x38, 0x8d, 0xbe, 0xaa, 0xa1, 0x3a, 0x3f, 0xdf, 0x44, 0x7c, 0x3e,
  0x94, 0xa8, 0x6d, 0xbe, 0x41, 0x7a, 0xf0, 0xbd, 0x1f, 0x27, 0xd2, 0xbd,
  0x16, 0x01, 0x3e, 0xbe, 0x1e, 0x90, 0xa1, 0xbe, 0x02, 0x03, 0xf7, 0xbd,
  0xf8, 0x70, 0xf6, 0xbe, 0x6c, 0x0b, 0x67, 0x3e, 0xc9, 0x9b, 0x8d, 0x3c,
  0x49, 0xde, 0x31, 0x3d, 0x0f, 0xf9, 0x34, 0xbd, 0x66, 0x5c, 0xb1, 0xbe,
  0x31, 0xbd, 0x16, 0xbe, 0xfc, 0x79, 0xff, 0xbc, 0xde, 0x49, 0x88, 0x3e,
  0x5c, 0x10, 0x49, 0x3d, 0x0b, 0xda, 0x53, 0x3e, 0x29, 0x09, 0x80, 0x3d,
  0xc7, 0xef, 0x35, 0xbe, 0x54, 0x17, 0x2a, 0xbe, 0x47, 0x11, 0xba, 0xbb,
  0x04, 0xe0, 0x22, 0x3d, 0x59, 0xf0, 0x41, 0x3e, 0x7b, 0xb7, 0x4f, 0xbe,
  0x52, 0x73, 0xaa, 0xbd, 0xde, 0xba, 0x14, 0xbe, 0x62, 0xb3, 0xfd, 0xbd,
  0xef, 0xaa, 0x35, 0xbe, 0x6c, 0xf0, 0x71, 0xbe, 0x9e, 0xaa, 0x8f, 0xbe,
  0xbc, 0x20, 0x69, 0xbe, 0xe2, 0xab, 0x38, 0x3e, 0xbd, 0x7b, 0x38, 0xbe,
  0x06, 0xd0, 0x38, 0xbe, 0x90, 0xdd, 0x37, 0x3e, 0x0b, 0xb7, 0xfc, 0x3d,
  0xfb, 0x58, 0xa1, 0xbd, 0x90, 0xbd, 0x55, 0xbe, 0x2e, 0x2d, 0x08, 0x3e,
  0x15, 0x6a, 0xc7, 0xbd, 0x08, 0x29, 0x14, 0x3e, 0x29, 0xf5, 0x28, 0x3e,
  0xc4, 0x05, 0x88, 0x3d, 0x1f, 0x4b, 0xdc, 0x3d, 0x55, 0xf0, 0x92, 0x3d,
  0xee, 0xf3, 0xa1, 0x3d, 0x1b, 0x99, 0x8f, 0xbe, 0xeb, 0xab, 0x66, 0x3c,
  0x52, 0x31, 0x06, 0x3e, 0x6f, 0x7d, 0xc7, 0x3e, 0x43, 0x24, 0x0a, 0x3e,
  0x1b, 0xdd, 0x0f, 0xbc, 0xb2, 0x4d, 0xdc, 0x3d, 0x11, 0x75, 0x1a, 0x3e,
  0x80, 0x6c, 0xd1, 0x3c, 0x29, 0x5e, 0x84, 0x3e, 0x5d, 0xe9, 0x3e, 0x3e,
  0xf7, 0x58, 0x0e, 0x3e, 0x8c, 0x2a, 0x71, 0xbe, 0x4b, 0xf3, 0xb4, 0x3d,
  0x29, 0x17, 0x6a, 0x3d, 0xd4, 0x84, 0xb4, 0x3d, 0xc7, 0x23, 0x6a, 0x3e,
  0x26, 0x30, 0x19, 0xbe, 0xfa, 0xbb, 0x31, 0x3e, 0x5b, 0x7f, 0x19, 0xbe,
  0x79, 0x75, 0x27, 0xbe, 0x76, 0x65, 0xcb, 0xbd, 0x7e, 0xe2, 0x5e, 0xbe,
  0x1a, 0xae, 0xb1, 0xbe, 0xaf, 0x87, 0x1e, 0xbe, 0x5a, 0x52, 0xee, 0xbc,
  0x7e, 0x80, 0xf2, 0x3c, 0x9f, 0xca, 0x93, 0xbe, 0x86, 0xde, 0xa3, 0x3d,
  0x9f, 0x67, 0x02, 0xbd, 0x64, 0xa9, 0xe6, 0x3a, 0xe0, 0xca, 0x73, 0x3c,
  0xed, 0xce, 0xc2, 0xbd, 0xe2, 0x80, 0x4d, 0xbe, 0x88, 0x10, 0x4d, 0x3d,
  0xbd, 0xe1, 0x9a, 0xbd, 0xfe, 0x56, 0x4a, 0xbe, 0xb4, 0x5a, 0xe0, 0xbd,
  0x4c, 0x2a, 0x20, 0xbe, 0x10, 0xaa, 0x19, 0xbe, 0xd9, 0xe1, 0x64, 0xbe,
  0xcc, 0x57, 0x8b, 0xbe, 0x70, 0xe2, 0x20, 0x3d, 0xfb, 0x1d, 0x5e, 0x3c,
  0x38, 0x15, 0x00, 0xbe, 0x0f, 0x06, 0x12, 0xbe, 0xdc, 0xfb, 0x0a, 0x3e,
  0x85, 0x0e, 0xde, 0x3e, 0x72, 0x05, 0xc9, 0x3c, 0x3b, 0xe7, 0x35, 0xbd,
  0xc9, 0x73, 0x93, 0xbd, 0x9e, 0xb4, 0x1b, 0x3c, 0x88, 0xb0, 0xcb, 0xbb,
  0x45, 0xe5, 0x04, 0xbe, 0x92, 0x21, 0x04, 0x3a, 0x16, 0xa2, 0x10, 0xbd,
  0x89, 0x33, 0x83, 0xbd, 0x1e, 0xb7, 0xa6, 0xbd, 0x2b, 0x76, 0x08, 0xbe,
  0x01, 0xdc, 0x42, 0xbe, 0x6d, 0xbf, 0x1a, 0x3e, 0x45, 0xd2, 0xef, 0x3d,
  0x98, 0x21, 0x32, 0xbd, 0xf6, 0x7b, 0x29, 0x3e, 0x1a, 0x58, 0x53, 0x3e,
  0x41, 0x57, 0x77, 0x3c, 0xc2, 0xc4, 0x25, 0xbe, 0xa0, 0xe1, 0x82, 0xbe,
  0x3d, 0x8e, 0xbf, 0xbd, 0x6e, 0xbb, 0x09, 0xbd, 0x9e, 0xea, 0x6e, 0x3d,
  0x6e, 0x50, 0x06, 0xbe, 0xc9, 0x07, 0xc0, 0x3c, 0x34, 0x3a, 0x4c, 0xbd,
  0x89, 0xb5, 0x1a, 0xbd, 0x76, 0xa6, 0x09, 0x3e, 0xdf, 0x69, 0x62, 0x3e,
  0x03, 0x14, 0xf2, 0x3c, 0x7f, 0x37, 0x35, 0xbe, 0x32, 0xee, 0x09, 0xbe,
  0x00, 0xac, 0x6c, 0xbe, 0x64, 0x12, 0x6f, 0xbe, 0x4a, 0x66, 0xde, 0xbe,
  0x09, 0x7e, 0x90, 0xbe, 0xf2, 0x77, 0xea, 0x3e, 0xbd, 0x9a, 0xcf, 0x3e,
  0x92, 0xa7, 0xb1, 0xbe, 0x2b, 0x39, 0x26, 0xbe, 0xd1, 0x98, 0x8f, 0x3e,
  0xf8, 0x61, 0xc6, 0x3e, 0x47, 0x24, 0x5d, 0xbd, 0x25, 0xd8, 0x18, 0xbe,
  0x77, 0x11, 0xdd, 0xbd, 0x13, 0xf6, 0x66, 0xbe, 0xe7, 0x1a, 0x48, 0xbe,
  0x8e, 0x73, 0x0d, 0xbd, 0x4c, 0x28, 0xd8, 0xbd, 0x45, 0xbd, 0xb2, 0x3e,
  0x96, 0xcc, 0x5b, 0x3e, 0x4d, 0xa9, 0x3b, 0x3e, 0xc6, 0x2f, 0xf9, 0xbd,
  0x67, 0x14, 0x6b, 0xbe, 0x83, 0x4f, 0x11, 0xbd, 0xc2, 0xef, 0x23, 0xbd,
  0xc1, 0x6a, 0xa0, 0xbd, 0x82, 0xf9, 0x6b, 0xbe, 0x49, 0xd8, 0x16, 0xbd,
  0xd9, 0x0f, 0xe2, 0xbc, 0x4a, 0xb4, 0xaa, 0x3d, 0x38, 0x41, 0x60, 0xbe,
  0x1d, 0x2f, 0x07, 0xbe, 0xd8, 0xe5, 0xc8, 0xbe, 0x3d, 0xf3, 0x9e, 0x3e,
  0x39, 0xec, 0xd8, 0xbe, 0xeb, 0x38, 0x2a, 0xbf, 0x99, 0xad, 0x19, 0xbf,
  0xbc, 0x61, 0x15, 0x3f, 0x6e, 0x30, 0xb7, 0x3e, 0xd9, 0xb3, 0xd3, 0xbe,
  0x6a, 0x20, 0xac, 0xbe, 0x28, 0x38, 0x8e, 0x3d, 0x4a, 0x3c, 0xbf, 0xbc,
  0x32, 0x01, 0xb1, 0x3d, 0x62, 0x0f, 0xfc, 0x3d, 0x58, 0xc9, 0x74, 0xbe,
  0x43, 0xbf, 0xde, 0xbe, 0x3a, 0x0e, 0xbf, 0xbd, 0xb5, 0x6b, 0xa1, 0xba,
  0x9e, 0x09, 0x75, 0x3d, 0xfe, 0x1e, 0x58, 0x3e, 0x96, 0xe9, 0x95, 0x3d,
  0x7c, 0x0c, 0x14, 0x3e, 0x92, 0x54, 0x80, 0xbe, 0xc3, 0x48, 0x5c, 0xbe,
  0x7a, 0x6f, 0xe6, 0xbd, 0xc0, 0xb7, 0xfb, 0x3c, 0xd3, 0xaf, 0x83, 0x3e,
  0x60, 0x95, 0x57, 0xbc, 0x0b, 0x6e, 0x14, 0xbe, 0x91, 0x8e, 0x06, 0xbd,
  0xf3, 0xbc, 0xe0, 0xbe, 0xf1, 0x4d, 0xa5, 0xbe, 0x58, 0x8a, 0xb8, 0xbb,
  0x62, 0x55, 0x10, 0xbe, 0x8d, 0xd2, 0xbb, 0xbe, 0x54, 0xf6, 0x12, 0x3d,
  0xa7, 0xa0, 0x45, 0x3e, 0xfd, 0xb0, 0xaa, 0x3d, 0xa4, 0xe2, 0x87, 0xbe,
  0x4a, 0xbf, 0x6a, 0xbe, 0xba, 0x83, 0x81, 0xbd, 0xa2, 0x68, 0xb7, 0xbc,
  0xa3, 0x49, 0x29, 0x3c, 0xf8, 0x95, 0xe6, 0xbd, 0xeb, 0xfd, 0x63, 0x3a,
  0x35, 0x59, 0xc9, 0xba, 0x6b, 0x34, 0xbf, 0xbc, 0x8e, 0x76, 0xb6, 0x3d,
  0x0d, 0x52, 0x17, 0xbd, 0x7a, 0x7d, 0xa1, 0x3e, 0x97, 0xb9, 0x79, 0x3d,
  0x40, 0x1f, 0x28, 0x3e, 0x9e, 0x75, 0xd1, 0x3d, 0xa5, 0xa0, 0x1c, 0x3d,
  0xb1, 0x10, 0x72, 0xbe, 0x4d, 0x70, 0xca, 0x3d, 0x16, 0x0e, 0x58, 0xbc,
  0xe2, 0x63, 0x0c, 0x3e, 0xe2, 0xf7, 0x03, 0x3d, 0x17, 0x03, 0xde, 0x3d,
  0x14, 0xa3, 0x62, 0x3e, 0xe1, 0xcd, 0x40, 0x3e, 0xfa, 0x42, 0x92, 0xbe,
  0x50, 0xb3, 0x15, 0x3c, 0x6f, 0xa2, 0x0b, 0x3e, 0x9c, 0xb7, 0x97, 0x3e,
  0xcd, 0x30, 0x90, 0x3e, 0x8e, 0x4d, 0x86, 0x3d, 0x10, 0x0c, 0x43, 0xbd,
  0x43, 0xba, 0x8e, 0xbc, 0x81, 0xf3, 0xb0, 0xbe, 0x22, 0x88, 0xc2, 0xbd,
  0x7d, 0xa6, 0xbb, 0xbd, 0x7a, 0x3d, 0x5e, 0x3b, 0xaa, 0x24, 0xe5, 0x3d,
  0x5d, 0x6e, 0xe1, 0xbd, 0x4b, 0x46, 0x3d, 0xbd, 0x59, 0x75, 0x12, 0xbe,
  0x08, 0x37, 0x52, 0xbe, 0xe4, 0x24, 0x02, 0x3c, 0x25, 0xc9, 0x66, 0xbe,
  0xa0, 0xc1, 0x7c, 0xbd, 0x35, 0x12, 0x71, 0x3e, 0x72, 0x49, 0x01, 0xbe,
  0xc7, 0x55, 0xfb, 0xbd, 0xcd, 0x07, 0x42, 0xbe, 0x40, 0xb9, 0xb5, 0xbd,
  0xf1, 0x37, 0x15, 0x3c, 0xa3, 0x58, 0xbf, 0xbd, 0x03, 0x7c, 0x2b, 0xbe,
  0x9c, 0xaa, 0x7a, 0x3b, 0x7d, 0x65, 0x36, 0xbe, 0xa1, 0x84, 0xd9, 0xbd,
  0x3f, 0x5f, 0xe1, 0x3c, 0x3c, 0x35, 0x22, 0x3e, 0x4f, 0x2f, 0x45, 0xbe,
  0xfc, 0xa3, 0xde, 0x3d, 0x45, 0xf7, 0x88, 0xbe, 0x34, 0x97, 0x78, 0x3d,
  0xde, 0x7d, 0x9b, 0xbe, 0x80, 0xd0, 0xeb, 0xbe, 0x0a, 0xb6, 0xba, 0xbe,
  0xc2, 0xd0, 0x16, 0x3e, 0x35, 0x53, 0x8b, 0x3e, 0x45, 0xe5, 0x52, 0xbe,
  0x6a, 0x5d, 0xb7, 0xbe, 0xde, 0xe3, 0x08, 0x3f, 0xa5, 0xb5, 0xfd, 0xbd,
  0x4c, 0x67, 0xb8, 0xbd, 0xa9, 0xb2, 0x27, 0xbd, 0xdb, 0x9b, 0x32, 0xbe,
  0xae, 0x22, 0xa5, 0xbe, 0xa0, 0xd5, 0x54, 0xbd, 0x2e, 0x7f, 0xd4, 0xbd,
  0xa3, 0x04, 0x53, 0xbe, 0x55, 0x7f, 0x09, 0x3e, 0x6e, 0x1e, 0x70, 0x3e,
  0xa4, 0x6d, 0xc7, 0x3c, 0x4e, 0x2d, 0xcf, 0xbe, 0xf4, 0x15, 0xcf, 0xbe,
  0xea, 0xf7, 0x15, 0x3c, 0x03, 0x70, 0xa3, 0x3c, 0x39, 0x68, 0x98, 0x3d,
  0x93, 0x45, 0xc9, 0x3e, 0x9a, 0x4e, 0x7d, 0xbe, 0x5c, 0xa4, 0x9a, 0x3d,
  0x85, 0x86, 0x2c, 0xbe, 0xd0, 0xf8, 0x6a, 0xbe, 0x46, 0xc5, 0x0a, 0xbd,
  0xbd, 0x9d, 0x40, 0xbd, 0x5a, 0x0e, 0xc3, 0x3c, 0xbd, 0x93, 0xa2, 0x3c,
  0xce, 0x02, 0x4d, 0xbe, 0x77, 0x66, 0x86, 0xbe, 0xa8, 0x5f, 0x96, 0xbd,
  0x5e, 0xd9, 0x8f, 0xbe, 0xf9, 0x43, 0x31, 0xbd, 0x27, 0xe0, 0xec, 0x3c,
  0xbc, 0xac, 0xbc, 0xbd, 0xba, 0x3a, 0xef, 0xbd, 0x7f, 0x97, 0x12, 0xbe,
  0xd1, 0x06, 0x4c, 0xbe, 0xae, 0xe5, 0xd6, 0xbc, 0x99, 0x35, 0xf5, 0xbd,
  0x06, 0x8a, 0x40, 0xbe, 0x14, 0x7e, 0xd4, 0xbd, 0xb7, 0x34, 0x7c, 0xbe,
  0xe0, 0x16, 0x03, 0x3e, 0x43, 0xc4, 0xb2, 0xbd, 0x03, 0x26, 0x1a, 0xbe,
  0x0f, 0xff, 0xba, 0xbd, 0x5e, 0x63, 0xce, 0xbd, 0x67, 0xcd, 0xd5, 0xbd,
  0x2f, 0x2e, 0xc4, 0xbd, 0x83, 0x96, 0x99, 0xbd, 0x13, 0x0e, 0x68, 0x3b,
  0xa8, 0x35, 0xae, 0xbe, 0x44, 0x5d, 0xf9, 0xbe, 0x62, 0xb6, 0x36, 0x3d,
  0xc6, 0xb5, 0x50, 0x3d, 0xfb, 0xef, 0x7b, 0xbd, 0x1e, 0xc2, 0xc8, 0x3e,
  0x90, 0x71, 0xa9, 0x3c, 0x13, 0x52, 0x06, 0xbe, 0xa5, 0x72, 0xc8, 0xbe,
  0x8b, 0x73, 0xbc, 0xbe, 0xe4, 0xc6, 0x1d, 0x3d, 0x94, 0xef, 0xfc, 0xbc,
  0xe4, 0xcb, 0x3e, 0x3e, 0x78, 0x2e, 0x3f, 0x3d, 0xa6, 0x1f, 0xf0, 0x3d,
  0xa6, 0x52, 0xd7, 0x3d, 0x88, 0x02, 0x1e, 0xbe, 0x78, 0x57, 0xa7, 0xbe,
  0x6f, 0x07, 0x9e, 0x3c, 0xca, 0xee, 0x72, 0x3e, 0x74, 0x84, 0x3e, 0xbc,
  0xf5, 0xe0, 0x41, 0x3d, 0x87, 0x2b, 0xa8, 0x3d, 0x30, 0x49, 0x67, 0x3e,
  0xac, 0x9a, 0xf8, 0xbe, 0xaf, 0x20, 0x9d, 0xbe, 0x71, 0x17, 0x5f, 0x3e,
  0xd5, 0x04, 0x01, 0x3d, 0x2d, 0x14, 0x00, 0x3e, 0x8c, 0xd1, 0x33, 0x3e,
  0x9e, 0xe8, 0x54, 0xbe, 0x98, 0x13, 0xe3, 0x3d, 0xf9, 0x4d, 0x39, 0xbd,
  0x6b, 0x20, 0x42, 0xbe, 0x32, 0x17, 0x4f, 0xbe, 0x36, 0xe1, 0x44, 0xbe,
  0xbd, 0x23, 0xd0, 0xbd, 0x51, 0x7e, 0x98, 0xbe, 0x4e, 0xf5, 0x84, 0xbd,
  0x50, 0x9d, 0xe1, 0xbd, 0x8b, 0x79, 0xb6, 0xbd, 0x76, 0x3d, 0x81, 0x3c,
  0xba, 0x00, 0x75, 0xbe, 0x2c, 0x38, 0x3c, 0xbe, 0x58, 0x61, 0xb7, 0xbd,
  0xcf, 0x04, 0x1a, 0x3d, 0xce, 0x6d, 0xb6, 0xbd, 0xd6, 0x47, 0x95, 0x3e,
  0xa1, 0xb8, 0xa1, 0x3c, 0x08, 0x9c, 0x7e, 0x3e, 0x96, 0x8b, 0xd3, 0x3d,
  0xf5, 0x70, 0x46, 0xbe, 0xa9, 0xe4, 0xdd, 0xbd, 0x27, 0x5e, 0xa4, 0xbd,
  0xe7, 0x62, 0x68, 0x3d, 0x28, 0x90, 0x68, 0xbd, 0x98, 0x39, 0x92, 0xbd,
  0xa6, 0x54, 0x94, 0xbc, 0x2a, 0xc0, 0x12, 0x3d, 0xc4, 0x0c, 0x0b, 0x3e,
  0x80, 0x7d, 0x17, 0xbe, 0x98, 0xf5, 0x43, 0xbd, 0xa0, 0x28, 0xb3, 0x3e,
  0x6f, 0x72, 0x13, 0x3e, 0x26, 0xde, 0xff, 0xff, 0x10, 0x00, 0x00, 0x00,
  0x0a, 0x00, 0x00, 0x00, 0x1c, 0x00, 0x00, 0x00, 0x38, 0x00, 0x00, 0x00,
  0x04, 0x00, 0x00, 0x00, 0x10, 0x00, 0x00, 0x00, 0x04, 0x00, 0x00, 0x00,
  0x01, 0x00, 0x00, 0x00, 0x08, 0x00, 0x00, 0x00, 0x1a, 0x00, 0x00, 0x00,
  0x73, 0x65, 0x71, 0x75, 0x65, 0x6e, 0x74, 0x69, 0x61, 0x6c, 0x2f, 0x63,
  0x6f, 0x6e, 0x76, 0x32, 0x64, 0x5f, 0x31, 0x2f, 0x43, 0x6f, 0x6e, 0x76,
  0x32, 0x44, 0x00, 0x00, 0x9c, 0xdd, 0xff, 0xff, 0xa6, 0xde, 0xff, 0xff,
  0x04, 0x00, 0x00, 0x00, 0x80, 0x01, 0x00, 0x00, 0xdc, 0x79, 0x50, 0xbd,
  0x99, 0xf1, 0x22, 0xbe, 0xe9, 0x13, 0x76, 0xbe, 0xb0, 0xdb, 0x5d, 0x3d,
  0x04, 0xb8, 0x14, 0xbe, 0xa9, 0x1d, 0xcc, 0xbd, 0x13, 0x41, 0xfe, 0xbd,
  0x18, 0x60, 0x93, 0x3d, 0x98, 0x53, 0x02, 0xbd, 0x4e, 0x5a, 0x5f, 0xbd,
  0xad, 0x6f, 0xd4, 0x3c, 0x42, 0xa6, 0x85, 0xbe, 0x3f, 0xb3, 0x44, 0xbe,
  0x86, 0x36, 0x08, 0x3c, 0x45, 0x06, 0x9e, 0xbe, 0x81, 0x29, 0xdf, 0xbd,
  0xce, 0x70, 0x5f, 0xbe, 0xe3, 0xf7, 0x11, 0xbe, 0xf9, 0xf3, 0x46, 0xbd,
  0x5d, 0x41, 0xa0, 0xbd, 0x19, 0x97, 0x84, 0xbd, 0x7e, 0x27, 0x04, 0xbe,
  0x3f, 0x64, 0xa2, 0xba, 0x47, 0x9d, 0xff, 0xbd, 0xff, 0xa2, 0x48, 0x3d,
  0xec, 0xa4, 0x84, 0xbd, 0x70, 0x38, 0x02, 0xbe, 0xab, 0x8f, 0xa4, 0xbd,
  0xde, 0x94, 0xa6, 0xbd, 0xad, 0x8c, 0x9a, 0xbe, 0x34, 0xcd, 0x21, 0x3e,
  0x23, 0xc5, 0x3e, 0x3e, 0xfd, 0xde, 0xb7, 0x3d, 0xaf, 0xad, 0x11, 0x3e,
  0x33, 0x9a, 0x44, 0x3e, 0x7b, 0x15, 0xd5, 0x3e, 0x94, 0x8e, 0x95, 0xbe,
  0xe7, 0x0f, 0x38, 0xbd, 0x81, 0x0a, 0x5c, 0x3c, 0xf2, 0x40, 0x1c, 0xbe,
  0xf6, 0x93, 0x0b, 0xba, 0x02, 0x86, 0xef, 0x3c, 0xd5, 0x5e, 0xb0, 0x3e,
  0x14, 0xbb, 0xa2, 0x3e, 0xe2, 0x58, 0xff, 0xbd, 0x93, 0xb1, 0x40, 0x3e,
  0x1b, 0xa9, 0x08, 0xbc, 0x58, 0x56, 0x1b, 0xbd, 0x1e, 0xa4, 0x0c, 0xbe,
  0xeb, 0x0c, 0x4a, 0x3e, 0x80, 0xc3, 0x88, 0xbe, 0x57, 0xa6, 0x29, 0xbd,
  0x9b, 0x4e, 0x07, 0xbc, 0x6d, 0xe6, 0x8b, 0xbd, 0xb7, 0x78, 0xa5, 0x3c,
  0xeb, 0x37, 0xed, 0x3b, 0x9f, 0xb0, 0xbe, 0xbd, 0x8e, 0xc9, 0x20, 0xbd,
  0xc9, 0x76, 0xaf, 0x3d, 0x0f, 0xe2, 0x14, 0xbe, 0x21, 0x7d, 0x33, 0xbd,
  0xaa, 0xb0, 0x16, 0xbe, 0xca, 0xa9, 0x0f, 0xbd, 0xcf, 0x18, 0x90, 0x3d,
  0x95, 0x12, 0x8b, 0xbe, 0x54, 0x80, 0x81, 0x3e, 0x71, 0x1d, 0xf2, 0xbd,
  0x4a, 0xb5, 0x24, 0xbd, 0xc6, 0x20, 0xe8, 0x3c, 0x52, 0xa8, 0x55, 0xbe,
  0x2d, 0x68, 0x2f, 0x3e, 0x30, 0x1b, 0xe4, 0x3d, 0x3c, 0x92, 0x09, 0xbe,
  0x51, 0x79, 0x52, 0xbe, 0xd4, 0xdb, 0x73, 0xbd, 0x0b, 0xb7, 0x17, 0xbe,
  0xee, 0x9f, 0x88, 0xbe, 0x33, 0x4b, 0xba, 0xbe, 0x08, 0x39, 0x47, 0x3e,
  0x74, 0x48, 0x51, 0x3e, 0x66, 0x0e, 0x94, 0x3d, 0xce, 0xd8, 0x6c, 0x3c,
  0x59, 0x25, 0x69, 0x3e, 0xd2, 0x68, 0xb3, 0x3e, 0xeb, 0x16, 0x7d, 0x3e,
  0x83, 0x8d, 0x82, 0x3e, 0x31, 0xc3, 0x12, 0x3e, 0x01, 0xe6, 0x0d, 0xbe,
  0xb8, 0xaf, 0x33, 0x3d, 0x6c, 0xf3, 0x4f, 0x3e, 0xdb, 0x86, 0x32, 0xbe,
  0xc6, 0x92, 0x59, 0xbe, 0x6a, 0xbe, 0x29, 0x3c, 0x9b, 0x96, 0x0a, 0xbd,
  0x0b, 0xe9, 0x0a, 0xbe, 0x8c, 0x34, 0xa4, 0xbe, 0xfe, 0xdf, 0xff, 0xff,
  0x10, 0x00, 0x00, 0x00, 0x09, 0x00, 0x00, 0x00, 0x1c, 0x00, 0x00, 0x00,
  0x38, 0x00, 0x00, 0x00, 0x04, 0x00, 0x00, 0x00, 0x08, 0x00, 0x00, 0x00,
  0x04, 0x00, 0x00, 0x00, 0x03, 0x00, 0x00, 0x00, 0x01, 0x00, 0x00, 0x00,
  0x18, 0x00, 0x00, 0x00, 0x73, 0x65, 0x71, 0x75, 0x65, 0x6e, 0x74, 0x69,
  0x61, 0x6c, 0x2f, 0x63, 0x6f, 0x6e, 0x76, 0x32, 0x64, 0x2f, 0x43, 0x6f,
  0x6e, 0x76, 0x32, 0x44, 0x00, 0x00, 0x00, 0x00, 0x74, 0xdf, 0xff, 0xff,
  0x7e, 0xe0, 0xff, 0xff, 0x04, 0x00, 0x00, 0x00, 0xc0, 0x00, 0x00, 0x00,
  0x63, 0xc2, 0xc6, 0xbd, 0x31, 0xc7, 0xee, 0x3d, 0xff, 0xa0, 0x92, 0xbe,
  0x29, 0x6b, 0x88, 0xbd, 0x83, 0xe0, 0xde, 0x3e, 0xd3, 0x37, 0xdb, 0x3d,
  0x68, 0xa5, 0xdc, 0x3e, 0x3e, 0xd4, 0x3b, 0x3e, 0x02, 0x9f, 0x0b, 0xbe,
  0x39, 0xe6, 0x8e, 0xbd, 0xad, 0xb9, 0x6f, 0x3f, 0xf2, 0xf8, 0x36, 0xbe,
  0xdf, 0x4c, 0xbd, 0xbc, 0x67, 0x5f, 0x8d, 0xbe, 0x43, 0x8d, 0xe7, 0x3b,
  0x39, 0xef, 0xdc, 0x3d, 0x54, 0xac, 0x9c, 0xbd, 0x85, 0x01, 0x80, 0xbe,
  0xba, 0x42, 0xa7, 0xbe, 0x83, 0x3b, 0x36, 0xbd, 0x99, 0x2f, 0xee, 0x3e,
  0xe7, 0x35, 0xa2, 0x3d, 0x62, 0x7b, 0xe5, 0xbd, 0x1c, 0x97, 0x56, 0xbe,
  0xee, 0x60, 0x49, 0xbe, 0x1f, 0x95, 0x03, 0xbd, 0x9b, 0x5c, 0xd0, 0xbd,
  0x5b, 0x8a, 0xdc, 0xbd, 0x84, 0x18, 0x30, 0x3d, 0xec, 0x01, 0x90, 0xbe,
  0x9d, 0xb5, 0xf9, 0x3d, 0x15, 0xbe, 0x60, 0x3d, 0x8e, 0xef, 0x50, 0xbd,
  0x71, 0x3d, 0x81, 0xbf, 0xa7, 0xc5, 0xce, 0xbe, 0xaa, 0xad, 0x9c, 0xbd,
  0xbd, 0x25, 0xe3, 0x3e, 0x6c, 0x47, 0x8f, 0x3c, 0x72, 0x64, 0x9d, 0xbe,
  0x19, 0xf8, 0x27, 0xbf, 0x47, 0xd7, 0x93, 0xbe, 0x9e, 0x07, 0x53, 0xbc,
  0x19, 0xaf, 0x3b, 0xbf, 0x4d, 0x38, 0xaa, 0xbd, 0xf6, 0x9f, 0xfe, 0xbe,
  0xde, 0xf6, 0x4c, 0xbe, 0x70, 0xe6, 0xcb, 0xbd, 0x95, 0x75, 0x8f, 0xbd,
  0x16, 0xe1, 0xff, 0xff, 0x10, 0x00, 0x00, 0x00, 0x08, 0x00, 0x00, 0x00,
  0x14, 0x00, 0x00, 0x00, 0x30, 0x00, 0x00, 0x00, 0x02, 0x00, 0x00, 0x00,
  0x03, 0x00, 0x00, 0x00, 0x10, 0x00, 0x00, 0x00, 0x19, 0x00, 0x00, 0x00,
  0x73, 0x65, 0x71, 0x75, 0x65, 0x6e, 0x74, 0x69, 0x61, 0x6c, 0x2f, 0x64,
  0x65, 0x6e, 0x73, 0x65, 0x5f, 0x31, 0x2f, 0x4d, 0x61, 0x74, 0x4d, 0x75,
  0x6c, 0x00, 0x00, 0x00, 0x84, 0xe0, 0xff, 0xff, 0x8e, 0xe1, 0xff, 0xff,
  0x04, 0x00, 0x00, 0x00, 0x00, 0x1c, 0x00, 0x00, 0xaa, 0x35, 0x8b, 0xbe,
  0x6b, 0xe9, 0xc5, 0xbe, 0x3b, 0x94, 0xd0, 0xbe, 0x7a, 0x04, 0x1f, 0xbf,
  0x75, 0x9d, 0x2b, 0xbe, 0x6d, 0xd6, 0xbb, 0xbd, 0xd0, 0xce, 0x00, 0xbe,
  0x02, 0x48, 0xe7, 0x3c, 0xf9, 0x9a, 0x57, 0xbe, 0xa7, 0x01, 0xa4, 0xbd,
  0x4c, 0x1f, 0xb7, 0xbd, 0xa2, 0x50, 0x42, 0xbe, 0x27, 0xf7, 0xce, 0x3b,
  0x22, 0x18, 0x8d, 0xbd, 0xbd, 0x03, 0x2e, 0xbc, 0xd0, 0xe2, 0xa2, 0xbe,
  0x93, 0x5c, 0x6f, 0x3d, 0x97, 0x05, 0xdc, 0x3c, 0x3d, 0xd6, 0x09, 0xbe,
  0xe6, 0x6b, 0x79, 0x3c, 0x3f, 0x81, 0xca, 0x3d, 0xa6, 0xa9, 0x04, 0xbd,
  0xd1, 0xe5, 0xb5, 0xbd, 0xca, 0xf7, 0x06, 0x3e, 0x60, 0x30, 0x0c, 0x3e,
  0xb1, 0x9c, 0x22, 0x3e, 0x6e, 0x8b, 0x03, 0x3e, 0x47, 0x83, 0xbb, 0xbe,
  0x89, 0x74, 0xf3, 0xbd, 0xf2, 0x49, 0x9b, 0xbd, 0xdb, 0x10, 0xbb, 0x3b,
  0x04, 0xf2, 0x51, 0xbe, 0x79, 0xf3, 0x2e, 0x3e, 0x56, 0x29, 0xda, 0x3d,
  0x9b, 0x79, 0x07, 0xbe, 0xdf, 0xa1, 0x63, 0xbe, 0x11, 0xaf, 0x8c, 0x3e,
  0x60, 0xc5, 0xb8, 0xbd, 0x7b, 0xc5, 0x6b, 0x3d, 0x87, 0x86, 0x31, 0x3e,
  0xf8, 0x3d, 0xa3, 0x3c, 0x30, 0x52, 0x92, 0x3e, 0x14, 0x5c, 0x8f, 0xbc,
  0x97, 0xad, 0xdb, 0x3d, 0xbe, 0xf5, 0x69, 0xbe, 0xe0, 0xf3, 0xfd, 0xbd,
  0x2a, 0x54, 0x91, 0x3d, 0x73, 0x73, 0xdc, 0xbd, 0xe6, 0x8b, 0x55, 0x3e,
  0xe4, 0x59, 0x8f, 0x3d, 0xa8, 0x22, 0x90, 0xbd, 0xa8, 0x04, 0xb4, 0x3e,
  0x2f, 0xe0, 0x73, 0x3e, 0xfc, 0xd8, 0x6e, 0x38, 0x49, 0xc6, 0x29, 0xbe,
  0xa9, 0xe6, 0x8a, 0x3d, 0x62, 0xcc, 0x08, 0xbe, 0x8d, 0xf0, 0x1b, 0xbd,
  0x1d, 0x4c, 0x8f, 0xbc, 0xf0, 0x10, 0x51, 0xbe, 0x76, 0x3e, 0x09, 0x3d,
  0x84, 0x87, 0x5a, 0xbd, 0xdb, 0xd8, 0x10, 0x3d, 0x9d, 0x2a, 0x0b, 0x3d,
  0x53, 0x81, 0x49, 0x3e, 0x26, 0xa9, 0x19, 0x3c, 0x5b, 0x66, 0x33, 0x3d,
  0x0c, 0x12, 0x0d, 0x3e, 0x44, 0x94, 0x23, 0x3e, 0xd8, 0x80, 0xa6, 0xbd,
  0x32, 0x86, 0x12, 0x3e, 0x27, 0xa4, 0xeb, 0x3d, 0x02, 0x0d, 0xc8, 0xbd,
  0x99, 0x7c, 0x1d, 0x3d, 0x46, 0x2b, 0x0c, 0xbe, 0x52, 0x04, 0xec, 0xbd,
  0x02, 0x20, 0x64, 0x3e, 0x42, 0xf1, 0xb7, 0x3d, 0x84, 0x5f, 0x2d, 0x3e,
  0x74, 0xf0, 0x19, 0xbe, 0xdf, 0x95, 0x87, 0x3d, 0xd8, 0xb8, 0xb1, 0x3e,
  0x72, 0x98, 0xcc, 0xbd, 0xf7, 0xfe, 0x9e, 0x3e, 0x20, 0xab, 0xe5, 0xbd,
  0x04, 0x1c, 0x03, 0xbe, 0x81, 0xdc, 0x3f, 0xbe, 0x77, 0x51, 0x84, 0x3d,
  0x19, 0x6c, 0xbd, 0x3c, 0x3a, 0xf1, 0xf8, 0x3c, 0x0c, 0x79, 0x51, 0xbd,
  0x1b, 0x28, 0xcf, 0xbd, 0xe0, 0xe6, 0x07, 0xbe, 0x75, 0xd5, 0x49, 0x3e,
  0xd9, 0x15, 0x57, 0x3d, 0x2b, 0x2f, 0xc2, 0xbe, 0x0d, 0x5f, 0xad, 0x3d,
  0x80, 0x1c, 0x01, 0x3e, 0x07, 0xbb, 0x03, 0xbe, 0x26, 0x02, 0x04, 0xbe,
  0xd3, 0x5d, 0x0f, 0x3c, 0x13, 0x85, 0xa6, 0xbd, 0x90, 0x9a, 0x0a, 0x3e,
  0x84, 0x4c, 0x73, 0xbc, 0x06, 0xf4, 0x90, 0xbc, 0x8e, 0x39, 0x1d, 0xbe,
  0x1e, 0xfc, 0x0c, 0xbe, 0xda, 0x62, 0x67, 0xbe, 0x0a, 0xc4, 0x4a, 0xbe,
  0x1b, 0xf2, 0xb1, 0x3c, 0xac, 0x26, 0x09, 0x3e, 0x11, 0x42, 0x9f, 0xbe,
  0x20, 0xba, 0xa5, 0xbe, 0xe0, 0x83, 0x3d, 0xbe, 0xe8, 0x2e, 0x97, 0x3e,
  0xf9, 0x00, 0x50, 0xbd, 0x6b, 0x2a, 0xa4, 0xbd, 0xa5, 0x59, 0x3e, 0xbe,
  0x88, 0xd8, 0x1a, 0xbe, 0x33, 0xa9, 0x12, 0xbe, 0xe8, 0x2d, 0x62, 0xbe,
  0x97, 0x35, 0xd1, 0xbd, 0x19, 0x05, 0x84, 0x3c, 0x87, 0x5b, 0x32, 0x3d,
  0x5a, 0xd6, 0xe1, 0xbd, 0x02, 0x86, 0xe5, 0x3d, 0x80, 0xa6, 0x8c, 0xbe,
  0x7d, 0x28, 0xa4, 0x3c, 0xf5, 0xc6, 0x1f, 0x3e, 0xf1, 0xf1, 0x98, 0xbe,
  0x62, 0x01, 0xd9, 0x3e, 0x43, 0x3e, 0x82, 0x3e, 0xa1, 0xff, 0x6c, 0xbd,
  0xb5, 0x21, 0x02, 0x3e, 0x76, 0x43, 0x13, 0xbe, 0xf8, 0x2d, 0xde, 0x3c,
  0xa9, 0x1d, 0x28, 0xbe, 0x12, 0xe3, 0xae, 0xbd, 0xae, 0x8a, 0xc2, 0xbd,
  0x27, 0x10, 0x3e, 0x3d, 0xd1, 0x29, 0xc9, 0xbb, 0x16, 0xf9, 0xd1, 0xbd,
  0x18, 0x4f, 0x89, 0xbe, 0x37, 0x81, 0x69, 0xbe, 0xe5, 0x08, 0x3e, 0xbe,
  0x0b, 0x4e, 0xfa, 0x3d, 0xae, 0x93, 0x11, 0x3f, 0x66, 0x6a, 0x6b, 0xbb,
  0xb1, 0x3c, 0x2d, 0xbe, 0xd3, 0x21, 0x8c, 0xbe, 0xc0, 0x23, 0xee, 0x3c,
  0xad, 0x89, 0xce, 0xbd, 0xf9, 0x1e, 0x4d, 0xbd, 0x54, 0xf1, 0x23, 0xbd,
  0xcf, 0xf3, 0x22, 0x3e, 0x90, 0xed, 0x84, 0xbd, 0xc1, 0x9c, 0xb3, 0xbd,
  0xac, 0x23, 0x07, 0xbe, 0x63, 0xfb, 0x36, 0xbe, 0x80, 0xf6, 0x1f, 0x3e,
  0xa3, 0x6e, 0x48, 0xbe, 0xc9, 0x6b, 0xb2, 0x3c, 0xe5, 0x88, 0x12, 0x3f,
  0xa3, 0x69, 0x32, 0xbb, 0x6c, 0x2b, 0xa0, 0xbc, 0xf8, 0x90, 0x06, 0xbe,
  0xf9, 0xa9, 0x4f, 0x3e, 0x75, 0xc3, 0x9c, 0xbd, 0x36, 0x5c, 0xf4, 0x3d,
  0xb6, 0x6d, 0x06, 0x3e, 0xce, 0x0b, 0xb2, 0x3d, 0x86, 0x71, 0x92, 0x3c,
  0xdc, 0x6c, 0x27, 0xbe, 0xfd, 0x08, 0x1f, 0x3e, 0xea, 0xa3, 0xdc, 0xbd,
  0xbf, 0x7e, 0x6a, 0xbc, 0x67, 0x2c, 0x6c, 0xbe, 0x65, 0x5b, 0xd4, 0x3b,
  0xaa, 0x8d, 0x02, 0x3f, 0x6c, 0xfd, 0xbb, 0xbd, 0xe7, 0x51, 0xc9, 0xbd,
  0x8a, 0xd8, 0x3e, 0xbe, 0x23, 0x07, 0x34, 0xbe, 0xcd, 0xe5, 0x0c, 0xbe,
  0x32, 0x32, 0x1e, 0x3d, 0xea, 0xd5, 0x2c, 0x3d, 0x64, 0xf3, 0x62, 0xbc,
  0x94, 0x63, 0xcf, 0xbd, 0x18, 0x67, 0x09, 0xbc, 0xfe, 0xf5, 0x84, 0x3d,
  0x01, 0x5a, 0x7c, 0xbb, 0xb5, 0x5f, 0x6a, 0xbc, 0x61, 0xd6, 0x77, 0x3c,
  0xfb, 0x48, 0xe9, 0x3d, 0x05, 0xcd, 0x30, 0x3f, 0x95, 0xaf, 0x72, 0x3e,
  0x55, 0xb7, 0x1f, 0xbe, 0x20, 0xd9, 0x73, 0xbe, 0x68, 0x60, 0x9f, 0x3d,
  0x07, 0x48, 0x3f, 0xbd, 0xc2, 0xe5, 0x93, 0xbe, 0x34, 0x66, 0x17, 0xbc,
  0x3f, 0xda, 0x98, 0xbd, 0x43, 0x0f, 0x98, 0x3e, 0xbc, 0x31, 0x77, 0xbc,
  0x64, 0x38, 0x7e, 0x3d, 0x40, 0x0b, 0x79, 0x3c, 0x1c, 0x2a, 0x2e, 0xbe,
  0xe3, 0xd9, 0x94, 0xbe, 0xf4, 0xcc, 0x19, 0x3c, 0xd0, 0x3c, 0x70, 0x3e,
  0x4d, 0xb8, 0x9c, 0xbd, 0x05, 0x64, 0x27, 0x3b, 0x13, 0xfa, 0xaf, 0xbe,
  0x43, 0x4d, 0x5f, 0x3d, 0xa0, 0x29, 0x53, 0xbe, 0xed, 0x69, 0x0b, 0xbe,
  0x32, 0x69, 0x83, 0xbd, 0xee, 0xf0, 0xb7, 0x3d, 0xf3, 0xec, 0x76, 0xbd,
  0xc7, 0x7c, 0x13, 0xbe, 0xbe, 0x82, 0xb3, 0x3d, 0x31, 0x07, 0xa1, 0xbe,
  0xb5, 0x2c, 0x9f, 0xbd, 0x13, 0x86, 0x4c, 0x3e, 0xf4, 0x0f, 0x39, 0xbe,
  0x43, 0x4a, 0x08, 0x3e, 0xcc, 0xe3, 0xac, 0xbc, 0x21, 0x5c, 0xb7, 0xbe,
  0xfd, 0xab, 0x4b, 0xbd, 0x08, 0xbf, 0x3c, 0x3e, 0xae, 0x87, 0x65, 0xbc,
  0xab, 0x7d, 0xec, 0xbe, 0xb5, 0x95, 0x13, 0xbf, 0xae, 0x49, 0xbe, 0xbc,
  0x26, 0x37, 0xba, 0x3d, 0x76, 0xc8, 0xe0, 0xbe, 0xff, 0x78, 0x02, 0xbd,
  0x41, 0x4b, 0x52, 0xbe, 0x8e, 0x51, 0x41, 0x3d, 0x22, 0xe2, 0x81, 0xbc,
  0x57, 0xec, 0x90, 0xbe, 0x94, 0x79, 0xaa, 0x3e, 0xee, 0xae, 0x2e, 0x3e,
  0xe4, 0x73, 0xc3, 0xbd, 0x18, 0x57, 0x0f, 0xbd, 0x88, 0xb8, 0x22, 0x3e,
  0xc6, 0x9b, 0x5b, 0x3d, 0xd4, 0xbc, 0x2a, 0xbe, 0xb8, 0x1e, 0x8a, 0xbd,
  0xcd, 0x49, 0x2c, 0xbc, 0x9b, 0x53, 0xca, 0x3d, 0xc9, 0x36, 0x8e, 0x3e,
  0xe6, 0x01, 0x4b, 0xbe, 0x6d, 0x4a, 0x36, 0xbe, 0x28, 0xd5, 0xd7, 0xbd,
  0x22, 0xef, 0x7e, 0x3e, 0x3d, 0xe4, 0x2b, 0xbd, 0x4d, 0x31, 0x28, 0x3e,
  0x72, 0x6a, 0x04, 0x3d, 0xd4, 0xd1, 0x68, 0x3e, 0x91, 0xc5, 0xa1, 0x3c,
  0x98, 0x31, 0x0c, 0x3b, 0xc7, 0x61, 0x09, 0xbd, 0x73, 0x26, 0x4a, 0x3d,
  0x1e, 0xc9, 0x40, 0xbc, 0x0a, 0xd4, 0xae, 0xbb, 0x36, 0xe4, 0xb9, 0x3e,
  0x39, 0x88, 0x48, 0x3f, 0xd2, 0xd2, 0x10, 0xbe, 0x40, 0x84, 0x39, 0xbe,
  0x7b, 0xd4, 0xb9, 0x3c, 0xdc, 0x0d, 0xc3, 0x3d, 0x58, 0x42, 0x8e, 0xba,
  0x64, 0x1d, 0xef, 0x3e, 0xe5, 0x09, 0x49, 0x3e, 0x54, 0x21, 0xdd, 0x3e,
  0x6e, 0xe8, 0x59, 0x3d, 0x16, 0x64, 0xfb, 0x3d, 0xdc, 0xa7, 0x66, 0x3d,
  0x90, 0x1d, 0xac, 0xbc, 0x34, 0xb6, 0xb0, 0x3e, 0xfb, 0x48, 0xb3, 0x3d,
  0x9f, 0x27, 0x97, 0x3e, 0xfe, 0x4f, 0x38, 0x3f, 0x60, 0x8a, 0x23, 0xbd,
  0x17, 0x55, 0x91, 0xbe, 0x1f, 0x5c, 0x56, 0xbc, 0x31, 0xd5, 0x1c, 0x3e,
  0x62, 0x92, 0x05, 0x3e, 0x2d, 0x6a, 0x76, 0x3e, 0x17, 0x79, 0xba, 0x3d,
  0x3b, 0x2e, 0x08, 0xbe, 0xd3, 0x98, 0x0d, 0xbb, 0x67, 0xab, 0xbe, 0xbd,
  0x13, 0xed, 0x60, 0xbd, 0xf2, 0xc5, 0x61, 0xbe, 0xa3, 0x62, 0xca, 0xbe,
  0x60, 0xfa, 0x52, 0x3d, 0xe0, 0x68, 0xdd, 0x3e, 0x5a, 0x07, 0x3d, 0xbe,
  0xc6, 0x10, 0x56, 0xbe, 0xae, 0xe8, 0x5f, 0xbe, 0x65, 0x4d, 0x4a, 0xbd,
  0x7f, 0x32, 0xa9, 0x3e, 0xf9, 0xe0, 0x8a, 0xbe, 0x8e, 0xfb, 0xa3, 0x3e,
  0xe0, 0x12, 0x18, 0x3e, 0x21, 0x25, 0xcd, 0xbe, 0x98, 0x75, 0xfe, 0x3c,
  0xf2, 0x36, 0xde, 0x3d, 0x26, 0xbd, 0x0d, 0x3e, 0x88, 0xdb, 0xb9, 0xbe,
  0xed, 0xb2, 0x9b, 0xbe, 0xe4, 0xc3, 0x26, 0x3c, 0x90, 0x4c, 0x50, 0x3e,
  0xc0, 0xa0, 0x92, 0xbe, 0x0d, 0xc4, 0x12, 0x3e, 0x44, 0x48, 0x27, 0xbe,
  0x67, 0x41, 0x2e, 0x3d, 0xaf, 0x1a, 0x92, 0x3d, 0x72, 0x6c, 0xe8, 0xbc,
  0xca, 0x90, 0x94, 0xbd, 0x9a, 0xf0, 0x00, 0x3d, 0xeb, 0xea, 0x52, 0xbe,
  0xca, 0x83, 0x17, 0x3d, 0x7f, 0x3b, 0x87, 0x3e, 0xba, 0xfa, 0xb3, 0x3c,
  0xb8, 0x49, 0x2f, 0xbe, 0xc9, 0x4f, 0x68, 0xbe, 0xc5, 0xb8, 0xc9, 0x3b,
  0xe8, 0x17, 0xb8, 0x3c, 0xa4, 0x4c, 0xe3, 0xbd, 0xc5, 0x95, 0x46, 0xbd,
  0x97, 0x27, 0xa1, 0xbc, 0xa1, 0xd4, 0x0d, 0xbd, 0xdc, 0x2f, 0x93, 0x3c,
  0x6f, 0x8c, 0x1d, 0x3e, 0x23, 0x22, 0x28, 0x3f, 0xda, 0x25, 0x56, 0x3e,
  0x3b, 0x8d, 0x83, 0x3e, 0xe0, 0x96, 0x73, 0x3d, 0xa3, 0x0c, 0x03, 0xbe,
  0xc3, 0xbe, 0x99, 0xbe, 0x50, 0x83, 0x78, 0x3e, 0x02, 0x49, 0x72, 0x3e,
  0x79, 0xd8, 0xdf, 0xbd, 0x0c, 0x19, 0x81, 0xbe, 0xbb, 0xe7, 0xaa, 0x3e,
  0x34, 0x0e, 0x48, 0xbd, 0x9f, 0x31, 0x14, 0xbe, 0x6e, 0x61, 0xac, 0xbc,
  0x17, 0x0b, 0x7c, 0xbe, 0xab, 0x63, 0x1c, 0xbe, 0x35, 0x67, 0x14, 0x3e,
  0xc3, 0xac, 0xde, 0xbc, 0x5a, 0x36, 0xc1, 0x3d, 0x7f, 0xf1, 0x2c, 0xbd,
  0xb2, 0x44, 0x3d, 0xbc, 0xbe, 0xb7, 0xd3, 0xbd, 0x18, 0x09, 0xeb, 0x3d,
  0x5f, 0x7d, 0x71, 0x3e, 0xae, 0xf9, 0x22, 0x3e, 0x2e, 0x03, 0x13, 0xbd,
  0x1d, 0x60, 0x82, 0x3e, 0x11, 0xd3, 0x26, 0xbe, 0xe6, 0x7a, 0x58, 0xbe,
  0x88, 0xed, 0x16, 0x3e, 0x22, 0xac, 0xe2, 0x3d, 0x67, 0xbf, 0x09, 0x3e,
  0xb3, 0x51, 0xb0, 0xbd, 0xb6, 0xb7, 0x20, 0x3e, 0xf3, 0xf7, 0x54, 0xbe,
  0x0b, 0x63, 0x39, 0xbe, 0xb0, 0x3a, 0xf9, 0x3d, 0x8e, 0x29, 0x71, 0xbe,
  0xdf, 0xf5, 0x59, 0xbd, 0xc9, 0xf4, 0x82, 0x3e, 0xc5, 0xab, 0xfe, 0x3c,
  0xed, 0xf2, 0x1d, 0xbc, 0x0a, 0x7b, 0x9f, 0xbe, 0xfd, 0x3c, 0x14, 0x3e,
  0x2d, 0x56, 0x90, 0xbd, 0xdb, 0xe4, 0x75, 0xbb, 0x67, 0x5b, 0x2a, 0x3e,
  0x83, 0x8b, 0x2e, 0x3e, 0x71, 0xfe, 0xde, 0xbc, 0xc3, 0x55, 0x1a, 0x3e,
  0xac, 0x79, 0x40, 0xbd, 0xcb, 0x2a, 0x83, 0xbe, 0x9b, 0xce, 0x2b, 0xbd,
  0xd4, 0x58, 0xbb, 0xbe, 0xfe, 0x7d, 0x8c, 0x3d, 0x9c, 0x07, 0x57, 0x3e,
  0x27, 0x62, 0xe9, 0xbd, 0xa9, 0x04, 0xa1, 0xbd, 0xd3, 0xf5, 0x33, 0xbe,
  0x92, 0xc3, 0xe6, 0xbd, 0x9d, 0xaf, 0x7c, 0xbd, 0x0e, 0xa0, 0xde, 0xbd,
  0x69, 0x10, 0x35, 0xbe, 0xef, 0xa1, 0x0a, 0x3e, 0x9a, 0xe8, 0x06, 0x3e,
  0x2a, 0x72, 0x09, 0x3d, 0x55, 0x1d, 0x24, 0x3e, 0x64, 0xdd, 0x5d, 0xbd,
  0xa3, 0x20, 0xae, 0xbd, 0xce, 0xde, 0x40, 0xbe, 0x55, 0xf3, 0xe0, 0x3d,
  0x7b, 0xa5, 0xb3, 0x3d, 0x52, 0x64, 0xb0, 0xbc, 0x52, 0x0b, 0x25, 0xbe,
  0x12, 0x2f, 0x5d, 0x3e, 0xe1, 0x72, 0x1f, 0x3e, 0x4e, 0x6c, 0x30, 0xbe,
  0xb6, 0xc2, 0x28, 0x3b, 0xdd, 0x5e, 0x81, 0xbe, 0xf4, 0xd9, 0xb0, 0x3c,
  0x93, 0x7d, 0xe3, 0x3d, 0x1d, 0x00, 0xe7, 0xbd, 0x0b, 0xfa, 0x20, 0x3f,
  0x51, 0x84, 0xc1, 0xbd, 0x7f, 0xf2, 0x37, 0x3e, 0xb0, 0xfd, 0x64, 0xbd,
  0x16, 0x92, 0x3b, 0x3e, 0x6c, 0xa2, 0x9f, 0x3e, 0x2f, 0xf0, 0xd4, 0xbd,
  0x00, 0x7d, 0x75, 0xbe, 0xe7, 0x21, 0xab, 0x3e, 0xf0, 0x8d, 0xb4, 0x3c,
  0x4f, 0xac, 0x22, 0xbc, 0x7e, 0x5a, 0xa1, 0x3d, 0xcf, 0x63, 0x99, 0xbd,
  0x3f, 0x5f, 0x29, 0x3e, 0xa8, 0x5b, 0x97, 0x3e, 0x6a, 0xde, 0x9b, 0x3d,
  0xbf, 0x4f, 0xa8, 0x3d, 0xad, 0xe1, 0xeb, 0xbc, 0x84, 0xff, 0x12, 0x3e,
  0x60, 0x8e, 0x39, 0x3d, 0x71, 0x71, 0xbb, 0x3d, 0x09, 0x4e, 0x10, 0x3e,
  0xb4, 0x93, 0xc0, 0x3b, 0x98, 0xcd, 0x9e, 0xbd, 0x95, 0x61, 0x47, 0x3e,
  0x49, 0x80, 0x29, 0x3e, 0x7f, 0x74, 0xe4, 0xbd, 0x01, 0x4a, 0x88, 0x3d,
  0x85, 0xa2, 0xd2, 0x38, 0x76, 0x50, 0x01, 0x3e, 0xec, 0x60, 0x31, 0x3f,
  0xac, 0xe2, 0xf4, 0x3e, 0x4a, 0x40, 0xcb, 0x3e, 0xb3, 0x25, 0xd4, 0xbd,
  0x69, 0x9e, 0xcd, 0x3d, 0x32, 0xa0, 0x8b, 0xbe, 0xba, 0x9e, 0x81, 0x3e,
  0x05, 0x76, 0xc9, 0x3e, 0xe5, 0xc5, 0x80, 0xbe, 0xb3, 0x39, 0xfb, 0xbe,
  0x65, 0xb3, 0xa4, 0x3e, 0xf1, 0x9b, 0x48, 0xbe, 0x19, 0x37, 0x33, 0xbd,
  0xcb, 0x4a, 0x1d, 0xbe, 0x01, 0x70, 0x7e, 0xbe, 0xac, 0x2b, 0x47, 0xbe,
  0x1b, 0x79, 0x75, 0x3e, 0x7a, 0xe1, 0xa8, 0xbe, 0xc9, 0x55, 0x30, 0x3e,
  0xad, 0x0e, 0x47, 0xbd, 0x27, 0x6a, 0x34, 0x3e, 0x02, 0x56, 0x88, 0xbe,
  0xf6, 0xf7, 0x8b, 0x3d, 0xc1, 0x7f, 0xd2, 0x3d, 0x96, 0x63, 0x14, 0xbe,
  0xa1, 0x75, 0x3c, 0xbe, 0xf4, 0x25, 0x04, 0xbe, 0x94, 0x31, 0x83, 0xbd,
  0x9e, 0x34, 0x0c, 0xbd, 0x2c, 0x2e, 0x6a, 0xbd, 0x4c, 0x45, 0x95, 0x3d,
  0x2c, 0x2b, 0x91, 0xbd, 0x98, 0x15, 0x9e, 0x3d, 0x93, 0x15, 0x4c, 0x3b,
  0xb2, 0x7e, 0xe4, 0xbd, 0x60, 0xf5, 0x71, 0x3d, 0x8a, 0x85, 0xd7, 0x3c,
  0x72, 0xa8, 0xcc, 0xbd, 0xb3, 0x03, 0xb8, 0xbd, 0x01, 0x21, 0xe0, 0xbc,
  0xd4, 0x92, 0x60, 0xbd, 0xfa, 0xcc, 0x0b, 0xbe, 0x7e, 0x57, 0xe4, 0xbe,
  0x10, 0x74, 0x00, 0x3c, 0x15, 0xe6, 0x59, 0x3b, 0xbd, 0xd7, 0x45, 0xbc,
  0x7f, 0x97, 0xbb, 0xbc, 0x68, 0x1c, 0x16, 0xbe, 0x00, 0xea, 0xdd, 0x3d,
  0xda, 0xb4, 0x39, 0x3e, 0x73, 0xe8, 0x85, 0xbe, 0x9d, 0x18, 0x2b, 0xbe,
  0xcc, 0xda, 0xd2, 0xbd, 0xaf, 0x91, 0x1a, 0xbd, 0x20, 0xde, 0x83, 0xbe,
  0x4c, 0x6d, 0x8f, 0xbd, 0x58, 0x51, 0xbe, 0xbe, 0x71, 0x3e, 0x1d, 0xbe,
  0x38, 0xf5, 0xe2, 0xbe, 0x04, 0xe9, 0x6f, 0x3d, 0xa2, 0xa3, 0x2f, 0xbd,
  0x62, 0xa0, 0x6e, 0xbe, 0x21, 0xa6, 0x3b, 0xbe, 0x80, 0x84, 0x31, 0x3e,
  0x1a, 0xa0, 0x11, 0xbe, 0x1a, 0x3a, 0xc0, 0x3b, 0x78, 0x7f, 0xfc, 0x3e,
  0xb9, 0xfd, 0x0d, 0x3c, 0x11, 0x0b, 0x65, 0x3d, 0x33, 0xaa, 0x2f, 0xbe,
  0x2a, 0xc0, 0x9d, 0xbd, 0x7b, 0x1a, 0xc7, 0x3e, 0xd6, 0x04, 0x32, 0xbe,
  0xf0, 0x0f, 0xdc, 0xbe, 0xf9, 0x2f, 0xe9, 0x3e, 0xe0, 0x83, 0x80, 0xbb,
  0xab, 0x32, 0x06, 0xbe, 0x3b, 0x9d, 0x6d, 0xbd, 0x68, 0xa7, 0xfb, 0xbe,
  0x05, 0x40, 0x9a, 0xbd, 0xbc, 0x19, 0x04, 0xbe, 0x5d, 0x3c, 0x1a, 0xbe,
  0xd4, 0xac, 0x16, 0x3f, 0xa9, 0xda, 0x1f, 0xbd, 0x22, 0xda, 0xa4, 0x3c,
  0x30, 0xdf, 0x89, 0xbd, 0x17, 0x1f, 0x9a, 0x3d, 0xb8, 0x0d, 0xf2, 0x3e,
  0xcd, 0x4d, 0x17, 0xbe, 0xac, 0xc3, 0xa7, 0xbe, 0xba, 0x36, 0xc9, 0x3e,
  0x8e, 0xf4, 0x01, 0xbe, 0x63, 0xed, 0xcc, 0xbd, 0x74, 0xc4, 0xbe, 0x3d,
  0x73, 0xd5, 0xd4, 0xbc, 0x21, 0xaa, 0xe6, 0x3c, 0x8f, 0xd6, 0xda, 0x3d,
  0x0d, 0xac, 0x5a, 0x3e, 0x95, 0xf4, 0xf1, 0x3d, 0xdb, 0x9a, 0x0a, 0x3d,
  0x78, 0x73, 0x72, 0x3d, 0x2c, 0xc0, 0x74, 0x3d, 0xe6, 0x4d, 0x86, 0x3d,
  0x80, 0xb9, 0x98, 0x3d, 0xf7, 0x33, 0xbd, 0x3d, 0x0d, 0x99, 0xb8, 0xbd,
  0x53, 0x80, 0x88, 0x3e, 0xda, 0x11, 0xec, 0xbc, 0xe5, 0x79, 0x4f, 0xbd,
  0xee, 0xd3, 0xb1, 0x3d, 0xa1, 0x15, 0xa1, 0x3e, 0xa7, 0x9d, 0x42, 0xbe,
  0x58, 0x41, 0x9f, 0x3d, 0xb1, 0xec, 0x14, 0x3e, 0xc6, 0xbf, 0xf7, 0xbe,
  0xa0, 0xd1, 0x91, 0xbd, 0xd3, 0x28, 0x17, 0x3e, 0x33, 0x67, 0xe1, 0x3d,
  0x1e, 0xee, 0x1c, 0xbf, 0xd7, 0xda, 0x1d, 0xbf, 0x62, 0xc3, 0x84, 0x3d,
  0xb6, 0x86, 0xaa, 0x3e, 0x53, 0x23, 0x12, 0xbf, 0x9d, 0x65, 0xf6, 0x3c,
  0xcc, 0xf9, 0x1e, 0xbe, 0x4c, 0x08, 0xdb, 0x3d, 0x21, 0xbc, 0x5e, 0x3e,
  0x3b, 0x83, 0x49, 0xbe, 0xc4, 0x78, 0xdf, 0x3e, 0x86, 0x1d, 0x29, 0x3e,
  0xd7, 0x05, 0xb4, 0x3d, 0x36, 0xfe, 0x7f, 0x3c, 0xf3, 0x9e, 0xab, 0xbd,
  0x2c, 0xe7, 0xff, 0x3d, 0x96, 0x70, 0x45, 0xbe, 0x6f, 0x2a, 0x56, 0xbe,
  0xcb, 0xf2, 0x12, 0x3d, 0xc5, 0x4f, 0x58, 0x3e, 0x28, 0x40, 0x71, 0x3e,
  0xd8, 0x59, 0xd0, 0x3c, 0x27, 0x7a, 0x3a, 0xbd, 0x37, 0x97, 0xa1, 0xbc,
  0xc7, 0x50, 0x7a, 0x3d, 0x30, 0xec, 0xb7, 0xbd, 0xb4, 0xd6, 0x4e, 0x3e,
  0x78, 0x0d, 0x98, 0x3c, 0x8d, 0x95, 0x27, 0x3e, 0xf6, 0x89, 0xfd, 0x3c,
  0x45, 0xac, 0x09, 0xbd, 0x1e, 0xf5, 0x88, 0xbb, 0x1e, 0x8b, 0xf9, 0x3d,
  0x7a, 0xe8, 0x37, 0x3e, 0x2e, 0x3d, 0x2c, 0xbb, 0x29, 0x30, 0xbd, 0x3e,
  0xca, 0xfb, 0x46, 0x3f, 0xfe, 0x70, 0xd3, 0x3d, 0xde, 0xc7, 0xc2, 0xbd,
  0xee, 0x4a, 0xd1, 0x3d, 0xc9, 0xb5, 0x4b, 0xbd, 0x35, 0x9b, 0xb5, 0xbd,
  0x95, 0xce, 0xa3, 0x3e, 0x29, 0x6a, 0x1d, 0x3e, 0x7f, 0xdf, 0x49, 0x3e,
  0xf4, 0x64, 0x34, 0xbc, 0x52, 0x7f, 0x15, 0x3e, 0x2b, 0xe3, 0x1d, 0x3b,
  0xe2, 0x22, 0xe0, 0x3d, 0x0e, 0xb5, 0x80, 0x3e, 0xd5, 0x47, 0x52, 0x3c,
  0x1f, 0x00, 0x97, 0x3e, 0x97, 0x6c, 0x3d, 0x3f, 0x4f, 0x83, 0x11, 0x3e,
  0x43, 0x43, 0xb5, 0xbd, 0x7b, 0x6f, 0x38, 0x3b, 0x83, 0x23, 0xd0, 0x3d,
  0x75, 0x19, 0x75, 0xbe, 0x4a, 0x39, 0xd8, 0x3e, 0x23, 0x9d, 0xa2, 0x3e,
  0x76, 0xef, 0x95, 0xbd, 0x47, 0xad, 0x32, 0x3d, 0xb7, 0x76, 0x02, 0x3e,
  0xe0, 0x35, 0x19, 0x3d, 0x6b, 0xe9, 0x9b, 0xbe, 0xba, 0xe2, 0x9c, 0xbe,
  0x1e, 0x28, 0xfb, 0x3d, 0x4b, 0x77, 0xf7, 0x3e, 0xb1, 0x82, 0x2a, 0xbe,
  0x11, 0x63, 0x4d, 0x3e, 0x08, 0xbc, 0x88, 0xbd, 0xaa, 0x70, 0x29, 0x3d,
  0x00, 0x21, 0x53, 0x3e, 0x14, 0xf3, 0x52, 0xbe, 0xf0, 0xde, 0x97, 0x3e,
  0x6f, 0x12, 0x89, 0x3d, 0x3f, 0x53, 0x86, 0xbe, 0x0a, 0xc6, 0x79, 0xbc,
  0xff, 0xcc, 0x96, 0x3d, 0x4b, 0x76, 0x2c, 0xbc, 0x07, 0x3f, 0xbe, 0xbe,
  0x90, 0x93, 0x53, 0xbe, 0x15, 0x52, 0x92, 0x3d, 0x0d, 0x54, 0x84, 0x3e,
  0xd7, 0xfc, 0x9b, 0xbe, 0xfd, 0xa3, 0x47, 0x3e, 0x4c, 0x40, 0xfc, 0xbc,
  0x35, 0x53, 0xed, 0x3c, 0x7b, 0x88, 0xc0, 0xbc, 0x74, 0xe2, 0x38, 0xbe,
  0xce, 0xb1, 0xd2, 0xbd, 0x8b, 0xef, 0x71, 0xbd, 0xd6, 0x51, 0x94, 0xbe,
  0x8b, 0xd6, 0x80, 0x3b, 0xaa, 0x2b, 0xc3, 0x3e, 0xec, 0xe3, 0x49, 0x3d,
  0xc4, 0x5f, 0x80, 0xbe, 0x61, 0x82, 0x77, 0xbe, 0x8a, 0x34, 0xb5, 0x3d,
  0x89, 0xb8, 0xa0, 0xbc, 0xd3, 0xe6, 0x63, 0xbe, 0x05, 0x8e, 0x6c, 0xbd,
  0xd2, 0x50, 0xda, 0xbd, 0x36, 0x81, 0x16, 0x3a, 0x7f, 0xe7, 0xd5, 0xbd,
  0x12, 0x7a, 0x85, 0xbe, 0x54, 0xc2, 0x0c, 0x3f, 0xa4, 0xcb, 0x0e, 0xbe,
  0xea, 0x05, 0x9a, 0x3c, 0xef, 0x72, 0xcc, 0xbd, 0x7f, 0x43, 0x89, 0x3d,
  0xf5, 0x03, 0xd8, 0xbd, 0xf8, 0x87, 0xa3, 0xbe, 0x56, 0x26, 0x24, 0xbe,
  0x7f, 0x6d, 0x89, 0xbe, 0xd9, 0x8e, 0xbd, 0x3c, 0x9b, 0x59, 0x79, 0xbe,
  0x9a, 0xff, 0xc8, 0xbd, 0xda, 0xc5, 0x5e, 0xbe, 0x9b, 0x41, 0x3e, 0xbe,
  0xc7, 0x54, 0x2d, 0xbd, 0x8c, 0x59, 0x6a, 0xbe, 0x91, 0x91, 0x11, 0x3f,
  0x9e, 0x42, 0x3b, 0x3e, 0xc8, 0xdb, 0x80, 0x3d, 0xca, 0x72, 0xa0, 0xbe,
  0x33, 0x44, 0x43, 0xbd, 0xf4, 0x62, 0x42, 0x3e, 0xdd, 0x88, 0x0d, 0xbe,
  0x63, 0x06, 0x2a, 0xbe, 0x89, 0x92, 0xf7, 0xbd, 0x1b, 0xb1, 0x3e, 0x3e,
  0x21, 0x5f, 0xe0, 0xbd, 0x6c, 0x07, 0x0d, 0xbe, 0x31, 0x04, 0x24, 0xbd,
  0x6b, 0x48, 0x43, 0xbe, 0x66, 0xf9, 0x9d, 0x3d, 0xcf, 0x70, 0x90, 0xbe,
  0x74, 0x75, 0x28, 0x3f, 0x58, 0x7d, 0x75, 0x3d, 0x48, 0x97, 0x2c, 0x3d,
  0xf6, 0x97, 0xca, 0xbe, 0x1f, 0x6a, 0x3d, 0x3d, 0x52, 0xd7, 0xab, 0x3d,
  0xa1, 0xe9, 0xb0, 0xbd, 0x39, 0x09, 0xda, 0x3d, 0x38, 0x96, 0x00, 0xbe,
  0xed, 0x8a, 0x98, 0xbc, 0xe8, 0x20, 0x53, 0xbd, 0xe7, 0xe5, 0x14, 0x3e,
  0xa6, 0x5f, 0x98, 0xbb, 0xfe, 0x4f, 0x18, 0x3d, 0xec, 0x6e, 0x2e, 0xbe,
  0x37, 0x01, 0x15, 0x3d, 0x27, 0x0d, 0x1f, 0x3f, 0xaf, 0x20, 0x2f, 0xbe,
  0xf5, 0x3e, 0x0c, 0xbe, 0xc8, 0xf6, 0xae, 0xbe, 0xdd, 0x38, 0x8e, 0xbd,
  0xa5, 0x34, 0x5f, 0xbd, 0x26, 0x25, 0x9b, 0xbe, 0x70, 0x0d, 0x36, 0x3e,
  0x48, 0x6c, 0x3d, 0x3e, 0x73, 0x5d, 0x5c, 0xbd, 0x97, 0xe6, 0x16, 0xbd,
  0x00, 0x26, 0x20, 0x3a, 0x49, 0xdf, 0x2a, 0xbe, 0xf5, 0x79, 0x44, 0xbd,
  0xe5, 0xbe, 0x7a, 0x3b, 0x82, 0x90, 0x1c, 0xbe, 0xe6, 0xb6, 0x13, 0x3f,
  0x90, 0xc0, 0x81, 0x3d, 0x53, 0x90, 0x25, 0x3e, 0xf0, 0x29, 0x0e, 0xbe,
  0x0f, 0x82, 0x0c, 0x3d, 0xbc, 0x3f, 0x91, 0x3e, 0x0b, 0x7f, 0x8d, 0xbd,
  0x78, 0x30, 0x42, 0xbe, 0xca, 0x82, 0x93, 0x3d, 0xc5, 0x3c, 0x33, 0xbe,
  0xd6, 0x02, 0xc9, 0xbd, 0xfa, 0x67, 0x0c, 0xbe, 0x1c, 0xa3, 0x1d, 0xbe,
  0x41, 0x41, 0xb8, 0xbd, 0x36, 0xb6, 0x76, 0xbe, 0x41, 0x54, 0xe8, 0xbd,
  0xde, 0x40, 0x36, 0x3f, 0x21, 0x07, 0xba, 0x3d, 0x62, 0xf1, 0xc0, 0xbd,
  0xdb, 0x18, 0x8e, 0x3c, 0x35, 0xda, 0x38, 0x3e, 0x47, 0x6f, 0x65, 0x3c,
  0xfe, 0xe5, 0x1b, 0xbd, 0x67, 0xcc, 0x7a, 0xbe, 0x8b, 0xaa, 0x36, 0xbc,
  0x35, 0x0a, 0x02, 0xbe, 0x2c, 0x07, 0xd7, 0xbd, 0xbe, 0xe0, 0xea, 0x3d,
  0xb6, 0xcb, 0x62, 0xbe, 0x6f, 0x24, 0x81, 0xbe, 0xa7, 0x9d, 0x7b, 0x3d,
  0xda, 0x8c, 0xd7, 0xbc, 0x5a, 0x97, 0x21, 0x3e, 0x5e, 0xea, 0xb1, 0xbc,
  0xbf, 0xde, 0x7f, 0xbe, 0x51, 0x9c, 0x94, 0xbc, 0x36, 0x8e, 0x76, 0x3d,
  0xcc, 0x79, 0x19, 0xbe, 0xd9, 0x9f, 0x6f, 0xbe, 0x4a, 0x69, 0xb7, 0xbd,
  0x85, 0x3d, 0x1b, 0xbe, 0xc1, 0xb3, 0xf9, 0xbd, 0xce, 0xcc, 0xf5, 0xbd,
  0xa4, 0x0d, 0xaf, 0x3a, 0x6c, 0xa6, 0xcf, 0xbd, 0x7e, 0xb7, 0x2d, 0xbc,
  0x19, 0x03, 0x15, 0xbe, 0x81, 0xea, 0x0b, 0x3d, 0x3c, 0x49, 0x2f, 0x3f,
  0x51, 0x50, 0xda, 0x3d, 0xbe, 0xb4, 0xc2, 0xbb, 0xad, 0xe1, 0xc5, 0xbe,
  0x71, 0x20, 0x4e, 0xbe, 0x31, 0x0e, 0x01, 0x3e, 0x14, 0x7f, 0xd3, 0xbc,
  0xac, 0x95, 0xcb, 0xbd, 0x26, 0xe2, 0x3c, 0xbe, 0xcd, 0x02, 0x13, 0xbe,
  0x39, 0xc4, 0xac, 0x3b, 0xcc, 0x62, 0xa4, 0x3d, 0x28, 0x93, 0x4b, 0xbe,
  0x4e, 0x11, 0x15, 0xbc, 0x6e, 0xc9, 0x78, 0xbd, 0xb9, 0x1d, 0x2b, 0xbe,
  0x19, 0xda, 0x88, 0x3f, 0x8a, 0x94, 0xe7, 0xbd, 0x9b, 0xa4, 0x4a, 0xbe,
  0x9f, 0x85, 0x15, 0xbe, 0x78, 0xd2, 0x6e, 0xbd, 0xeb, 0xca, 0x41, 0xbd,
  0x11, 0xb4, 0x64, 0xbe, 0xf6, 0x07, 0x03, 0x3e, 0x20, 0x8d, 0xa5, 0x3d,
  0x96, 0xd6, 0xd5, 0xbd, 0x6a, 0x96, 0xc9, 0x3d, 0x32, 0xd9, 0xa5, 0x3d,
  0x4f, 0x4b, 0x82, 0xbd, 0xd2, 0x06, 0x5c, 0xbe, 0xe2, 0x06, 0x00, 0x3e,
  0x14, 0x10, 0x19, 0xbd, 0xa1, 0x94, 0x82, 0x3f, 0x9d, 0x2a, 0xc0, 0x3d,
  0xd7, 0xee, 0x4a, 0xbe, 0xd7, 0x3b, 0x87, 0xbe, 0x2c, 0xe2, 0x3e, 0x3e,
  0x82, 0xba, 0x8c, 0xbd, 0x67, 0xf9, 0xa4, 0x3b, 0x89, 0x4b, 0x19, 0x3e,
  0xdf, 0x79, 0x8b, 0xbd, 0x00, 0x98, 0x11, 0xbc, 0x90, 0x1e, 0x67, 0xbe,
  0x78, 0xc6, 0x1e, 0xbe, 0x9c, 0x12, 0xaa, 0xbd, 0x86, 0x51, 0x76, 0xbe,
  0x96, 0x41, 0xc2, 0xbd, 0xff, 0x3a, 0x0a, 0xbe, 0x0a, 0x63, 0x34, 0x3f,
  0xd4, 0x82, 0xc0, 0x3c, 0x4d, 0x7f, 0x52, 0xbe, 0xa7, 0x8a, 0xc4, 0xbe,
  0xaa, 0x68, 0xbc, 0x3d, 0x5e, 0x71, 0x75, 0xbd, 0xc9, 0x30, 0x4e, 0xbd,
  0x76, 0x6f, 0x02, 0xbe, 0xc1, 0x40, 0x55, 0xbe, 0xe3, 0xa2, 0xbd, 0xbd,
  0xf2, 0x4b, 0x4a, 0x3d, 0x41, 0xfb, 0x2d, 0x3e, 0xfb, 0x7a, 0x66, 0xbe,
  0x14, 0x0e, 0x7b, 0xbd, 0xd9, 0xdb, 0x87, 0xbe, 0xb8, 0x61, 0x1a, 0x3d,
  0x8d, 0xcb, 0x94, 0x3f, 0x43, 0x82, 0x4b, 0x3d, 0x95, 0xbd, 0xa0, 0xbd,
  0x25, 0x29, 0x8e, 0xbe, 0xbf, 0x0d, 0xbe, 0xbc, 0x49, 0x02, 0x0b, 0x3d,
  0x75, 0x59, 0x67, 0xbe, 0x6a, 0x36, 0x7b, 0x3d, 0x1c, 0xbd, 0x74, 0xbd,
  0xd2, 0x9c, 0xaf, 0x3b, 0x18, 0xf5, 0x71, 0xbc, 0x68, 0x7c, 0x91, 0xbc,
  0x68, 0x18, 0xbc, 0xbe, 0x8e, 0x57, 0x94, 0xbe, 0xba, 0x63, 0xab, 0x3d,
  0x08, 0x0a, 0x24, 0xbe, 0x77, 0x74, 0xa2, 0x3f, 0xe7, 0xa8, 0xc7, 0xbd,
  0x66, 0x39, 0xc0, 0xbd, 0x2d, 0x6f, 0x12, 0xbe, 0x6e, 0xf2, 0x0c, 0xbe,
  0x30, 0xe5, 0xb2, 0xbe, 0xa5, 0x5c, 0x47, 0x3c, 0x4f, 0x5a, 0x5d, 0xbe,
  0x26, 0xf5, 0x2b, 0xbe, 0x1e, 0x37, 0x0e, 0x3e, 0x80, 0x6d, 0xa2, 0x3d,
  0x57, 0x77, 0x26, 0x3e, 0x0f, 0xd9, 0x81, 0xbc, 0xbb, 0x68, 0x6a, 0xbe,
  0xe6, 0x06, 0x9b, 0xbd, 0x78, 0x7e, 0xce, 0xbd, 0xe3, 0x16, 0x03, 0x3f,
  0xbf, 0x16, 0x2b, 0xbe, 0xa0, 0xc2, 0xd0, 0xbd, 0xc5, 0x3f, 0x4a, 0xbe,
  0xd2, 0xb7, 0x2c, 0xbe, 0xf3, 0x63, 0xa5, 0x3c, 0x60, 0x46, 0x34, 0xbe,
  0x9b, 0x5b, 0x80, 0xbe, 0xad, 0xd9, 0xd8, 0xbc, 0x4b, 0x52, 0xfa, 0xbc,
  0xa1, 0xcc, 0xfa, 0xbc, 0x6a, 0xd8, 0xa4, 0xbd, 0xa4, 0x8a, 0x7b, 0xbe,
  0x36, 0xfd, 0xb7, 0xbd, 0x17, 0x72, 0x6d, 0x3e, 0xcd, 0x39, 0xd5, 0xbd,
  0xcc, 0xcc, 0x87, 0xbe, 0xd0, 0x72, 0xa2, 0x3c, 0x4b, 0xff, 0x7d, 0xbe,
  0x22, 0xd7, 0x1a, 0xbe, 0x0d, 0xc3, 0xa0, 0x3d, 0xbf, 0xea, 0xec, 0x3d,
  0x45, 0xa8, 0x26, 0xbe, 0x82, 0xb5, 0xc2, 0xbe, 0xa5, 0xc2, 0x11, 0x3e,
  0xe7, 0x7b, 0xec, 0x3d, 0x39, 0xe3, 0xa2, 0xbe, 0xae, 0x6c, 0x02, 0xbc,
  0x20, 0x5a, 0x40, 0xbe, 0x1f, 0x13, 0xa8, 0xbd, 0xfb, 0x01, 0xa8, 0x3e,
  0x82, 0x1d, 0xa1, 0x3d, 0xcf, 0x7f, 0xa9, 0x3d, 0x5a, 0x84, 0x7a, 0x3e,
  0xa7, 0xdb, 0x49, 0x3e, 0x7d, 0xab, 0x2c, 0xbe, 0xbe, 0xe6, 0xce, 0xbd,
  0x0e, 0xae, 0x8c, 0x3d, 0x88, 0x85, 0x15, 0x3d, 0x55, 0xbb, 0x5f, 0xbe,
  0xf6, 0x7a, 0x20, 0xbe, 0x9c, 0x43, 0x1e, 0x3e, 0x99, 0xa4, 0x71, 0x3e,
  0x7f, 0xee, 0x3d, 0x3e, 0x1a, 0xbc, 0x16, 0xbe, 0x5a, 0x03, 0x1b, 0xbe,
  0x44, 0xc6, 0x94, 0xba, 0x2e, 0xf9, 0x31, 0xbe, 0x7f, 0x94, 0x14, 0xbe,
  0x55, 0x8b, 0x97, 0x3e, 0x6b, 0x8b, 0x9f, 0x3e, 0xcf, 0xba, 0x12, 0x3e,
  0x1f, 0xeb, 0x82, 0xbc, 0x45, 0xa5, 0x54, 0xbe, 0xd8, 0x59, 0xc2, 0xb8,
  0xa3, 0x43, 0xb5, 0x3e, 0xd8, 0x4d, 0x0b, 0xbd, 0xda, 0x9c, 0x44, 0xbc,
  0xe4, 0xbf, 0x64, 0x3e, 0xf7, 0xa8, 0x3f, 0xbe, 0x0a, 0x9e, 0xfe, 0xbd,
  0x03, 0x56, 0x19, 0x3d, 0xa1, 0xdb, 0x78, 0xbd, 0x6e, 0xcb, 0xa9, 0xba,
  0x41, 0x2c, 0x88, 0x3d, 0x30, 0xdf, 0x9a, 0xbc, 0xc7, 0x95, 0xc6, 0xbc,
  0xb7, 0x0f, 0x66, 0x3e, 0x8b, 0xa3, 0x0b, 0x3e, 0x0a, 0x0c, 0x49, 0xbe,
  0x30, 0x89, 0x33, 0x3e, 0x2a, 0x5a, 0x86, 0x3d, 0xbe, 0x3f, 0x17, 0x3c,
  0x24, 0x35, 0x78, 0x3d, 0xd3, 0xd5, 0x9e, 0x3e, 0x20, 0x75, 0xfe, 0x3c,
  0xda, 0x6d, 0x4e, 0xbd, 0x0e, 0x67, 0x3d, 0x3e, 0xf5, 0x96, 0xe8, 0x3c,
  0x10, 0x63, 0x27, 0xbe, 0xd5, 0xcb, 0x04, 0xbe, 0xd4, 0xf0, 0xa5, 0xbd,
  0x3f, 0xa4, 0x8e, 0xbc, 0xcb, 0xb9, 0x0e, 0x3d, 0x3a, 0x18, 0x71, 0x3e,
  0xd5, 0xfc, 0x71, 0x3d, 0x7b, 0xa3, 0xef, 0xbd, 0xe9, 0x52, 0x08, 0xbe,
  0xc1, 0x31, 0xdb, 0x3c, 0xdc, 0xe2, 0xfa, 0x3e, 0xc2, 0xf0, 0xb4, 0xbd,
  0xca, 0x2f, 0xc4, 0xbd, 0x0f, 0x13, 0xbb, 0xbd, 0x53, 0xf9, 0x5d, 0x3c,
  0x2e, 0xbd, 0x9b, 0x3e, 0x96, 0xef, 0x0d, 0xbe, 0xe4, 0xa9, 0x80, 0xbd,
  0x6e, 0x3b, 0x8b, 0x3d, 0xba, 0x4c, 0x9e, 0xbe, 0x5b, 0xe6, 0x30, 0xbc,
  0x4c, 0xa8, 0x18, 0x3e, 0x29, 0xac, 0xc1, 0x3c, 0xc5, 0x65, 0xbd, 0xbd,
  0x81, 0xed, 0x73, 0xbe, 0x19, 0xc5, 0x92, 0x3d, 0x5d, 0x67, 0xec, 0x3d,
  0x6a, 0x82, 0xb3, 0xbe, 0x62, 0x14, 0xd6, 0x3d, 0x9c, 0xff, 0x96, 0xbd,
  0x10, 0xee, 0x8c, 0xbc, 0x0b, 0x06, 0x24, 0xbd, 0x84, 0xea, 0x60, 0xbd,
  0x12, 0x81, 0xea, 0x3c, 0x3a, 0x97, 0x60, 0xbd, 0xa7, 0x55, 0x36, 0xbe,
  0x15, 0xb3, 0xe5, 0x3c, 0x1f, 0x23, 0x27, 0x3d, 0x01, 0xed, 0x19, 0xbd,
  0x1f, 0x26, 0x21, 0xbe, 0x66, 0xd3, 0x99, 0xbd, 0x35, 0x80, 0xea, 0xbc,
  0x8d, 0x33, 0x97, 0x3d, 0xbf, 0x0c, 0xe9, 0xbc, 0x9b, 0xdd, 0xee, 0x3b,
  0x6e, 0x6c, 0xf5, 0x3b, 0x21, 0x1b, 0xcb, 0xbc, 0x3e, 0x54, 0x70, 0xbe,
  0x49, 0x96, 0x2b, 0xbe, 0xde, 0x1c, 0x19, 0xbe, 0xdc, 0x7d, 0x93, 0xbe,
  0x36, 0xe7, 0xa4, 0xbe, 0x46, 0x9c, 0xce, 0xbd, 0xd7, 0x28, 0xb6, 0x3d,
  0xc8, 0x93, 0x4e, 0x3e, 0x48, 0x5a, 0x46, 0xbe, 0x1b, 0x6f, 0x86, 0xbe,
  0xa5, 0x2e, 0x65, 0xbe, 0xa5, 0x7c, 0x86, 0xbd, 0xc8, 0x12, 0xab, 0xbe,
  0x7e, 0x02, 0x27, 0xbe, 0x53, 0x08, 0xca, 0x3d, 0x4b, 0x3b, 0x9b, 0xbe,
  0x63, 0xdf, 0x18, 0x3e, 0xb4, 0xad, 0xac, 0x3d, 0x1a, 0x22, 0x1a, 0xbe,
  0xac, 0x79, 0xd7, 0xbd, 0x48, 0x44, 0xc7, 0x3e, 0x01, 0x1b, 0x90, 0x3d,
  0xc4, 0x33, 0x14, 0xbe, 0x07, 0x45, 0xc0, 0x3d, 0x15, 0xf2, 0xf4, 0x3d,
  0x7d, 0x2b, 0x70, 0x3d, 0xa8, 0x2e, 0x45, 0x3d, 0x3c, 0x3c, 0xa0, 0xbe,
  0x9a, 0xe2, 0x92, 0xba, 0xca, 0x74, 0xf9, 0x3d, 0xcd, 0x12, 0xf7, 0x3d,
  0x44, 0xdc, 0x80, 0xbe, 0xdc, 0x93, 0x2a, 0x3e, 0xb4, 0x2a, 0xaa, 0x3e,
  0x7c, 0x01, 0x39, 0x3e, 0x6a, 0x01, 0xa5, 0x3e, 0xf4, 0xf5, 0x7c, 0x3e,
  0xff, 0x32, 0xe8, 0xbc, 0x49, 0x87, 0xe0, 0xbd, 0x45, 0x1d, 0x7e, 0x3d,
  0xd0, 0x6c, 0xed, 0xbd, 0x60, 0x07, 0x53, 0x3e, 0x7e, 0xbe, 0x75, 0xbd,
  0x22, 0x28, 0xcd, 0x3d, 0x41, 0x9f, 0x56, 0xbe, 0xc4, 0xb3, 0x0e, 0xbe,
  0xf1, 0x4f, 0x39, 0x3d, 0x12, 0xb3, 0x47, 0xbd, 0x1e, 0x69, 0x87, 0x3e,
  0xad, 0x2a, 0x90, 0xbc, 0xa7, 0xeb, 0x9a, 0x3e, 0x54, 0x88, 0xbf, 0xbd,
  0xe6, 0x7f, 0x4c, 0x3e, 0x9c, 0x9a, 0x2a, 0x3d, 0xda, 0x9d, 0x92, 0x3d,
  0xec, 0x67, 0xca, 0xbd, 0x7e, 0x59, 0xab, 0xbd, 0xb0, 0xdb, 0xe8, 0x3d,
  0xf1, 0xe8, 0x43, 0xbe, 0x96, 0x19, 0xb5, 0x3d, 0x5c, 0x89, 0xf8, 0xbd,
  0xce, 0x1f, 0x4e, 0xbe, 0x26, 0xb2, 0x50, 0x3d, 0x64, 0xea, 0x49, 0xbd,
  0x66, 0x4e, 0x20, 0xbe, 0xb6, 0x80, 0x1a, 0x3e, 0x1b, 0x03, 0xcf, 0x3b,
  0x13, 0xeb, 0x88, 0x3e, 0x3a, 0x98, 0x91, 0x3e, 0xbd, 0xc4, 0xdf, 0xbc,
  0xb1, 0x45, 0x19, 0x3e, 0xef, 0xc9, 0x00, 0x3e, 0xb7, 0xc1, 0x11, 0xbe,
  0xb6, 0xed, 0xea, 0x3d, 0x2d, 0x34, 0xe5, 0xbd, 0x14, 0x48, 0x19, 0xbd,
  0x52, 0x06, 0x0b, 0x3e, 0xa3, 0xf5, 0x20, 0x3e, 0x2c, 0x0b, 0x9d, 0x3c,
  0x91, 0xe9, 0x0a, 0xbe, 0x16, 0x30, 0x1c, 0x3e, 0x90, 0xff, 0x43, 0x3e,
  0x3c, 0xe4, 0xa1, 0x3e, 0x9f, 0xc6, 0x82, 0x3e, 0x86, 0x2a, 0x49, 0xbd,
  0x9a, 0x7d, 0xe9, 0xbd, 0x68, 0x0a, 0x15, 0x3e, 0x27, 0x62, 0x86, 0xbc,
  0x55, 0x30, 0x62, 0xbd, 0xab, 0x23, 0x97, 0xbd, 0x80, 0x17, 0x25, 0xbe,
  0x80, 0xc1, 0xd7, 0x3d, 0xd7, 0xb2, 0x2f, 0xbe, 0x9f, 0x13, 0x28, 0x3e,
  0x64, 0xf8, 0xd4, 0x3c, 0xe8, 0x3f, 0x80, 0xbe, 0xb8, 0x1b, 0x33, 0x3d,
  0x06, 0xba, 0x2e, 0x3e, 0xa0, 0x86, 0x6b, 0xbe, 0x98, 0x58, 0x90, 0xbd,
  0x4f, 0xe5, 0x04, 0xbd, 0x34, 0x80, 0xaa, 0xbd, 0x46, 0x8e, 0x11, 0xbd,
  0xf9, 0x43, 0x8f, 0xbd, 0x68, 0x3d, 0x6c, 0x3d, 0x1d, 0xed, 0x2f, 0xbe,
  0xee, 0x45, 0xa1, 0xbd, 0xe1, 0x3d, 0xad, 0xbd, 0xb5, 0x73, 0x83, 0xbe,
  0x92, 0x0f, 0x36, 0x3c, 0x95, 0x31, 0x9f, 0x3c, 0x10, 0xe8, 0x4c, 0xbe,
  0x91, 0xb0, 0xf7, 0x3d, 0xf2, 0xa4, 0xd7, 0xbd, 0xc7, 0x5c, 0xf3, 0x3e,
  0x88, 0x41, 0x5d, 0xbe, 0xba, 0x58, 0xe8, 0xbd, 0xd3, 0xa6, 0x21, 0xbd,
  0x11, 0xc6, 0xb2, 0xbd, 0x74, 0xfb, 0x1a, 0xbe, 0x17, 0x90, 0x26, 0xbe,
  0x10, 0x55, 0xdd, 0xbc, 0x7f, 0xef, 0x51, 0xbe, 0xa6, 0x1d, 0x0b, 0xbe,
  0xc2, 0x10, 0xfa, 0xbd, 0xc8, 0xcd, 0xb4, 0xbd, 0xb5, 0xc0, 0x88, 0xbe,
  0x17, 0x11, 0x7d, 0x3c, 0x33, 0xad, 0xd5, 0xbd, 0x47, 0x6e, 0x2e, 0xbe,
  0xde, 0xf3, 0x06, 0x3f, 0x45, 0xde, 0x2a, 0xbe, 0x89, 0xa0, 0xae, 0xbd,
  0x9e, 0x99, 0xd1, 0xbd, 0xf2, 0x25, 0xef, 0xbd, 0x5c, 0xa3, 0x34, 0xbe,
  0xc9, 0x14, 0x83, 0xbe, 0x7d, 0x96, 0x60, 0xbe, 0xa2, 0x45, 0xe0, 0xbd,
  0x78, 0x9f, 0xee, 0x3c, 0xb1, 0xff, 0x22, 0x3e, 0xd2, 0x2a, 0xb0, 0x3d,
  0x3a, 0x49, 0x83, 0x3d, 0x3b, 0x64, 0x0b, 0xbe, 0xd0, 0xdb, 0x1e, 0xbe,
  0xd0, 0x1e, 0x0e, 0xbe, 0x36, 0xb1, 0x02, 0x3f, 0x9a, 0x86, 0x63, 0xbd,
  0x9f, 0x27, 0xdb, 0x3c, 0xde, 0x2e, 0x8b, 0xbe, 0xc2, 0x27, 0x1c, 0xbe,
  0xbf, 0xc9, 0x41, 0x3d, 0x15, 0x34, 0x40, 0xbc, 0x44, 0xd3, 0xa4, 0xbd,
  0x82, 0xad, 0x02, 0xbe, 0xb7, 0x10, 0x17, 0xbd, 0x79, 0xaf, 0x27, 0x3e,
  0x76, 0xe4, 0x3e, 0xbe, 0x12, 0x57, 0x95, 0xbd, 0xe5, 0x33, 0x71, 0xbd,
  0x2a, 0x1d, 0x1b, 0xbe, 0xea, 0xdb, 0x86, 0xbe, 0x45, 0xe5, 0x03, 0x3f,
  0xa1, 0x84, 0x16, 0xbe, 0x02, 0x16, 0xb0, 0xbc, 0x68, 0x48, 0xba, 0xbd,
  0x38, 0xf3, 0xef, 0xbd, 0x1c, 0xcd, 0x5b, 0xbe, 0x47, 0x06, 0xb1, 0xbd,
  0xa6, 0x10, 0xa7, 0xbd, 0xbe, 0x05, 0x2b, 0xbd, 0x32, 0x57, 0x63, 0xbd,
  0xac, 0xab, 0x0b, 0xbe, 0x7e, 0xb3, 0xd0, 0x3d, 0x2f, 0x2e, 0x79, 0xbe,
  0xd6, 0x6c, 0x81, 0xbc, 0x6c, 0x73, 0xe9, 0x3d, 0x1e, 0x08, 0x6f, 0x3c,
  0x1e, 0x71, 0xe6, 0x3e, 0x3c, 0x1d, 0xaa, 0xbd, 0x1a, 0x80, 0x01, 0xbd,
  0x74, 0x69, 0xb8, 0xbd, 0x8d, 0x96, 0x53, 0xbe, 0xf3, 0x92, 0xd4, 0xbd,
  0x37, 0xf6, 0x52, 0xbe, 0xa6, 0xff, 0x6d, 0x3d, 0xe9, 0x86, 0x70, 0xbe,
  0xc7, 0x0e, 0xfa, 0xbd, 0xe4, 0x46, 0x6a, 0xbe, 0x28, 0x90, 0x4d, 0xbe,
  0xf4, 0x95, 0x5f, 0xbe, 0x68, 0xa3, 0x06, 0xbd, 0x29, 0x95, 0x10, 0xbe,
  0xcc, 0xed, 0xed, 0x3c, 0x51, 0x3d, 0x93, 0x3f, 0x8d, 0x5a, 0x35, 0xbe,
  0xcb, 0x01, 0x43, 0xbd, 0xd5, 0x45, 0xaf, 0xbe, 0x3b, 0xdb, 0xe0, 0xbc,
  0xe0, 0x2c, 0x2b, 0x3d, 0x80, 0xf7, 0x06, 0xbe, 0x56, 0x8d, 0xbc, 0xbd,
  0xdf, 0x10, 0x5c, 0x3d, 0x88, 0xe9, 0x7e, 0xbb, 0x4f, 0x55, 0xa2, 0xbc,
  0x99, 0xa7, 0x41, 0xbe, 0x62, 0x21, 0x66, 0xbe, 0x7e, 0x07, 0x65, 0xbd,
  0xb5, 0x6d, 0x91, 0xbe, 0xe1, 0x88, 0x67, 0xbe, 0xaf, 0x21, 0xb5, 0x3e,
  0x05, 0x2d, 0x87, 0xbe, 0x3e, 0x9e, 0x80, 0xbe, 0x65, 0x3b, 0xd2, 0xbd,
  0x14, 0x8f, 0x30, 0xbe, 0xe3, 0x62, 0x3d, 0xbe, 0x80, 0x89, 0x35, 0xbe,
  0x1d, 0x26, 0x85, 0xbe, 0xd2, 0x85, 0xab, 0xbd, 0x98, 0x0b, 0x1a, 0xbd,
  0x10, 0x09, 0x13, 0x3d, 0xc8, 0xa2, 0xf6, 0xbc, 0xc2, 0xc7, 0x35, 0x3d,
  0xe1, 0x90, 0x1a, 0x3d, 0x5e, 0x7c, 0xd8, 0xbe, 0xf9, 0xff, 0x0c, 0xbe,
  0x93, 0x48, 0x0b, 0xbf, 0x11, 0x97, 0xec, 0xbe, 0x9b, 0xa2, 0x15, 0xbf,
  0xeb, 0xba, 0x2a, 0xbc, 0x83, 0xaf, 0x32, 0xbe, 0x82, 0x7a, 0xc7, 0x3d,
  0xd8, 0x67, 0xa6, 0xbe, 0x07, 0x97, 0x8a, 0xbe, 0x30, 0x5f, 0x5c, 0xbe,
  0xfd, 0xc4, 0x0c, 0xbf, 0x4e, 0x9d, 0x20, 0xbe, 0x62, 0xab, 0x1e, 0x3e,
  0xc1, 0xf8, 0xdd, 0x3d, 0x0c, 0x29, 0x6b, 0xbe, 0x01, 0xf6, 0x11, 0x3e,
  0x3d, 0x62, 0xa6, 0x3d, 0x30, 0xdb, 0x33, 0x3d, 0x0a, 0xad, 0x6a, 0x3e,
  0xc9, 0x4d, 0x98, 0x3e, 0x02, 0x5c, 0xd4, 0xbc, 0x24, 0x82, 0x8e, 0xbe,
  0x59, 0xfe, 0xbf, 0xbc, 0xed, 0x2f, 0x9c, 0xbb, 0xbe, 0x2a, 0x1e, 0x3e,
  0x34, 0xc3, 0x24, 0x3d, 0x03, 0x15, 0x05, 0xbf, 0xbf, 0x7d, 0xe0, 0x3d,
  0xd4, 0x14, 0x72, 0x3d, 0xf8, 0x64, 0x98, 0x3d, 0x23, 0xd3, 0x12, 0xbe,
  0x68, 0x60, 0x51, 0x3e, 0x92, 0x5f, 0x39, 0x3e, 0xf3, 0x56, 0xb8, 0x3d,
  0xac, 0xd5, 0x09, 0x3d, 0x5a, 0xe6, 0xa0, 0x3e, 0xe5, 0x15, 0xbc, 0xbd,
  0xbb, 0x14, 0x1a, 0xbe, 0x9b, 0x00, 0x09, 0x3e, 0xbf, 0xe4, 0xae, 0x3d,
  0xd3, 0x73, 0x97, 0x3e, 0x2f, 0x74, 0x29, 0xbe, 0x9c, 0xde, 0x46, 0x3e,
  0x59, 0x19, 0xa5, 0xbc, 0x00, 0x9e, 0xfd, 0x3a, 0xce, 0xa0, 0x28, 0x3d,
  0xf0, 0x4c, 0x83, 0x3c, 0xfb, 0xde, 0xab, 0x3d, 0xe4, 0x3c, 0x95, 0xbd,
  0xb5, 0x28, 0x91, 0x3e, 0x7f, 0x16, 0x72, 0x3e, 0x63, 0x53, 0x94, 0x3e,
  0x14, 0x82, 0xac, 0xbd, 0xdc, 0x8f, 0x92, 0x3d, 0x76, 0xd7, 0xe7, 0x3d,
  0xd6, 0x78, 0xf4, 0x3d, 0x72, 0x82, 0x8b, 0x3e, 0xec, 0x2a, 0x85, 0x3d,
  0x4a, 0xd1, 0x51, 0x3d, 0xff, 0x43, 0x94, 0x3d, 0xa4, 0x5c, 0x5f, 0x3d,
  0xb6, 0x63, 0x0a, 0x3d, 0xbe, 0xec, 0x48, 0x3d, 0x02, 0xa2, 0x64, 0xbc,
  0x78, 0xe8, 0x48, 0x3d, 0x52, 0x18, 0x81, 0x3e, 0x83, 0x82, 0x20, 0x3e,
  0x9b, 0x18, 0xad, 0xbc, 0x11, 0x7a, 0x02, 0x3c, 0xd2, 0x59, 0x9d, 0xbd,
  0x25, 0xa2, 0x10, 0x3e, 0x4d, 0xe7, 0x4e, 0x3d, 0xd3, 0x6b, 0x1f, 0x3e,
  0x16, 0x82, 0x52, 0xbe, 0xce, 0xbc, 0x15, 0xbe, 0xc3, 0x3e, 0x17, 0x3e,
  0x39, 0x1c, 0x39, 0x3e, 0x08, 0xc7, 0x6f, 0x3d, 0x69, 0x6e, 0xab, 0xbc,
  0xae, 0x69, 0x23, 0x3d, 0xfd, 0xa3, 0x6a, 0x3e, 0x59, 0x02, 0xdb, 0x3d,
  0x4d, 0x9c, 0x7c, 0x3e, 0xee, 0xdc, 0x2f, 0x3c, 0xfc, 0x0a, 0xe4, 0xbd,
  0x66, 0xc9, 0xf4, 0xbd, 0x4d, 0x1c, 0xd0, 0x3d, 0xdb, 0x36, 0xf8, 0x3d,
  0x63, 0xa8, 0x28, 0x3e, 0x3d, 0xb8, 0xf5, 0xbd, 0xfe, 0xd6, 0x28, 0xbe,
  0x88, 0xba, 0x18, 0xbe, 0x05, 0x00, 0xbe, 0xbd, 0x8f, 0x16, 0xd6, 0x3d,
  0x5f, 0xd1, 0xe3, 0xbe, 0x7d, 0x48, 0x5f, 0xb9, 0xcf, 0xd7, 0xc2, 0x3d,
  0x1b, 0xc8, 0xff, 0xbd, 0x58, 0xbe, 0x43, 0xbe, 0xb0, 0xe1, 0x80, 0x3a,
  0x75, 0x71, 0xa1, 0xbd, 0xc2, 0xb8, 0xf2, 0xbd, 0x1a, 0xed, 0xae, 0xbc,
  0xb9, 0x9b, 0xa5, 0x3a, 0xff, 0x9f, 0x4c, 0xbd, 0x1d, 0xff, 0x8b, 0xbe,
  0x99, 0x70, 0x7e, 0xbe, 0x10, 0x2c, 0x44, 0xbe, 0x54, 0xcd, 0x35, 0xbe,
  0xe4, 0x5a, 0x4d, 0x3d, 0xbe, 0x8e, 0xe3, 0xbe, 0x24, 0xc1, 0x79, 0xbe,
  0xb0, 0x9b, 0x1d, 0x3e, 0xb2, 0xad, 0x17, 0x3f, 0x8c, 0xee, 0x05, 0xbe,
  0x07, 0xd6, 0x41, 0x3e, 0xe3, 0xfc, 0x2f, 0xbd, 0xfb, 0xfd, 0xc8, 0x3d,
  0x3d, 0x3f, 0x37, 0xbe, 0xff, 0x41, 0x19, 0x3e, 0xd9, 0x4a, 0x20, 0x3e,
  0xb8, 0x6e, 0x04, 0x3d, 0x6f, 0xe6, 0xad, 0xbd, 0x06, 0xf3, 0x93, 0x3e,
  0xe0, 0xda, 0x4d, 0xbe, 0xb1, 0xa6, 0xad, 0x3d, 0x79, 0x2c, 0xfa, 0xbc,
  0x7f, 0x90, 0x85, 0xbc, 0x0c, 0xd3, 0x3a, 0xbe, 0x11, 0x11, 0x85, 0x3e,
  0x1c, 0x85, 0x22, 0xbe, 0x9d, 0xb5, 0xa9, 0x3e, 0x59, 0x55, 0x01, 0xbe,
  0x9c, 0x0a, 0x4d, 0x3e, 0xc9, 0x4b, 0x17, 0xbe, 0x15, 0x14, 0xac, 0x3d,
  0xb2, 0x1c, 0xb9, 0xbd, 0x9e, 0xdd, 0x36, 0x3e, 0x85, 0xc5, 0x40, 0xbc,
  0x38, 0x9c, 0x83, 0x3e, 0x40, 0x17, 0x39, 0xbc, 0xc8, 0x55, 0x54, 0xbd,
  0x84, 0x6b, 0x09, 0x3e, 0x14, 0xf0, 0x76, 0x3d, 0x07, 0x38, 0x95, 0xbe,
  0x72, 0xab, 0x49, 0x3e, 0x7c, 0x31, 0x4b, 0x3e, 0x65, 0x1c, 0x59, 0xbe,
  0x7c, 0x56, 0xbb, 0xbe, 0xf3, 0xfd, 0x2a, 0x3c, 0xc2, 0xbb, 0xcd, 0x3d,
  0xd9, 0x8e, 0x8d, 0x3d, 0xec, 0xb4, 0xf3, 0xbc, 0x42, 0xab, 0x37, 0x3d,
  0xce, 0x28, 0x05, 0x3d, 0xbc, 0x5d, 0xa4, 0xbe, 0x78, 0xfa, 0x6b, 0xbd,
  0xc3, 0x98, 0xb8, 0xbe, 0x55, 0xb7, 0x5c, 0xbb, 0xc7, 0x49, 0x5b, 0xbd,
  0xe3, 0x06, 0xf8, 0x3d, 0x80, 0xe5, 0xa1, 0xbd, 0xe8, 0xd1, 0x74, 0xbe,
  0xb3, 0xb1, 0x8a, 0x3d, 0x91, 0xeb, 0xac, 0xbe, 0xc2, 0x59, 0x8f, 0xbd,
  0x75, 0x27, 0x90, 0xbd, 0x7e, 0xb8, 0x0d, 0x3e, 0xc4, 0xbd, 0x56, 0xbd,
  0xaa, 0x83, 0xb7, 0x3c, 0x89, 0x28, 0xbe, 0xbd, 0xe5, 0xe6, 0x3a, 0xbd,
  0x56, 0x30, 0xd7, 0xbd, 0xd3, 0xd6, 0xa5, 0xbe, 0x2f, 0xc9, 0x0e, 0xbe,
  0x1e, 0xb7, 0x96, 0x3b, 0x1c, 0xd6, 0x7a, 0x3e, 0x6c, 0xe5, 0x5d, 0xbe,
  0x0e, 0x41, 0x1a, 0xbe, 0x3b, 0xf7, 0x4b, 0x3c, 0x9a, 0x31, 0x54, 0xbe,
  0xcf, 0x64, 0x2d, 0xbb, 0xcc, 0x2f, 0x57, 0xbe, 0xf2, 0x54, 0x90, 0x3d,
  0x81, 0x53, 0x38, 0xbd, 0x2b, 0x8c, 0x0d, 0x3c, 0x2c, 0x8e, 0xfc, 0xbd,
  0x6e, 0x43, 0x17, 0x3d, 0xc8, 0xc5, 0x08, 0x3d, 0xb9, 0x0d, 0x55, 0xbd,
  0x5a, 0x8d, 0x86, 0x3c, 0x9d, 0xb8, 0x25, 0xbe, 0x0d, 0xdf, 0x9d, 0x3e,
  0xf1, 0xb9, 0x9a, 0x3e, 0xf1, 0x3a, 0x90, 0xbd, 0xca, 0x6d, 0xe5, 0x3d,
  0x17, 0x2a, 0x02, 0xbd, 0x14, 0x11, 0x39, 0x3d, 0x54, 0x6f, 0x4c, 0xbe,
  0x83, 0xe9, 0x89, 0x3e, 0x31, 0x5c, 0x88, 0x3e, 0x16, 0x52, 0x87, 0xbd,
  0xba, 0x82, 0x1d, 0xbd, 0x08, 0x40, 0x6b, 0x3c, 0x0a, 0x43, 0xc3, 0xbd,
  0x05, 0xbe, 0x1b, 0xbd, 0x6a, 0xce, 0x82, 0xbd, 0x8d, 0x76, 0xbd, 0xbd,
  0x97, 0xe6, 0x2b, 0xbe, 0x9d, 0x51, 0x03, 0xbd, 0x17, 0xe5, 0x69, 0xbe,
  0x24, 0x51, 0x47, 0x3e, 0x73, 0x51, 0xc4, 0xbe, 0x45, 0xea, 0x1d, 0xbd,
  0x05, 0xc6, 0x2a, 0xbe, 0x7d, 0x8c, 0x4b, 0xbe, 0x7b, 0x22, 0xb0, 0xbd,
  0xe5, 0xa5, 0x45, 0x3d, 0x47, 0x49, 0xf2, 0xbc, 0x02, 0x89, 0x4e, 0xbd,
  0x1f, 0x44, 0x44, 0x3e, 0x48, 0xd8, 0x2a, 0xbe, 0xab, 0x86, 0x47, 0x3c,
  0x44, 0xcf, 0x52, 0x3c, 0xbb, 0x65, 0x8c, 0xbe, 0x01, 0x03, 0x10, 0xbe,
  0x8d, 0x48, 0xe9, 0xbc, 0x4d, 0x0e, 0xe0, 0xbd, 0x6c, 0xf8, 0x31, 0xbe,
  0xc9, 0xad, 0xc6, 0xbd, 0x0e, 0xb9, 0x5e, 0xbd, 0xca, 0xc0, 0x87, 0xbe,
  0xde, 0x91, 0x4c, 0xbe, 0x7c, 0xa0, 0x2d, 0xbd, 0xec, 0xcb, 0x04, 0xbe,
  0xc5, 0xb9, 0x99, 0x3d, 0xcc, 0x9c, 0x53, 0xbe, 0x28, 0x39, 0xf8, 0x3d,
  0x4d, 0x74, 0xca, 0xbe, 0x86, 0x4e, 0x4f, 0x3e, 0x22, 0x57, 0x05, 0xbe,
  0x6f, 0x8d, 0x83, 0x3d, 0x70, 0xbf, 0x7c, 0xbe, 0xd3, 0x0c, 0x6d, 0x3d,
  0x14, 0x2c, 0xa7, 0xbe, 0x52, 0x51, 0x41, 0xbc, 0x2f, 0x4c, 0x5d, 0x3e,
  0x0c, 0x86, 0xac, 0xbd, 0x9c, 0x38, 0x6e, 0xbd, 0x8b, 0x96, 0x4d, 0xbe,
  0x89, 0xf1, 0x8d, 0xbe, 0x05, 0x72, 0xfa, 0xbc, 0x80, 0x96, 0xa6, 0xbb,
  0xb8, 0x6a, 0x95, 0x3c, 0xcd, 0x40, 0x75, 0xbe, 0x5b, 0xcb, 0x94, 0x3d,
  0x75, 0xfd, 0xef, 0xbc, 0x49, 0xa6, 0x22, 0x3e, 0xc5, 0x47, 0xf4, 0xbc,
  0x65, 0x41, 0x89, 0xbd, 0x4e, 0xa5, 0xb7, 0xbd, 0x9b, 0x50, 0x27, 0x3d,
  0x6a, 0x2b, 0x00, 0x3d, 0x81, 0x11, 0x5a, 0xbd, 0x34, 0x95, 0x28, 0x3e,
  0x88, 0xed, 0xb9, 0x3d, 0x28, 0xb6, 0xa5, 0x3d, 0x84, 0x2d, 0x3d, 0x3c,
  0x50, 0x0e, 0x98, 0x3c, 0x6c, 0xdb, 0x17, 0xbd, 0x3a, 0x50, 0x25, 0xbd,
  0x50, 0x6c, 0xc7, 0x3b, 0xcc, 0x40, 0x89, 0xbc, 0xcb, 0x0b, 0xb7, 0x3c,
  0x97, 0x1b, 0x23, 0x3e, 0x43, 0x66, 0x9d, 0x3e, 0x6e, 0x19, 0x3d, 0xbe,
  0x23, 0x1a, 0x0e, 0xbe, 0x6b, 0xf3, 0x4c, 0x3e, 0xb5, 0x91, 0xce, 0x3e,
  0x03, 0x1c, 0x3e, 0xbd, 0x87, 0x23, 0x72, 0xbe, 0x40, 0x38, 0x20, 0x3e,
  0xa2, 0x58, 0x7f, 0x3c, 0x27, 0x45, 0x05, 0x3e, 0x56, 0xe2, 0x54, 0x3c,
  0x85, 0x4d, 0x7d, 0xbd, 0xef, 0x09, 0x35, 0x3d, 0xa2, 0x3f, 0xa1, 0x3e,
  0x9a, 0x65, 0x03, 0xbd, 0x0a, 0xc1, 0xa8, 0xbd, 0x02, 0x8e, 0x1c, 0x3e,
  0xa6, 0x01, 0x57, 0xbe, 0xbc, 0x1f, 0x22, 0x3e, 0xfc, 0x74, 0x28, 0x3d,
  0x86, 0xeb, 0xb6, 0x3d, 0xaf, 0x12, 0xf2, 0xbd, 0x24, 0xb2, 0x3c, 0xbe,
  0x6c, 0xfd, 0x96, 0x3e, 0xd4, 0x2e, 0x5a, 0xbe, 0x4e, 0x16, 0xd0, 0xbd,
  0x8c, 0x6b, 0x0c, 0xbe, 0xb6, 0x79, 0x80, 0xbc, 0x2e, 0x1b, 0x00, 0xbd,
  0x4d, 0x08, 0x50, 0x3e, 0xe0, 0x44, 0x85, 0xbd, 0x6b, 0x99, 0x43, 0x3e,
  0x0e, 0xf1, 0x05, 0xbe, 0x75, 0xd7, 0x11, 0xbe, 0xcc, 0xe8, 0x38, 0xbe,
  0xf5, 0xdf, 0x80, 0x3e, 0x8e, 0xe7, 0x3e, 0xbe, 0x2c, 0x9a, 0xb5, 0x3d,
  0x68, 0xae, 0x6b, 0xbe, 0x16, 0x10, 0x83, 0x3d, 0x4d, 0x1e, 0x70, 0xbe,
  0x50, 0x09, 0x8a, 0xbc, 0x3d, 0x8c, 0x1e, 0x3e, 0x8d, 0x49, 0x85, 0xbe,
  0x8a, 0x39, 0xdf, 0x3d, 0xd3, 0x80, 0x83, 0xbd, 0x37, 0xa3, 0xa9, 0xbd,
  0xb8, 0xa4, 0xc6, 0xbd, 0x34, 0x4b, 0xb1, 0x3d, 0xbe, 0xd2, 0x67, 0xbe,
  0x77, 0xcc, 0x47, 0xbe, 0x5a, 0x63, 0x8d, 0xbd, 0xac, 0x5a, 0x45, 0x3d,
  0xe3, 0x4c, 0x0b, 0xbe, 0x2c, 0xe5, 0xec, 0x3d, 0xa8, 0x5a, 0xc2, 0xbd,
  0x1d, 0x53, 0x14, 0xbe, 0x61, 0xdd, 0x27, 0x3d, 0x6c, 0xc0, 0xc9, 0x3c,
  0x97, 0x2e, 0x57, 0xbe, 0x6f, 0xe2, 0x54, 0xbd, 0x13, 0xdd, 0x54, 0x3e,
  0x77, 0x93, 0x68, 0x3e, 0xe6, 0x27, 0xba, 0xbd, 0x1a, 0xb3, 0xd0, 0xba,
  0x23, 0x1b, 0xb3, 0xbe, 0x20, 0xaa, 0xd2, 0x3d, 0x04, 0x7e, 0x9e, 0xbe,
  0xa0, 0x89, 0x1d, 0x3e, 0x19, 0x20, 0x9a, 0x3d, 0xae, 0xb8, 0x8d, 0xbe,
  0xaf, 0x4a, 0x78, 0x3d, 0xba, 0xa3, 0xca, 0x3e, 0xb4, 0x4f, 0xa5, 0xbc,
  0x83, 0x98, 0xc6, 0xbd, 0x06, 0xa1, 0x87, 0xbd, 0xa2, 0xbd, 0x09, 0xbe,
  0x9f, 0x0d, 0xc4, 0x3d, 0xe8, 0x05, 0x3f, 0x3e, 0xa8, 0x3f, 0x20, 0x3e,
  0x1d, 0xfd, 0x6b, 0x3d, 0x23, 0x0b, 0x32, 0xbe, 0x95, 0x9c, 0xd4, 0xbd,
  0xdf, 0x6b, 0xec, 0xbe, 0xab, 0x04, 0x38, 0x3e, 0xd6, 0xb0, 0x9c, 0xbd,
  0xad, 0xbc, 0x9e, 0xbe, 0xa8, 0x9a, 0xa5, 0xbd, 0xd4, 0x2f, 0xa8, 0xbd,
  0x63, 0xd0, 0x33, 0x3e, 0x74, 0x55, 0x97, 0xbc, 0x4f, 0x9f, 0x3d, 0xbe,
  0xd1, 0xeb, 0x18, 0x3d, 0x88, 0x1a, 0xc9, 0x3b, 0x33, 0xb9, 0xcc, 0x3d,
  0x42, 0x62, 0x8b, 0x3e, 0xcf, 0xa5, 0x31, 0xbe, 0x54, 0x06, 0x76, 0xbb,
  0x4d, 0x59, 0xd3, 0x3d, 0x16, 0x50, 0x5d, 0xbe, 0x51, 0x8f, 0x1c, 0x3d,
  0xfa, 0xb8, 0x26, 0x3e, 0xaf, 0x84, 0xd8, 0xbe, 0xce, 0x58, 0x36, 0xbe,
  0x57, 0xfb, 0x49, 0x3e, 0xe1, 0x93, 0x29, 0x3e, 0x37, 0xec, 0x60, 0xbe,
  0xd4, 0xec, 0xfc, 0xbd, 0x80, 0x39, 0x5b, 0x3e, 0x9e, 0x26, 0x4a, 0x3c,
  0xbc, 0x8d, 0x4e, 0xbd, 0xeb, 0x53, 0xc4, 0x3d, 0x03, 0xb8, 0x6c, 0x3d,
  0xb5, 0x32, 0x45, 0xbe, 0xa8, 0x75, 0x3f, 0xbd, 0x7a, 0xaf, 0xa5, 0xbe,
  0x51, 0xb4, 0xe9, 0x3d, 0x97, 0x79, 0xa1, 0xbc, 0x43, 0xc0, 0xb9, 0xbe,
  0x93, 0xd0, 0x8e, 0x3d, 0x8c, 0x96, 0x93, 0xbe, 0x3a, 0x66, 0xb5, 0xbd,
  0xcb, 0x8c, 0x28, 0xbd, 0xff, 0xce, 0x22, 0xbe, 0xda, 0xa8, 0x00, 0x3e,
  0x2f, 0x6f, 0xc6, 0x3c, 0x54, 0xbc, 0x3b, 0xbd, 0xda, 0x2e, 0x38, 0x3e,
  0xed, 0xb3, 0xa8, 0x3e, 0x6f, 0x80, 0x75, 0xbb, 0x78, 0xc3, 0xee, 0x3c,
  0xfc, 0x45, 0x36, 0x3d, 0x87, 0x04, 0x38, 0x3e, 0xb8, 0x63, 0x5e, 0x3e,
  0x3c, 0xf5, 0xad, 0xbd, 0xfb, 0x6b, 0xb3, 0x3c, 0x4a, 0xdd, 0xc5, 0x3e,
  0x98, 0xdf, 0x75, 0xbd, 0x8f, 0xf9, 0xf8, 0x3c, 0x7f, 0xb5, 0x40, 0x3e,
  0xb9, 0x20, 0xf9, 0xbd, 0xde, 0xb8, 0xf8, 0x3d, 0x64, 0x02, 0x26, 0xbe,
  0xa5, 0x7a, 0x3c, 0xbe, 0xed, 0x6c, 0x0b, 0x3e, 0x0d, 0x11, 0xa1, 0x3c,
  0x61, 0x32, 0x03, 0x3e, 0x44, 0x62, 0x53, 0xbe, 0xf0, 0x29, 0xbd, 0x3e,
  0x49, 0xa0, 0x99, 0x3e, 0x66, 0x7e, 0xa6, 0xb9, 0x8e, 0xd5, 0x21, 0xbe,
  0xcd, 0xcd, 0x8c, 0x3e, 0xb4, 0xe2, 0x14, 0xbd, 0xdc, 0xf1, 0xe9, 0xbd,
  0xc6, 0xde, 0x01, 0x3d, 0x00, 0x49, 0xb8, 0xbd, 0x3f, 0x51, 0x99, 0xbe,
  0xdd, 0x36, 0xb8, 0x3d, 0x5d, 0xe4, 0xd7, 0x3b, 0x8c, 0x16, 0x8a, 0x3e,
  0x37, 0x55, 0x20, 0xbc, 0xf2, 0x1f, 0xd0, 0x3d, 0x6f, 0x11, 0x45, 0xbd,
  0x7c, 0x42, 0x1a, 0xbe, 0x8a, 0x65, 0x77, 0x3c, 0x78, 0x6b, 0xe4, 0x3d,
  0x1b, 0xd0, 0xe9, 0x3c, 0x94, 0x67, 0x12, 0x3e, 0x14, 0x4b, 0x05, 0x3e,
  0x50, 0xb6, 0x1b, 0xbd, 0x2b, 0x0d, 0x4a, 0x3d, 0xc3, 0x5f, 0x20, 0xbd,
  0x92, 0xdc, 0x4f, 0xbe, 0xba, 0xf1, 0xb4, 0x3e, 0x3b, 0x71, 0x0f, 0xbe,
  0xb8, 0x58, 0x85, 0xbe, 0x1a, 0xe7, 0x6d, 0xbd, 0x30, 0x51, 0x40, 0x3e,
  0x50, 0x08, 0x80, 0x3e, 0x9a, 0xdf, 0x9d, 0xbe, 0xd6, 0x49, 0x43, 0xbe,
  0xd1, 0xac, 0x3c, 0x3e, 0x2b, 0xa7, 0x93, 0x3e, 0xcd, 0x1c, 0x5a, 0xbe,
  0xb3, 0x8f, 0x16, 0xbe, 0x97, 0x7e, 0x16, 0xbe, 0x6d, 0x06, 0xad, 0xbb,
  0xa0, 0x54, 0xa9, 0x3e, 0x86, 0x12, 0x47, 0x3d, 0x66, 0xc5, 0x43, 0x3e,
  0x96, 0xd8, 0x6d, 0x3e, 0xdd, 0xc1, 0x02, 0x3e, 0xf0, 0x76, 0xa7, 0x3d,
  0x3d, 0xb2, 0x95, 0x3d, 0x12, 0xc4, 0xf5, 0x3d, 0x96, 0xcc, 0x44, 0x3c,
  0x16, 0xa8, 0xbe, 0xbd, 0xd2, 0xe5, 0x34, 0xbd, 0x49, 0x85, 0x88, 0x3c,
  0xdc, 0x7c, 0xea, 0xbd, 0xa8, 0x8c, 0x21, 0xbd, 0x07, 0x0e, 0x1c, 0xbe,
  0xa1, 0xed, 0xd0, 0xbc, 0xf1, 0x8b, 0x48, 0x3d, 0x47, 0xf2, 0x55, 0xbe,
  0xec, 0x88, 0x1d, 0x3e, 0x3c, 0xd9, 0x10, 0xbe, 0x72, 0xa7, 0x02, 0x3e,
  0x8b, 0x2b, 0xae, 0x3d, 0x68, 0x3b, 0x46, 0x3d, 0xae, 0xa2, 0x05, 0xbe,
  0xad, 0x25, 0x13, 0xbe, 0xdb, 0x68, 0x81, 0xbe, 0xe1, 0x37, 0x2a, 0x3e,
  0xc4, 0x36, 0x06, 0xbe, 0xc0, 0xfe, 0x1a, 0x3e, 0x30, 0x0c, 0xa0, 0x3c,
  0xf2, 0x69, 0x17, 0xbe, 0xd0, 0xec, 0x9d, 0x3d, 0xae, 0x27, 0x43, 0x3e,
  0xc2, 0x2a, 0x3f, 0xba, 0x7b, 0xe1, 0xd9, 0x3e, 0x02, 0x61, 0x4b, 0x3c,
  0x30, 0xbc, 0x44, 0x3e, 0x14, 0x71, 0x57, 0x3e, 0x95, 0x08, 0x69, 0x3e,
  0xf0, 0xc3, 0xe1, 0x3d, 0x74, 0x08, 0xd3, 0x3c, 0xe2, 0x04, 0x2a, 0x3e,
  0xfa, 0x27, 0x36, 0x3d, 0xae, 0x94, 0x18, 0x3e, 0xb9, 0x16, 0x43, 0x3e,
  0x53, 0x37, 0x2a, 0x3e, 0xa9, 0x17, 0x03, 0x3e, 0x3b, 0x68, 0x1f, 0x3d,
  0x64, 0x67, 0x9a, 0x3e, 0x01, 0xa9, 0xae, 0xbd, 0x66, 0x7c, 0x07, 0x3f,
  0x88, 0x23, 0x8f, 0x3e, 0xdd, 0xab, 0xf1, 0xbd, 0x92, 0xf1, 0x87, 0xbe,
  0xb9, 0x90, 0xad, 0x3e, 0xed, 0x2c, 0x28, 0x3d, 0x4d, 0x59, 0x71, 0xbd,
  0x1e, 0xa5, 0xe4, 0xbd, 0x0d, 0xc9, 0xd2, 0xb9, 0xd0, 0xdd, 0xa3, 0x3e,
  0x93, 0x04, 0x6e, 0x3d, 0x76, 0x80, 0x53, 0xbe, 0x83, 0x87, 0xf4, 0xbd,
  0x8a, 0x48, 0xea, 0x3d, 0x52, 0xa0, 0xd4, 0x3d, 0xdd, 0x04, 0x43, 0xbe,
  0x05, 0x16, 0x1e, 0x3f, 0xb1, 0x7e, 0xd8, 0x3d, 0x6f, 0x2f, 0x17, 0xbd,
  0xd1, 0x54, 0xa0, 0xbc, 0x08, 0x33, 0x2a, 0xbd, 0x56, 0x67, 0x17, 0xbe,
  0xa7, 0x5b, 0x47, 0xbd, 0x0e, 0x93, 0x86, 0x3c, 0xb5, 0xa5, 0xff, 0xbd,
  0x67, 0xce, 0x31, 0x3e, 0x04, 0x83, 0x88, 0x3d, 0xe1, 0xf4, 0x15, 0x3e,
  0xf0, 0x2f, 0x07, 0xbe, 0xf8, 0x75, 0x74, 0xbd, 0x91, 0xc4, 0x89, 0xbd,
  0x70, 0x31, 0x46, 0xbe, 0x75, 0x9e, 0x43, 0x3e, 0xd0, 0x02, 0xf3, 0xbd,
  0xf3, 0xa2, 0x6c, 0xbd, 0xc3, 0xde, 0x64, 0x3d, 0x47, 0xb2, 0xf9, 0x3d,
  0xcc, 0x3e, 0x21, 0xbd, 0x02, 0x28, 0xee, 0xbd, 0x11, 0x63, 0x3f, 0xbe,
  0xad, 0xc3, 0x1b, 0x3c, 0x17, 0x23, 0xcf, 0xbd, 0x41, 0x32, 0x62, 0x3d,
  0x3c, 0x06, 0xcd, 0x3d, 0xf6, 0xd0, 0x5c, 0xbe, 0x29, 0xf9, 0x7a, 0x3d,
  0x66, 0xfd, 0xff, 0xff, 0x10, 0x00, 0x00, 0x00, 0x07, 0x00, 0x00, 0x00,
  0x14, 0x00, 0x00, 0x00, 0x2c, 0x00, 0x00, 0x00, 0x02, 0x00, 0x00, 0x00,
  0x10, 0x00, 0x00, 0x00, 0x70, 0x00, 0x00, 0x00, 0x17, 0x00, 0x00, 0x00,
  0x73, 0x65, 0x71, 0x75, 0x65, 0x6e, 0x74, 0x69, 0x61, 0x6c, 0x2f, 0x64,
  0x65, 0x6e, 0x73, 0x65, 0x2f, 0x4d, 0x61, 0x74, 0x4d, 0x75, 0x6c, 0x00,
  0xd0, 0xfc, 0xff, 0xff, 0xda, 0xfd, 0xff, 0xff, 0x04, 0x00, 0x00, 0x00,
  0x08, 0x00, 0x00, 0x00, 0xff, 0xff, 0xff, 0xff, 0x70, 0x00, 0x00, 0x00,
  0x00, 0x00, 0x0e, 0x00, 0x18, 0x00, 0x08, 0x00, 0x07, 0x00, 0x0c, 0x00,
  0x10, 0x00, 0x14, 0x00, 0x0e, 0x00, 0x00, 0x00, 0x00, 0x00, 0x00, 0x02,
  0x10, 0x00, 0x00, 0x00, 0x06, 0x00, 0x00, 0x00, 0x10, 0x00, 0x00, 0x00,
  0x2c, 0x00, 0x00, 0x00, 0x01, 0x00, 0x00, 0x00, 0x02, 0x00, 0x00, 0x00,
  0x18, 0x00, 0x00, 0x00, 0x73, 0x65, 0x71, 0x75, 0x65, 0x6e, 0x74, 0x69,
  0x61, 0x6c, 0x2f, 0x66, 0x6c, 0x61, 0x74, 0x74, 0x65, 0x6e, 0x2f, 0x43,
  0x6f, 0x6e, 0x73, 0x74, 0x00, 0x00, 0x00, 0x00, 0x38, 0xfd, 0xff, 0xff,
  0x42, 0xfe, 0xff, 0xff, 0x04, 0x00, 0x00, 0x00, 0x0c, 0x00, 0x00, 0x00,
  0x26, 0x9b, 0xc1, 0xbe, 0x2b, 0x61, 0x66, 0x3e, 0x0f, 0x0b, 0x55, 0xbe,
  0x26, 0xfe, 0xff, 0xff, 0x10, 0x00, 0x00, 0x00, 0x05, 0x00, 0x00, 0x00,
  0x10, 0x00, 0x00, 0x00, 0x44, 0x00, 0x00, 0x00, 0x01, 0x00, 0x00, 0x00,
  0x03, 0x00, 0x00, 0x00, 0x32, 0x00, 0x00, 0x00, 0x73, 0x65, 0x71, 0x75,
  0x65, 0x6e, 0x74, 0x69, 0x61, 0x6c, 0x2f, 0x64, 0x65, 0x6e, 0x73, 0x65,
  0x5f, 0x31, 0x2f, 0x42, 0x69, 0x61, 0x73, 0x41, 0x64, 0x64, 0x2f, 0x52,
  0x65, 0x61, 0x64, 0x56, 0x61, 0x72, 0x69, 0x61, 0x62, 0x6c, 0x65, 0x4f,
  0x70, 0x2f, 0x72, 0x65, 0x73, 0x6f, 0x75, 0x72, 0x63, 0x65, 0x00, 0x00,
  0xa8, 0xfd, 0xff, 0xff, 0xb2, 0xfe, 0xff, 0xff, 0x04, 0x00, 0x00, 0x00,
  0x40, 0x00, 0x00, 0x00, 0x83, 0x1e, 0x9d, 0xbe, 0x13, 0x5e, 0xd8, 0x3f,
  0x6b, 0x18, 0x94, 0x3e, 0xe0, 0xb0, 0x32, 0xbe, 0x2c, 0xcb, 0x9f, 0x3e,
  0x86, 0xb0, 0x5c, 0x3f, 0x3e, 0x47, 0xc5, 0x3e, 0xe5, 0xc4, 0x8d, 0x3f,
  0x4c, 0x7e, 0xec, 0xbd, 0x87, 0x44, 0x8d, 0xbe, 0xe7, 0xad, 0x09, 0x40,
  0xd0, 0x99, 0xb3, 0xbd, 0x03, 0x44, 0x2d, 0xbf, 0x02, 0xfd, 0xc7, 0xbe,
  0xd0, 0xd7, 0x32, 0xbf, 0xf1, 0xab, 0x02, 0x3f, 0xca, 0xfe, 0xff, 0xff,
  0x10, 0x00, 0x00, 0x00, 0x04, 0x00, 0x00, 0x00, 0x10, 0x00, 0x00, 0x00,
  0x44, 0x00, 0x00, 0x00, 0x01, 0x00, 0x00, 0x00, 0x10, 0x00, 0x00, 0x00,
  0x30, 0x00, 0x00, 0x00, 0x73, 0x65, 0x71, 0x75, 0x65, 0x6e, 0x74, 0x69,
  0x61, 0x6c, 0x2f, 0x64, 0x65, 0x6e, 0x73, 0x65, 0x2f, 0x42, 0x69, 0x61,
  0x73, 0x41, 0x64, 0x64, 0x2f, 0x52, 0x65, 0x61, 0x64, 0x56, 0x61, 0x72,
  0x69, 0x61, 0x62, 0x6c, 0x65, 0x4f, 0x70, 0x2f, 0x72, 0x65, 0x73, 0x6f,
  0x75, 0x72, 0x63, 0x65, 0x00, 0x00, 0x00, 0x00, 0x4c, 0xfe, 0xff, 0xff,
  0x56, 0xff, 0xff, 0xff, 0x04, 0x00, 0x00, 0x00, 0x40, 0x00, 0x00, 0x00,
  0xec, 0xcb, 0xcb, 0xba, 0x3e, 0x9f, 0x87, 0xbe, 0x0e, 0xc5, 0x01, 0x40,
  0xa0, 0xfd, 0x58, 0x3d, 0x8c, 0x66, 0x40, 0xbf, 0x03, 0x05, 0xab, 0xbd,
  0xe6, 0x19, 0x24, 0xbe, 0x13, 0xf0, 0x05, 0xbe, 0x52, 0x13, 0x0e, 0xbe,
  0x26, 0xe2, 0xbf, 0xbe, 0x2a, 0x87, 0x72, 0xbd, 0x08, 0xa8, 0x3e, 0xbc,
  0xae, 0xdc, 0x96, 0xbe, 0x2a, 0x8d, 0xf6, 0xbd, 0x19, 0x00, 0x5e, 0xbe,
  0x17, 0x71, 0xec, 0xbd, 0x6e, 0xff, 0xff, 0xff, 0x10, 0x00, 0x00, 0x00,
  0x03, 0x00, 0x00, 0x00, 0x10, 0x00, 0x00, 0x00, 0x48, 0x00, 0x00, 0x00,
  0x01, 0x00, 0x00, 0x00, 0x10, 0x00, 0x00, 0x00, 0x33, 0x00, 0x00, 0x00,
  0x73, 0x65, 0x71, 0x75, 0x65, 0x6e, 0x74, 0x69, 0x61, 0x6c, 0x2f, 0x63,
  0x6f, 0x6e, 0x76, 0x32, 0x64, 0x5f, 0x31, 0x2f, 0x42, 0x69, 0x61, 0x73,
  0x41, 0x64, 0x64, 0x2f, 0x52, 0x65, 0x61, 0x64, 0x56, 0x61, 0x72, 0x69,
  0x61, 0x62, 0x6c, 0x65, 0x4f, 0x70, 0x2f, 0x72, 0x65, 0x73, 0x6f, 0x75,
  0x72, 0x63, 0x65, 0x00, 0x04, 0x00, 0x06, 0x00, 0x04, 0x00, 0x00, 0x00,
  0x00, 0x00, 0x06, 0x00, 0x08, 0x00, 0x04, 0x00, 0x06, 0x00, 0x00, 0x00,
  0x04, 0x00, 0x00, 0x00, 0x20, 0x00, 0x00, 0x00, 0x84, 0x87, 0x6e, 0xbf,
  0x6d, 0x59, 0x6c, 0xbf, 0xa7, 0xb6, 0xd6, 0xbf, 0x98, 0x4d, 0x0c, 0xc0,
  0xd5, 0x88, 0xb4, 0xbf, 0xf0, 0xf1, 0x75, 0xbf, 0x95, 0xf5, 0xa9, 0xbf,
  0xf8, 0x5b, 0xe6, 0xbf, 0x00, 0x00, 0x0e, 0x00, 0x14, 0x00, 0x04, 0x00,
  0x00, 0x00, 0x08, 0x00, 0x0c, 0x00, 0x10, 0x00, 0x0e, 0x00, 0x00, 0x00,
  0x10, 0x00, 0x00, 0x00, 0x02, 0x00, 0x00, 0x00, 0x10, 0x00, 0x00, 0x00,
  0x44, 0x00, 0x00, 0x00, 0x01, 0x00, 0x00, 0x00, 0x08, 0x00, 0x00, 0x00,
  0x31, 0x00, 0x00, 0x00, 0x73, 0x65, 0x71, 0x75, 0x65, 0x6e, 0x74, 0x69,
  0x61, 0x6c, 0x2f, 0x63, 0x6f, 0x6e, 0x76, 0x32, 0x64, 0x2f, 0x42, 0x69,
  0x61, 0x73, 0x41, 0x64, 0x64, 0x2f, 0x52, 0x65, 0x61, 0x64, 0x56, 0x61,
  0x72, 0x69, 0x61, 0x62, 0x6c, 0x65, 0x4f, 0x70, 0x2f, 0x72, 0x65, 0x73,
  0x6f, 0x75, 0x72, 0x63, 0x65, 0x00, 0x00, 0x00, 0x90, 0xff, 0xff, 0xff,
  0x14, 0x00, 0x18, 0x00, 0x04, 0x00, 0x00, 0x00, 0x08, 0x00, 0x0c, 0x00,
  0x10, 0x00, 0x00, 0x00, 0x00, 0x00, 0x14, 0x00, 0x14, 0x00, 0x00, 0x00,
  0x14, 0x00, 0x00, 0x00, 0x01, 0x00, 0x00, 0x00, 0x20, 0x00, 0x00, 0x00,
  0x44, 0x00, 0x00, 0x00, 0x2c, 0x00, 0x00, 0x00, 0x04, 0x00, 0x00, 0x00,
  0x01, 0x00, 0x00, 0x00, 0x40, 0x00, 0x00, 0x00, 0x03, 0x00, 0x00, 0x00,
  0x01, 0x00, 0x00, 0x00, 0x0c, 0x00, 0x00, 0x00, 0x63, 0x6f, 0x6e, 0x76,
  0x32, 0x64, 0x5f, 0x69, 0x6e, 0x70, 0x75, 0x74, 0x00, 0x00, 0x00, 0x00,
  0x04, 0x00, 0x00, 0x00, 0xff, 0xff, 0xff, 0xff, 0x40, 0x00, 0x00, 0x00,
  0x03, 0x00, 0x00, 0x00, 0x01, 0x00, 0x00, 0x00, 0xfc, 0xff, 0xff, 0xff,
  0x04, 0x00, 0x04, 0x00, 0x04, 0x00, 0x00, 0x00
};

unsigned int model_tflite_len = 13052;// Fill the int in `src/model.cc` here
